{
  "version": "1.0",
  "truncation": null,
  "padding": null,
  "added_tokens": [
    {
      "id": 0,
      "content": "[PAD]",
      "single_word": false,
      "lstrip": false,
      "rstrip": false,
      "normalized": false,
      "special": true
    },
    {
      "id": 1,
      "content": "[MASK]",
      "single_word": false,
      "lstrip": false,
      "rstrip": false,
      "normalized": false,
      "special": true
    },
    {
      "id": 2,
      "content": "[BOS]",
      "single_word": false,
      "lstrip": false,
      "rstrip": false,
      "normalized": false,
      "special": true
    },
    {
      "id": 3,
      "content": "[EOS]",
      "single_word": false,
      "lstrip": false,
      "rstrip": false,
      "normalized": false,
      "special": true
    },
    {
      "id": 4,
      "content": "[UNK]",
      "single_word": false,
      "lstrip": false,
      "rstrip": false,
      "normalized": false,
      "special": true
    }
  ],
  "normalizer": null,
  "pre_tokenizer": {
    "type": "ByteLevel",
    "add_prefix_space": false,
    "trim_offsets": true,
    "use_regex": true
  },
  "post_processor": {
    "type": "ByteLevel",
    "add_prefix_space": true,
    "trim_offsets": false,
    "use_regex": true
  },
  "decoder": {
    "type": "ByteLevel",
    "add_prefix_space": true,
    "trim_offsets": true,
    "use_regex": true
  },
  "model": {
    "type": "BPE",
    "dropout": null,
    "unk_token": "[UNK]",
    "continuing_subword_prefix": null,
    "end_of_word_suffix": null,
    "fuse_unk": false,
    "byte_fallback": false,
    "ignore_merges": false,
    "vocab": {
      "[PAD]": 0,
      "[MASK]": 1,
      "[BOS]": 2,
      "[EOS]": 3,
      "[UNK]": 4,
      "!": 5,
      "\"": 6,
      "#": 7,
      "$": 8,
      "%": 9,
      "&": 10,
      "'": 11,
      "(": 12,
      ")": 13,
      "*": 14,
      "+": 15,
      ",": 16,
      "-": 17,
      ".": 18,
      "/": 19,
      "0": 20,
      "1": 21,
      "2": 22,
      "3": 23,
      "4": 24,
      "5": 25,
      "6": 26,
      "7": 27,
      "8": 28,
      "9": 29,
      ":": 30,
      ";": 31,
      "<": 32,
      "=": 33,
      ">": 34,
      "?": 35,
      "@": 36,
      "A": 37,
      "B": 38,
      "C": 39,
      "D": 40,
      "E": 41,
      "F": 42,
      "G": 43,
      "H": 44,
      "I": 45,
      "J": 46,
      "K": 47,
      "L": 48,
      "M": 49,
      "N": 50,
      "O": 51,
      "P": 52,
      "Q": 53,
      "R": 54,
      "S": 55,
      "T": 56,
      "U": 57,
      "V": 58,
      "W": 59,
      "X": 60,
      "Y": 61,
      "Z": 62,
      "[": 63,
      "\\": 64,
      "]": 65,
      "^": 66,
      "_": 67,
      "`": 68,
      "a": 69,
      "b": 70,
      "c": 71,
      "d": 72,
      "e": 73,
      "f": 74,
      "g": 75,
      "h": 76,
      "i": 77,
      "j": 78,
      "k": 79,
      "l": 80,
      "m": 81,
      "n": 82,
      "o": 83,
      "p": 84,
      "q": 85,
      "r": 86,
      "s": 87,
      "t": 88,
      "u": 89,
      "v": 90,
      "w": 91,
      "x": 92,
      "y": 93,
      "z": 94,
      "{": 95,
      "|": 96,
      "}": 97,
      "~": 98,
      "â": 99,
      "ĉ": 100,
      "Ċ": 101,
      "Ġ": 102,
      "Ģ": 103,
      "Ļ": 104,
      "ĠĠ": 105,
      "ĠĠĠĠ": 106,
      "ĠĠĠ": 107,
      "ĠĠĠĠĠĠĠ": 108,
      "se": 109,
      "in": 110,
      "ĠĠĠĠĠĠĠĠ": 111,
      "re": 112,
      "at": 113,
      "Ġt": 114,
      "on": 115,
      "er": 116,
      "st": 117,
      "en": 118,
      "or": 119,
      "--": 120,
      "\"\"": 121,
      "sel": 122,
      "self": 123,
      "Ġ=": 124,
      "Ġa": 125,
      "Ġi": 126,
      "de": 127,
      "he": 128,
      "ĠĠĠĠĠĠĠĠĠĠĠ": 129,
      "le": 130,
      "al": 131,
      "Ġc": 132,
      "me": 133,
      "fi": 134,
      "ar": 135,
      "it": 136,
      "ur": 137,
      "Ġself": 138,
      "Ġre": 139,
      "Ġthe": 140,
      "Ġn": 141,
      "Ġp": 142,
      "\"\"\"": 143,
      "Ġf": 144,
      "Ġo": 145,
      "ent": 146,
      "et": 147,
      "Ġin": 148,
      "ame": 149,
      "ion": 150,
      "ce": 151,
      "----": 152,
      "):": 153,
      "Ġs": 154,
      "ro": 155,
      "ct": 156,
      "def": 157,
      "Ġ'": 158,
      "Ġ\"\"\"": 159,
      "li": 160,
      "ra": 161,
      "mp": 162,
      "urn": 163,
      "pe": 164,
      "Ġm": 165,
      "Ġe": 166,
      "Ġif": 167,
      "Ġb": 168,
      "te": 169,
      "ing": 170,
      "Ġd": 171,
      "ate": 172,
      "un": 173,
      "lo": 174,
      "ot": 175,
      "turn": 176,
      "um": 177,
      "ĠĠĠĠĠĠĠĠĠĠĠĠĠĠĠ": 178,
      "Ġreturn": 179,
      "il": 180,
      "co": 181,
      "ke": 182,
      "ut": 183,
      "file": 184,
      "id": 185,
      "Ġw": 186,
      "ue": 187,
      "as": 188,
      "od": 189,
      "nd": 190,
      "ri": 191,
      "Ġis": 192,
      "Ġfor": 193,
      "ĠĠĠĠĠĠĠĠĠĠĠĠĠĠĠĠ": 194,
      "ser": 195,
      "ter": 196,
      "ul": 197,
      "ath": 198,
      "key": 199,
      "Ġst": 200,
      "Ġto": 201,
      "pt": 202,
      "val": 203,
      "ad": 204,
      "._": 205,
      "an": 206,
      "name": 207,
      "bj": 208,
      "up": 209,
      "Ġ:": 210,
      "Ġof": 211,
      "Ġ#": 212,
      "one": 213,
      "()": 214,
      "ap": 215,
      "ck": 216,
      "Ġ(": 217,
      "--------": 218,
      "is": 219,
      "ect": 220,
      "''": 221,
      "con": 222,
      "ag": 223,
      "Ġnot": 224,
      "ĠT": 225,
      "Ġg": 226,
      "ĠN": 227,
      "ch": 228,
      "par": 229,
      "ype": 230,
      "ror": 231,
      "vi": 232,
      "ed": 233,
      "')": 234,
      "',": 235,
      "am": 236,
      "ts": 237,
      "xt": 238,
      "ation": 239,
      "Ġcon": 240,
      "Ġco": 241,
      "ĠĠĠĠĠĠĠĠĠĠĠĠĠĠĠĠĠĠĠ": 242,
      "Ġth": 243,
      "path": 244,
      "ver": 245,
      "Ġu": 246,
      "value": 247,
      "ab": 248,
      "Ġand": 249,
      "el": 250,
      "Ġh": 251,
      "di": 252,
      "ta": 253,
      "del": 254,
      "Ġex": 255,
      "es": 256,
      "po": 257,
      "bject": 258,
      "ma": 259,
      "Ġ*": 260,
      "Er": 261,
      "Ġl": 262,
      "ult": 263,
      "Error": 264,
      "))": 265,
      "est": 266,
      "ise": 267,
      "ĠI": 268,
      "ĠP": 269,
      "Ġra": 270,
      "ort": 271,
      "lient": 272,
      "ry": 273,
      "('": 274,
      "ase": 275,
      "si": 276,
      "Ġse": 277,
      "ĠNone": 278,
      "ew": 279,
      "ith": 280,
      "ĠĠĠĠĠ": 281,
      "Ġres": 282,
      "gs": 283,
      "Ġ1": 284,
      "Ġ-": 285,
      "Ġlo": 286,
      "Ġ+": 287,
      "Ġ_": 288,
      "th": 289,
      "ĠA": 290,
      "bum": 291,
      "Ġor": 292,
      "Ġbe": 293,
      "rom": 294,
      "Ġ'''": 295,
      "ub": 296,
      "Ġ\"": 297,
      "ata": 298,
      "Ġar": 299,
      "ass": 300,
      "Ġ[": 301,
      "ic": 302,
      "ment": 303,
      "odel": 304,
      "Ġ%": 305,
      "ild": 306,
      "type": 307,
      "Ġan": 308,
      "res": 309,
      "ĠS": 310,
      "Ġal": 311,
      "fil": 312,
      "get": 313,
      "Ġkey": 314,
      "che": 315,
      "oo": 316,
      "vice": 317,
      "qu": 318,
      "ist": 319,
      "fig": 320,
      "ray": 321,
      "']": 322,
      "list": 323,
      "Ġstr": 324,
      "age": 325,
      "ci": 326,
      "end": 327,
      "Ġname": 328,
      "Ġdi": 329,
      "Ġel": 330,
      "app": 331,
      "files": 332,
      "mple": 333,
      "Ġwith": 334,
      "])": 335,
      "for": 336,
      "ha": 337,
      "text": 338,
      "ns": 339,
      "Ġ0": 340,
      "mat": 341,
      "all": 342,
      "ption": 343,
      "able": 344,
      "['": 345,
      "Ġvalue": 346,
      "ction": 347,
      "cl": 348,
      "args": 349,
      "Ġtest": 350,
      "tain": 351,
      "Ġelse": 352,
      "__": 353,
      "ĠR": 354,
      "Ġas": 355,
      "param": 356,
      "Ġraise": 357,
      "uild": 358,
      "ze": 359,
      "Ġx": 360,
      "Ġclient": 361,
      ".\"\"\"": 362,
      "pl": 363,
      "ven": 364,
      "set": 365,
      "ity": 366,
      "ition": 367,
      "eld": 368,
      "pre": 369,
      "ve": 370,
      "ren": 371,
      "eturn": 372,
      "Ġk": 373,
      "Ġde": 374,
      "Ġ==": 375,
      "Ġfrom": 376,
      "mpl": 377,
      "----------------": 378,
      "ule": 379,
      "ĠC": 380,
      "Ġlist": 381,
      "ĠĠĠĠĠĠĠĠĠĠĠĠ": 382,
      "ite": 383,
      "test": 384,
      "(\"": 385,
      "ho": 386,
      "Ġr": 387,
      "Ġdef": 388,
      "our": 389,
      "ind": 390,
      "Ġnp": 391,
      "Ġobject": 392,
      "odule": 393,
      "Ġuser": 394,
      "Ġget": 395,
      "os": 396,
      "to": 397,
      "us": 398,
      "field": 399,
      "Ġout": 400,
      "unt": 401,
      "==": 402,
      ">>": 403,
      "out": 404,
      "str": 405,
      "ay": 406,
      "sert": 407,
      "],": 408,
      "obj": 409,
      "Ġ<": 410,
      "stan": 411,
      "ces": 412,
      "mport": 413,
      "ast": 414,
      "Ġme": 415,
      "ats": 416,
      "heap": 417,
      "ents": 418,
      "cept": 419,
      "pos": 420,
      "log": 421,
      "':": 422,
      "ack": 423,
      "ure": 424,
      "ust": 425,
      "roup": 426,
      "pp": 427,
      "py": 428,
      "tr": 429,
      "Ġ`": 430,
      "ints": 431,
      "album": 432,
      "Ġthat": 433,
      "\")": 434,
      "Get": 435,
      "data": 436,
      "Ġ--": 437,
      "Ġfil": 438,
      "und": 439,
      "Ġthis": 440,
      "tainer": 441,
      "ault": 442,
      "ow": 443,
      "put": 444,
      "wargs": 445,
      "Ġ{": 446,
      "reate": 447,
      "ary": 448,
      "Ġpar": 449,
      "rent": 450,
      "rue": 451,
      "ine": 452,
      "Ġid": 453,
      "Ġarray": 454,
      "mplate": 455,
      "ample": 456,
      "ig": 457,
      "om": 458,
      "pod": 459,
      "comp": 460,
      "ex": 461,
      "ĠD": 462,
      "urse": 463,
      "entry": 464,
      "per": 465,
      "Ġbuild": 466,
      "col": 467,
      "mail": 468,
      "Ġit": 469,
      "ameter": 470,
      "ource": 471,
      "Ġy": 472,
      "init": 473,
      "alt": 474,
      "lif": 475,
      "),": 476,
      ").": 477,
      "group": 478,
      "ime": 479,
      "ly": 480,
      "Ġ2": 481,
      "ĠM": 482,
      "Ġtry": 483,
      "Ġuse": 484,
      "Ġresult": 485,
      "stance": 486,
      "ol": 487,
      "device": 488,
      "container": 489,
      "cal": 490,
      "tition": 491,
      "heck": 492,
      "Ġnet": 493,
      "Ġelif": 494,
      "ader": 495,
      "im": 496,
      "state": 497,
      "pec": 498,
      "Ġbase": 499,
      "Ġset": 500,
      "ge": 501,
      "port": 502,
      "ename": 503,
      "iti": 504,
      "Ġnew": 505,
      "Ġmodel": 506,
      "ĠIf": 507,
      "Ġoutfile": 508,
      "None": 509,
      "ache": 510,
      "ff": 511,
      "ĠF": 512,
      "Ġun": 513,
      "Ġexcept": 514,
      "ON": 515,
      "ext": 516,
      "object": 517,
      "user": 518,
      "ĠĠĠĠĠĠĠĠĠ": 519,
      "read": 520,
      "valid": 521,
      "size": 522,
      "='": 523,
      "ey": 524,
      "ifi": 525,
      "mo": 526,
      "model": 527,
      "ound": 528,
      "ph": 529,
      "ss": 530,
      "Ġat": 531,
      "ĠĠĠĠĠĠĠĠĊ": 532,
      "alse": 533,
      "root": 534,
      "Ġdo": 535,
      "Ġwh": 536,
      "Ġlen": 537,
      "format": 538,
      "ptions": 539,
      "Con": 540,
      "ep": 541,
      "net": 542,
      "Ġon": 543,
      "ener": 544,
      "Ġpro": 545,
      "config": 546,
      "Ġalbum": 547,
      "Ġstring": 548,
      "hape": 549,
      "St": 550,
      "ll": 551,
      "var": 552,
      "lic": 553,
      "tem": 554,
      "ĠThe": 555,
      "ĠReturn": 556,
      "ht": 557,
      "ile": 558,
      "yn": 559,
      "Ġcheck": 560,
      "Ġpath": 561,
      "compon": 562,
      "jo": 563,
      "spec": 564,
      "ĠO": 565,
      "Ġimport": 566,
      "ĠĠĠĠĠĠĠĠĠĠĠĠĠĠĠĠĠĠĠĠĠĠĠĠĠĠĠĠĠĠĠĠ": 567,
      "plit": 568,
      "prec": 569,
      "Key": 570,
      "client": 571,
      "not": 572,
      "ĠX": 573,
      "int": 574,
      "ert": 575,
      "Ġapp": 576,
      "Ġitem": 577,
      "Ġpre": 578,
      "Ġos": 579,
      "peci": 580,
      "Ġby": 581,
      "template": 582,
      "low": 583,
      "idx": 584,
      "ndom": 585,
      "ME": 586,
      "pro": 587,
      "ĠL": 588,
      "instance": 589,
      "Ġch": 590,
      "Ġcl": 591,
      "Ġsho": 592,
      "umb": 593,
      "ument": 594,
      "points": 595,
      "Ġ**": 596,
      "ĠIn": 597,
      "Ġlog": 598,
      "class": 599,
      "vari": 600,
      "gist": 601,
      "kwargs": 602,
      "np": 603,
      "Ġ>>": 604,
      "Ġpo": 605,
      "Ġdata": 606,
      "ids": 607,
      "ĠTrue": 608,
      "Ġconfig": 609,
      "colum": 610,
      "components": 611,
      "Val": 612,
      "ace": 613,
      "mage": 614,
      "no": 615,
      "pha": 616,
      "Ġ)": 617,
      "Ġheap": 618,
      "ory": 619,
      "ded": 620,
      "array": 621,
      "ill": 622,
      "dir": 623,
      "ctionary": 624,
      "ken": 625,
      "rame": 626,
      "Ġfile": 627,
      "pts": 628,
      "Ġexist": 629,
      "append": 630,
      "__(": 631,
      "Ġdefault": 632,
      "ayer": 633,
      "Ġbuilder": 634,
      "Stats": 635,
      "Return": 636,
      "kub": 637,
      "que": 638,
      "shape": 639,
      "ute": 640,
      "Ġup": 641,
      "attr": 642,
      "error": 643,
      "ens": 644,
      "Ġare": 645,
      "Ġfun": 646,
      "Ġover": 647,
      "Ġmust": 648,
      "'''": 649,
      "view": 650,
      "Ġcourse": 651,
      "ameters": 652,
      "Ex": 653,
      "cp": 654,
      "dd": 655,
      "iven": 656,
      "Ġ!": 657,
      "ĠVal": 658,
      "red": 659,
      "Ġtra": 660,
      "raph": 661,
      "Ġmat": 662,
      "Ġmodule": 663,
      "term": 664,
      "add": 665,
      "parse": 666,
      "resp": 667,
      "nsor": 668,
      "cala": 669,
      "():": 670,
      ":`": 671,
      "Test": 672,
      "[:": 673,
      "fo": 674,
      "ize": 675,
      "line": 676,
      "module": 677,
      "pi": 678,
      "ug": 679,
      "ator": 680,
      "Ġspeci": 681,
      "Ġma": 682,
      "ueError": 683,
      "uld": 684,
      ".__": 685,
      "Ġcol": 686,
      "ĠĠĠĠĠĠĠĠĠĠĠĠĊ": 687,
      "item": 688,
      "Ġfilename": 689,
      "ĠReturns": 690,
      "Ġ>>>": 691,
      "ĠValueError": 692,
      "ec": 693,
      "iz": 694,
      "ich": 695,
      "ost": 696,
      "Ġ--------": 697,
      "Ġentry": 698,
      "ink": 699,
      "Ġtype": 700,
      "ery": 701,
      "alpha": 702,
      "assert": 703,
      "Ġisinstance": 704,
      "Ġcontext": 705,
      "Ġarg": 706,
      "qual": 707,
      "====": 708,
      "([": 709,
      "ca": 710,
      "md": 711,
      "su": 712,
      "split": 713,
      "ĠU": 714,
      "inv": 715,
      "infiles": 716,
      "Ġno": 717,
      "Ġpri": 718,
      "ask": 719,
      "partition": 720,
      "Ġ__": 721,
      "thod": 722,
      "filter": 723,
      "indow": 724,
      "base": 725,
      "back": 726,
      "math": 727,
      "nu": 728,
      "options": 729,
      "Ġser": 730,
      "ating": 731,
      "Ġpos": 732,
      "riven": 733,
      "Ġ+=": 734,
      "Ġall": 735,
      "Ġ{}": 736,
      "Ġshould": 737,
      "variable": 738,
      "cate": 739,
      "do": 740,
      "date": 741,
      "ĠĠĠĠĠĠ": 742,
      "ork": 743,
      "urrent": 744,
      "Ġsli": 745,
      "Ġwe": 746,
      "Ġstate": 747,
      "names": 748,
      "ations": 749,
      "Ġhas": 750,
      "thon": 751,
      "check": 752,
      "query": 753,
      "Ġmethod": 754,
      "Ġidx": 755,
      "containers": 756,
      "Ġwhich": 757,
      "ync": 758,
      "join": 759,
      "Ġfunction": 760,
      "'.": 761,
      "Equal": 762,
      "File": 763,
      "ail": 764,
      "arent": 765,
      "cro": 766,
      "cri": 767,
      "from": 768,
      "his": 769,
      "ip": 770,
      "ty": 771,
      "wr": 772,
      "Ġfield": 773,
      "stat": 774,
      "dex": 775,
      "Ġcall": 776,
      "fix": 777,
      "ard": 778,
      "Ġpod": 779,
      "Ġwill": 780,
      "Ġgiven": 781,
      "ments": 782,
      "Ġnames": 783,
      "apping": 784,
      "clu": 785,
      "inder": 786,
      "Ġfilter": 787,
      "umber": 788,
      "Ġspecifi": 789,
      "assertEqual": 790,
      "\",": 791,
      "RA": 792,
      "pen": 793,
      "uct": 794,
      "ĠKey": 795,
      "arameters": 796,
      "Ġint": 797,
      "Ġinto": 798,
      "peline": 799,
      "Ġwx": 800,
      "rix": 801,
      "Ġ[]": 802,
      "..": 803,
      "ES": 804,
      "Gener": 805,
      "Pod": 806,
      "ach": 807,
      "gen": 808,
      "new": 809,
      "tf": 810,
      "tt": 811,
      "vel": 812,
      "ĠH": 813,
      "Ġv": 814,
      "Ġ|": 815,
      "sed": 816,
      "inter": 817,
      "ĠĠĠĠĠĠĠĠĠĠĠĠĠĠĠĠĠĠĠĠĠĠĠ": 818,
      "Ġtime": 819,
      "Ġinfiles": 820,
      "rop": 821,
      "com": 822,
      "count": 823,
      "())": 824,
      "ypeError": 825,
      "vers": 826,
      "Ġhost": 827,
      "max": 828,
      "Ġresource": 829,
      "Ġkeys": 830,
      "--------------------------------": 831,
      "amples": 832,
      "quest": 833,
      "AT": 834,
      "bound": 835,
      "dkey": 836,
      "gn": 837,
      "run": 838,
      "sum": 839,
      "wer": 840,
      "Ġj": 841,
      "Ġhe": 842,
      "rect": 843,
      "ature": 844,
      "Ġtf": 845,
      "Ġadd": 846,
      "Ġcreate": 847,
      "Ġso": 848,
      "mpty": 849,
      "code": 850,
      "ride": 851,
      "ĠTypeError": 852,
      "Ġlower": 853,
      "ther": 854,
      "Ġvalues": 855,
      "ĠĠĠĠĠĠĠĠĠĠĠĠĠĠ": 856,
      "ities": 857,
      "ssage": 858,
      "clude": 859,
      "'s": 860,
      ".,": 861,
      "Re": 862,
      "em": 863,
      "ner": 864,
      "ron": 865,
      "ys": 866,
      "Ġ>": 867,
      "ĠW": 868,
      "Ġiter": 869,
      "led": 870,
      "Ġsup": 871,
      "rand": 872,
      "load": 873,
      "ility": 874,
      "ĠĠĠĠĠĠĠĠĠĠĠĠĠĠĠĠĠĠĠĠĠĠĠĠĠĠĠ": 875,
      "context": 876,
      "ĠThis": 877,
      "chur": 878,
      "Ġcont": 879,
      "ĠParameters": 880,
      "Ġran": 881,
      "Ġload": 882,
      "Ġdict": 883,
      "Ġdevice": 884,
      "prob": 885,
      "Ġ----------": 886,
      "(*": 887,
      "False": 888,
      "OR": 889,
      "bet": 890,
      "dis": 891,
      "driven": 892,
      "econfig": 893,
      "fun": 894,
      "ipeline": 895,
      "nect": 896,
      "scala": 897,
      "Ġvalid": 898,
      "enro": 899,
      "orm": 900,
      "Ġread": 901,
      "Ġper": 902,
      "Ġpass": 903,
      "cted": 904,
      "default": 905,
      "Ġeach": 906,
      "Ġdkey": 907,
      "cope": 908,
      "Ġformat": 909,
      "ull": 910,
      "ans": 911,
      "vert": 912,
      "pop": 913,
      "Ġ%(": 914,
      "ress": 915,
      "ool": 916,
      "Ġkwargs": 917,
      "Ġrun": 918,
      "ĠFalse": 919,
      "'t": 920,
      "Bam": 921,
      "In": 922,
      "ait": 923,
      "lug": 924,
      "sing": 925,
      "we": 926,
      "infile": 927,
      "Ġcache": 928,
      "ark": 929,
      "Ġemail": 930,
      "rig": 931,
      "Ġstat": 932,
      "dictionary": 933,
      "Ġrandom": 934,
      "Ġresp": 935,
      "ĠSalt": 936,
      "peration": 937,
      "Ġunit": 938,
      "Ġpoints": 939,
      "columns": 940,
      "write": 941,
      "Ġspecified": 942,
      "ĠKeyError": 943,
      "enroll": 944,
      "'):": 945,
      "QD": 946,
      "SA": 947,
      "SE": 948,
      "SI": 949,
      "True": 950,
      "]))": 951,
      "``": 952,
      "ac": 953,
      "build": 954,
      "bute": 955,
      "email": 956,
      "fc": 957,
      "fe": 958,
      "iod": 959,
      "ja": 960,
      "layer": 961,
      "so": 962,
      "Ġfiles": 963,
      "ined": 964,
      "ree": 965,
      "err": 966,
      "ority": 967,
      "lear": 968,
      "meta": 969,
      "fici": 970,
      "its": 971,
      "util": 972,
      "async": 973,
      "ribute": 974,
      "ĠĠĠĠĠĠĠĠĠĠĠĠĠĠĠĠĠĠĠĠ": 975,
      "ults": 976,
      "ags": 977,
      "Ġcontain": 978,
      "Ġha": 979,
      "Ġhass": 980,
      "dim": 981,
      "ĠAr": 982,
      "ĠSchur": 983,
      "struct": 984,
      "cess": 985,
      "Ġ``": 986,
      "Ġpartition": 987,
      "Ġchild": 988,
      "Ġ!=": 989,
      "ecut": 990,
      "doc": 991,
      "queryset": 992,
      "Ġrange": 993,
      "beta": 994,
      "iodic": 995,
      "Vi": 996,
      "[\"": 997,
      "emplate": 998,
      "ir": 999,
      "norm": 1000,
      "opts": 1001,
      "samples": 1002,
      "wx": 1003,
      "ĠĊ": 1004,
      "Ġli": 1005,
      "Ġdel": 1006,
      "Ġerror": 1007,
      "inja": 1008,
      "atab": 1009,
      "iter": 1010,
      "Ġregist": 1011,
      "definder": 1012,
      "ped": 1013,
      "Ġmo": 1014,
      "Ġext": 1015,
      "course": 1016,
      "nder": 1017,
      "','": 1018,
      "ability": 1019,
      "ĠPipeline": 1020,
      "ĠPQD": 1021,
      "Ġsensor": 1022,
      "Ġ['": 1023,
      "ooser": 1024,
      "quen": 1025,
      "setup": 1026,
      "ificate": 1027,
      "ertificate": 1028,
      "items": 1029,
      "Generator": 1030,
      "yson": 1031,
      "BamStats": 1032,
      "View": 1033,
      "atabase": 1034,
      "ĠPipelineBamStats": 1035,
      ".\"": 1036,
      "Lo": 1037,
      "Link": 1038,
      "Model": 1039,
      "].": 1040,
      "]:": 1041,
      "call": 1042,
      "cmd": 1043,
      "fast": 1044,
      "flow": 1045,
      "graph": 1046,
      "ive": 1047,
      "mc": 1048,
      "nse": 1049,
      "pace": 1050,
      "rint": 1051,
      "tra": 1052,
      "vate": 1053,
      "Ġ/": 1054,
      "ernet": 1055,
      "arch": 1056,
      "Ġpy": 1057,
      "Ġparent": 1058,
      "Ġsalt": 1059,
      "Ġmapping": 1060,
      "Ġdis": 1061,
      "Ġform": 1062,
      "ptim": 1063,
      "dict": 1064,
      "isense": 1065,
      "ĠPod": 1066,
      "'],": 1067,
      "Ġdim": 1068,
      "Ġassert": 1069,
      "ĠCon": 1070,
      "itial": 1071,
      "ONF": 1072,
      "Ġclass": 1073,
      "umentation": 1074,
      "ernetes": 1075,
      "00": 1076,
      "50": 1077,
      "Set": 1078,
      "[-": 1079,
      "ax": 1080,
      "act": 1081,
      "ds": 1082,
      "ee": 1083,
      "eh": 1084,
      "fy": 1085,
      "hot": 1086,
      "num": 1087,
      "pri": 1088,
      "sh": 1089,
      "tc": 1090,
      "vail": 1091,
      "wait": 1092,
      "Ġ3": 1093,
      "inal": 1094,
      "ination": 1095,
      "return": 1096,
      "report": 1097,
      "request": 1098,
      "stination": 1099,
      "env": 1100,
      "Ġimage": 1101,
      "Ġca": 1102,
      "art": 1103,
      "Ġpkey": 1104,
      "entities": 1105,
      "Ġsu": 1106,
      "Ġsing": 1107,
      "Ġmer": 1108,
      "ted": 1109,
      "cover": 1110,
      "ked": 1111,
      "Ġ->": 1112,
      "icard": 1113,
      "resource": 1114,
      "form": 1115,
      "Config": 1116,
      "column": 1117,
      "nodefinder": 1118,
      "ensor": 1119,
      "status": 1120,
      "interval": 1121,
      "func": 1122,
      "right": 1123,
      "Loader": 1124,
      "vailable": 1125,
      ")]": 1126,
      "::": 1127,
      "=\"": 1128,
      "Co": 1129,
      "Cache": 1130,
      "Image": 1131,
      "Name": 1132,
      "Ra": 1133,
      "aults": 1134,
      "bam": 1135,
      "gtf": 1136,
      "llo": 1137,
      "ml": 1138,
      "sparse": 1139,
      "time": 1140,
      "with": 1141,
      "Ġ4": 1142,
      "ĠZ": 1143,
      "ĠGet": 1144,
      "ĠEx": 1145,
      "Ġvariable": 1146,
      "atch": 1147,
      "org": 1148,
      "---": 1149,
      "Ġac": 1150,
      "hello": 1151,
      "Ġcan": 1152,
      "Ġother": 1153,
      "Ġsa": 1154,
      "Ġdrop": 1155,
      "ĠĠĠĠĠĠĠĠĠĠĠĠĠĠĠĠĠĠĠĠĠĠĠĠĠĠĠĠĠĠĠ": 1156,
      "macro": 1157,
      "Ġlast": 1158,
      "ublic": 1159,
      "Ġdictionary": 1160,
      "nscri": 1161,
      "output": 1162,
      "Ġused": 1163,
      "Ġmodels": 1164,
      "Ġprev": 1165,
      "kubeconfig": 1166,
      "Ġcolum": 1167,
      "izer": 1168,
      "Ġslim": 1169,
      "version": 1170,
      "ĠSaltCache": 1171,
      "quence": 1172,
      "ptimizer": 1173,
      "ĠSaltCacheLoader": 1174,
      "\"]": 1175,
      "//": 1176,
      "://": 1177,
      "DI": 1178,
      "RE": 1179,
      "Se": 1180,
      "TI": 1181,
      "`.": 1182,
      "ble": 1183,
      "current": 1184,
      "der": 1185,
      "empty": 1186,
      "ffici": 1187,
      "ger": 1188,
      "gth": 1189,
      "len": 1190,
      "lag": 1191,
      "my": 1192,
      "ou": 1193,
      "ved": 1194,
      "work": 1195,
      "ĠB": 1196,
      "sensor": 1197,
      "regist": 1198,
      "Ġtup": 1199,
      "Ġtable": 1200,
      "ons": 1201,
      "Ġawait": 1202,
      "alled": 1203,
      "means": 1204,
      "Ġnumber": 1205,
      "Ġsh": 1206,
      "Ġsub": 1207,
      "Ġsig": 1208,
      "Ġscope": 1209,
      "pected": 1210,
      "Ġmod": 1211,
      "Ġmap": 1212,
      "Ġmult": 1213,
      "uments": 1214,
      "keep": 1215,
      "Ġwindow": 1216,
      "ries": 1217,
      "Ġstride": 1218,
      "Ġcopy": 1219,
      "abel": 1220,
      "main": 1221,
      "sign": 1222,
      "Ġargs": 1223,
      "cheme": 1224,
      "outfile": 1225,
      "Ġmessage": 1226,
      "own": 1227,
      "Ġarrays": 1228,
      "igh": 1229,
      "Ġdoes": 1230,
      "Ġchecks": 1231,
      "arrays": 1232,
      "Ġmatrix": 1233,
      "cape": 1234,
      "Ġpriority": 1235,
      "Ġcallback": 1236,
      "utils": 1237,
      "509": 1238,
      "axis": 1239,
      "Ġsingle": 1240,
      "%(": 1241,
      "53": 1242,
      "={": 1243,
      "Client": 1244,
      "Create": 1245,
      "ER": 1246,
      "NA": 1247,
      "aeh": 1248,
      "cr": 1249,
      "cre": 1250,
      "create": 1251,
      "man": 1252,
      "ous": 1253,
      "ting": 1254,
      "ĠE": 1255,
      "ĠG": 1256,
      "Ġle": 1257,
      "Ġtemplate": 1258,
      "erature": 1259,
      "Ġavailable": 1260,
      "det": 1261,
      "Ġcase": 1262,
      "Ġcurrent": 1263,
      "mem": 1264,
      "Ġfc": 1265,
      "Ġoperation": 1266,
      "Ġsame": 1267,
      "mperature": 1268,
      "ated": 1269,
      "unts": 1270,
      "Ġstats": 1271,
      "(),": 1272,
      "().": 1273,
      "conci": 1274,
      "Ġgraph": 1275,
      "Ġcom": 1276,
      "Ġthen": 1277,
      "Ġloader": 1278,
      "ĠAl": 1279,
      "filename": 1280,
      "ook": 1281,
      "Ġkub": 1282,
      "host": 1283,
      "Ġparameter": 1284,
      "move": 1285,
      "Ġdoc": 1286,
      "Ġprovi": 1287,
      "Ġalbums": 1288,
      "html": 1289,
      "address": 1290,
      "[:,": 1291,
      "Ġarguments": 1292,
      "Ġservice": 1293,
      "Ġtimeout": 1294,
      "enrollments": 1295,
      "ecutor": 1296,
      "ights": 1297,
      "aehw": 1298,
      ".],": 1299,
      ".\")": 1300,
      "CH": 1301,
      "Picard": 1302,
      "Tree": 1303,
      "\\{": 1304,
      "\\}": 1305,
      "ele": 1306,
      "hisense": 1307,
      "import": 1308,
      "ld": 1309,
      "salt": 1310,
      "vent": 1311,
      "wor": 1312,
      "Ġ}": 1313,
      "Ġroot": 1314,
      "Ġview": 1315,
      "Ġqueryset": 1316,
      "insert": 1317,
      "Ġtext": 1318,
      "onse": 1319,
      "stk": 1320,
      "enu": 1321,
      "lection": 1322,
      "Ġcmd": 1323,
      "meas": 1324,
      "Ġreport": 1325,
      "Ġphot": 1326,
      "Ġfast": 1327,
      "Ġframe": 1328,
      "Ġobj": 1329,
      "ception": 1330,
      "Ġbet": 1331,
      "loat": 1332,
      "copy": 1333,
      "rial": 1334,
      "keys": 1335,
      "ang": 1336,
      "Ġ#--------------------------------": 1337,
      "issing": 1338,
      "Ġgen": 1339,
      "Ġgener": 1340,
      "part": 1341,
      "viron": 1342,
      "'))": 1343,
      "Ġconstruct": 1344,
      "Ġcount": 1345,
      "Ġhoo": 1346,
      "mand": 1347,
      "Ġsend": 1348,
      "ĠRa": 1349,
      "------------------------": 1350,
      "ĠCo": 1351,
      "tests": 1352,
      "Ġgetattr": 1353,
      "string": 1354,
      "stant": 1355,
      "Ġpart": 1356,
      "ĠDSA": 1357,
      "groups": 1358,
      "reads": 1359,
      "ready": 1360,
      "mock": 1361,
      "Ġcls": 1362,
      "kenv": 1363,
      "Ġupdate": 1364,
      "Tests": 1365,
      "Ġmax": 1366,
      "========": 1367,
      "suer": 1368,
      "Ġstatement": 1369,
      "ttp": 1370,
      "Ġsome": 1371,
      "Ġsuper": 1372,
      "Ġperiodic": 1373,
      "prior": 1374,
      "requests": 1375,
      "Ġtuple": 1376,
      "Ġsign": 1377,
      "concile": 1378,
      "ĠAlbum": 1379,
      "Ġ#--------------------------------------------------------": 1380,
      "vironment": 1381,
      "Ġhookenv": 1382,
      "((": 1383,
      ".*": 1384,
      "=-": 1385,
      "ID": 1386,
      "IL": 1387,
      "bd": 1388,
      "bar": 1389,
      "den": 1390,
      "eff": 1391,
      "frame": 1392,
      "ok": 1393,
      "pack": 1394,
      "rst": 1395,
      "sg": 1396,
      "sli": 1397,
      "use": 1398,
      "ump": 1399,
      "uff": 1400,
      "vol": 1401,
      "{}": 1402,
      "Ġ5": 1403,
      "ĠK": 1404,
      "Ġone": 1405,
      "index": 1406,
      "ĠĠĠĠĠĠĠĠĠĠ": 1407,
      "rel": 1408,
      "stats": 1409,
      "environment": 1410,
      "itle": 1411,
      "Ġrender": 1412,
      "Ġthey": 1413,
      "Ġopts": 1414,
      "entifi": 1415,
      "Ġinter": 1416,
      "Ġindi": 1417,
      "Ġinstance": 1418,
      "Ġinitial": 1419,
      "idden": 1420,
      "rip": 1421,
      "service": 1422,
      "ular": 1423,
      "Ġtop": 1424,
      "Ġtoken": 1425,
      "annot": 1426,
      "Ġ('": 1427,
      "conv": 1428,
      "'),": 1429,
      "values": 1430,
      "Ġexpected": 1431,
      "Ġlayer": 1432,
      "ithm": 1433,
      "Ġ10": 1434,
      "Ġorder": 1435,
      "Ġalso": 1436,
      "mplex": 1437,
      "cls": 1438,
      "Ġtests": 1439,
      "place": 1440,
      "prefix": 1441,
      "Ġoutput": 1442,
      "strumentation": 1443,
      "python": 1444,
      "Ġids": 1445,
      "ĠDyson": 1446,
      "Ġonly": 1447,
      "job": 1448,
      "ĠInput": 1449,
      "Ġpop": 1450,
      "Ġexists": 1451,
      "Ġnode": 1452,
      "Ġslice": 1453,
      "iple": 1454,
      "newaxis": 1455,
      "ttribute": 1456,
      "nection": 1457,
      "weights": 1458,
      "Ġhave": 1459,
      "ĠArgs": 1460,
      "Ġlike": 1461,
      "ĠPodGenerator": 1462,
      "Ġmultiple": 1463,
      "memory": 1464,
      "Ġprovided": 1465,
      "\"{": 1466,
      "DE": 1467,
      "EN": 1468,
      "From": 1469,
      "IN": 1470,
      "IP": 1471,
      "MS": 1472,
      "Par": 1473,
      "UT": 1474,
      "ain": 1475,
      "aut": 1476,
      "bed": 1477,
      "cation": 1478,
      "case": 1479,
      "city": 1480,
      "df": 1481,
      "dot": 1482,
      "dtype": 1483,
      "ft": 1484,
      "ged": 1485,
      "ial": 1486,
      "ify": 1487,
      "nel": 1488,
      "oot": 1489,
      "pco": 1490,
      "scheme": 1491,
      "ume": 1492,
      "window": 1493,
      "xModel": 1494,
      "Ġ@": 1495,
      "Ġz": 1496,
      "Ġ----": 1497,
      "Ġro": 1498,
      "Ġ..": 1499,
      "ince": 1500,
      "ernel": 1501,
      "destination": 1502,
      "Ġcalled": 1503,
      "Ġreal": 1504,
      "Ġport": 1505,
      "Ġprint": 1506,
      "Ġsparse": 1507,
      "Ġscala": 1508,
      "Ġsize": 1509,
      "Ġ\"\"\"(": 1510,
      "random": 1511,
      "Ġmy": 1512,
      "Ġmath": 1513,
      "Ġmay": 1514,
      "Ġmark": 1515,
      "Ġbin": 1516,
      "Ġbmp": 1517,
      "Ġbam": 1518,
      "Ġdatabase": 1519,
      "ates": 1520,
      "unter": 1521,
      "lock": 1522,
      "Ġreturns": 1523,
      "rices": 1524,
      "ĠĠĠĠĠĠĠĠĠĠĠĠĠĠĠĠĠĠĠĠĠĠĠĠĠĠĠĠ": 1525,
      "ĠĠĠĠĠĠĠĠĠĠĠĠĠĠĠĠĠĠĠĠĠĠĠĠĠ": 1526,
      "uplic": 1527,
      "ager": 1528,
      "ages": 1529,
      "Ġgroup": 1530,
      "Ġcomp": 1531,
      "ĠIt": 1532,
      "ĠImport": 1533,
      "Ġresample": 1534,
      "ĠAn": 1535,
      "Ġany": 1536,
      "ally": 1537,
      "ptional": 1538,
      "itional": 1539,
      "ĠCONF": 1540,
      "(\"'": 1541,
      "Ġrdf": 1542,
      "ources": 1543,
      "ush": 1544,
      "pypco": 1545,
      "Ġattr": 1546,
      "ĠOptional": 1547,
      "Ġitems": 1548,
      "ension": 1549,
      "subject": 1550,
      "Ġprivate": 1551,
      "Ġnamespace": 1552,
      "Ġheader": 1553,
      "rectory": 1554,
      "disk": 1555,
      "Ġreads": 1556,
      "Ġpython": 1557,
      "nscript": 1558,
      "DIR": 1559,
      "entifier": 1560,
      "ĠImportError": 1561,
      "pypcoeff": 1562,
      "\"):": 1563,
      ".'''": 1564,
      "BA": 1565,
      "BG": 1566,
      "EL": 1567,
      "EM": 1568,
      "FG": 1569,
      "NO": 1570,
      "OM": 1571,
      "PA": 1572,
      "Str": 1573,
      "TM": 1574,
      "Text": 1575,
      "Un": 1576,
      "are": 1577,
      "ake": 1578,
      "bit": 1579,
      "cur": 1580,
      "certificate": 1581,
      "fu": 1582,
      "full": 1583,
      "hass": 1584,
      "io": 1585,
      "lg": 1586,
      "label": 1587,
      "map": 1588,
      "na": 1589,
      "number": 1590,
      "ose": 1591,
      "ogen": 1592,
      "offici": 1593,
      "por": 1594,
      "pend": 1595,
      "source": 1596,
      "scri": 1597,
      "tent": 1598,
      "tmpl": 1599,
      "wise": 1600,
      "Ġ\\": 1601,
      "Ġfi": 1602,
      "Ġend": 1603,
      "Ġerr": 1604,
      "Ġright": 1605,
      "sen": 1606,
      "serial": 1607,
      "inue": 1608,
      "info": 1609,
      "review": 1610,
      "orrect": 1611,
      "lean": 1612,
      "met": 1613,
      "message": 1614,
      "arget": 1615,
      "url": 1616,
      "Ġpatch": 1617,
      "Ġinput": 1618,
      "Ġindex": 1619,
      "Ġinclude": 1620,
      "Ġshape": 1621,
      "Ġslug": 1622,
      "ract": 1623,
      "mpro": 1624,
      "Ġmut": 1625,
      "Ġman": 1626,
      "Ġmask": 1627,
      "Ġevent": 1628,
      "Ġbut": 1629,
      "ings": 1630,
      "umid": 1631,
      "Ġwork": 1632,
      "asarray": 1633,
      "Ġissuer": 1634,
      "ange": 1635,
      "Ġgit": 1636,
      "child": 1637,
      "chooser": 1638,
      "ambd": 1639,
      "Ġuid": 1640,
      "Ġexogen": 1641,
      "ess": 1642,
      "Ġlon": 1643,
      "ises": 1644,
      "Ġ\".": 1645,
      "ĠSee": 1646,
      "oost": 1647,
      "ĠRe": 1648,
      "play": 1649,
      "Ġobjects": 1650,
      "uster": 1651,
      "under": 1652,
      "iginal": 1653,
      "old": 1654,
      "ified": 1655,
      "Ġatt": 1656,
      "Ġwhen": 1657,
      "Context": 1658,
      "ĠĠĠĠĠĠĠĠĠĠĠĠĠĠĠĠĠĠĠĠĠĠĠĠĠĠĠĠĠĠĠĠĠĠĠĠĠĠĠĠĠĠĠĠĠĠ": 1659,
      "plitter": 1660,
      "Ġshow": 1661,
      "Ġmacro": 1662,
      "ized": 1663,
      "ĠUR": 1664,
      "ĠUse": 1665,
      "Ġhasattr": 1666,
      "RAN": 1667,
      "Ġjinja": 1668,
      "Ġcontinue": 1669,
      "Ġextend": 1670,
      "shut": 1671,
      "Ġcolumn": 1672,
      "register": 1673,
      "TreeView": 1674,
      "volume": 1675,
      "environmental": 1676,
      "Ġ-------": 1677,
      "Ġbinary": 1678,
      "EMP": 1679,
      "String": 1680,
      "official": 1681,
      "umidity": 1682,
      "ambda": 1683,
      "Ġexogenous": 1684,
      "\":": 1685,
      ")[": 1686,
      "10": 1687,
      "24": 1688,
      ":]": 1689,
      "App": 1690,
      "Dat": 1691,
      "IC": 1692,
      "LAT": 1693,
      "Met": 1694,
      "Sensor": 1695,
      "TAT": 1696,
      "]['": 1697,
      "and": 1698,
      "boost": 1699,
      "cs": 1700,
      "database": 1701,
      "ffix": 1702,
      "gment": 1703,
      "icode": 1704,
      "min": 1705,
      "pk": 1706,
      "parent": 1707,
      "rating": 1708,
      "sw": 1709,
      "sub": 1710,
      "ual": 1711,
      "uid": 1712,
      "yst": 1713,
      "zy": 1714,
      "zzy": 1715,
      "Ġsel": 1716,
      "ref": 1717,
      "Ġtask": 1718,
      "Ġnc": 1719,
      "Ġpsi": 1720,
      "Ġpool": 1721,
      "Ġfound": 1722,
      "Ġfinder": 1723,
      "Ġfull": 1724,
      "Ġoptimizer": 1725,
      "etime": 1726,
      "Ġinte": 1727,
      "Ġinfile": 1728,
      "Ġinstrumentation": 1729,
      "Ġsample": 1730,
      "rol": 1731,
      "lign": 1732,
      "rap": 1733,
      "ragment": 1734,
      "local": 1735,
      "Ġreturned": 1736,
      "cov": 1737,
      "Ġwhe": 1738,
      "Ġstrand": 1739,
      "Ġstart": 1740,
      "adata": 1741,
      "ection": 1742,
      "ĠName": 1743,
      "Ġthan": 1744,
      "tail": 1745,
      "delay": 1746,
      "Ġline": 1747,
      "ĠImpro": 1748,
      "Ġ-=": 1749,
      "Ġdiv": 1750,
      "Ġdiff": 1751,
      "mplete": 1752,
      "matrix": 1753,
      "ply": 1754,
      "Ġdecomp": 1755,
      "ĠCreate": 1756,
      "Ġdefaults": 1757,
      "osition": 1758,
      "token": 1759,
      "fields": 1760,
      "until": 1761,
      "Ġ<=": 1762,
      "ured": 1763,
      "ight": 1764,
      "exp": 1765,
      "perly": 1766,
      "extend": 1767,
      "phot": 1768,
      "formatText": 1769,
      "ynta": 1770,
      "Ġpaths": 1771,
      "kubernetes": 1772,
      "fore": 1773,
      "ecute": 1774,
      "Ġargument": 1775,
      "RAMS": 1776,
      "Read": 1777,
      "Ġiterable": 1778,
      "Ġcontent": 1779,
      "writeString": 1780,
      "Ġdelta": 1781,
      "Ġmore": 1782,
      "Ġsaltenv": 1783,
      "dsTreeView": 1784,
      "Ġmerge": 1785,
      "Ġmerged": 1786,
      "Configured": 1787,
      "Ġvariables": 1788,
      "Ġaccount": 1789,
      "Ġsafe": 1790,
      "myq": 1791,
      "NAME": 1792,
      "word": 1793,
      "Ġfastq": 1794,
      "partner": 1795,
      "Ġtopic": 1796,
      "Ġrdfvalue": 1797,
      "Ġnamespaced": 1798,
      "TML": 1799,
      "fuzzy": 1800,
      "scription": 1801,
      "Ġattribute": 1802,
      "EMPLAT": 1803,
      "Datetime": 1804,
      "Ġpooling": 1805,
      "ĠImproperly": 1806,
      "EMPLATES": 1807,
      "ĠImproperlyConfigured": 1808,
      "\".": 1809,
      ")])": 1810,
      "64": 1811,
      "=%(": 1812,
      "Ar": 1813,
      "Add": 1814,
      "CONF": 1815,
      "DF": 1816,
      "Driven": 1817,
      "Dyson": 1818,
      "EME": 1819,
      "Hel": 1820,
      "Pro": 1821,
      "Run": 1822,
      "Res": 1823,
      "Root": 1824,
      "ST": 1825,
      "Splitter": 1826,
      "To": 1827,
      "TEMPLATES": 1828,
      "]*": 1829,
      "_{": 1830,
      "ak": 1831,
      "be": 1832,
      "bil": 1833,
      "bug": 1834,
      "ding": 1835,
      "ef": 1836,
      "eed": 1837,
      "emperature": 1838,
      "gz": 1839,
      "gat": 1840,
      "gory": 1841,
      "hidden": 1842,
      "ield": 1843,
      "ique": 1844,
      "ived": 1845,
      "linal": 1846,
      "mon": 1847,
      "mapping": 1848,
      "nail": 1849,
      "oid": 1850,
      "oul": 1851,
      "ock": 1852,
      "operation": 1853,
      "pkey": 1854,
      "print": 1855,
      "pply": 1856,
      "rid": 1857,
      "site": 1858,
      "scope": 1859,
      "slug": 1860,
      "scape": 1861,
      "tag": 1862,
      "used": 1863,
      "yp": 1864,
      "yle": 1865,
      "}'.": 1866,
      "Ġen": 1867,
      "seq": 1868,
      "ses": 1869,
      "render": 1870,
      "Ġts": 1871,
      "Ġtags": 1872,
      "Ġtyp": 1873,
      "step": 1874,
      "Ġaut": 1875,
      "Ġimp": 1876,
      "description": 1877,
      "Ġcr": 1878,
      "Ġcertificate": 1879,
      "Ġcorrect": 1880,
      "aract": 1881,
      "arithm": 1882,
      "arange": 1883,
      "uration": 1884,
      "Ġremo": 1885,
      "Ġrequest": 1886,
      "Ġpi": 1887,
      "Ġpas": 1888,
      "Ġoption": 1889,
      "Ġoptions": 1890,
      "ceptions": 1891,
      "cell": 1892,
      "Ġsi": 1893,
      "Ġsw": 1894,
      "Ġ'%": 1895,
      "lim": 1896,
      "Ġbits": 1897,
      "tes": 1898,
      "Ġdc": 1899,
      "Ġds": 1900,
      "Ġdri": 1901,
      "Ġdlg": 1902,
      "unit": 1903,
      "counter": 1904,
      "idth": 1905,
      "Ġwor": 1906,
      "Ġwan": 1907,
      "ectl": 1908,
      "convert": 1909,
      "Ġusing": 1910,
      "Ġhttp": 1911,
      "Ġexon": 1912,
      "escape": 1913,
      "Ġlwork": 1914,
      ")))": 1915,
      "sible": 1916,
      "sistant": 1917,
      "Ġsequence": 1918,
      "Ġlook": 1919,
      "Ġoriginal": 1920,
      "ics": 1921,
      "ically": 1922,
      "types": 1923,
      "result": 1924,
      "']:": 1925,
      "Ġasync": 1926,
      "ĠCheck": 1927,
      "homeas": 1928,
      "untu": 1929,
      "urement": 1930,
      "GetP": 1931,
      "periodic": 1932,
      "collection": 1933,
      "ĠMock": 1934,
      "image": 1935,
      "imView": 1936,
      "states": 1937,
      "models": 1938,
      "Ġwhile": 1939,
      "ĠOn": 1940,
      "ĠĠĠĠĠĠĠĠĠĠĠĠĠĠĠĠĠĠĠĠĠĠĠĠĠĠĠĠĠĠĠĠĠĠĠĠĠĠĠĠĠĠĠĠĠĠĠĠ": 1941,
      "ĠList": 1942,
      "ĠLook": 1943,
      "umbnail": 1944,
      "Ġlogarithm": 1945,
      "varian": 1946,
      "Returns": 1947,
      "Ġoverwrite": 1948,
      "Ġmatrices": 1949,
      "Ġserver": 1950,
      "Ġpossible": 1951,
      "FileClient": 1952,
      "Ġhere": 1953,
      "Ġsupport": 1954,
      "(**": 1955,
      "ween": 1956,
      "Ġresponse": 1957,
      "enrollment": 1958,
      "learn": 1959,
      "Ġcontains": 1960,
      "Ġcontaining": 1961,
      "ĠArxModel": 1962,
      "Ġchildren": 1963,
      "docs": 1964,
      "irflow": 1965,
      "Ġerrors": 1966,
      "ĠConvert": 1967,
      "Ġshuff": 1968,
      "many": 1969,
      "Ġcommand": 1970,
      "CHEME": 1971,
      "element": 1972,
      "Ġbetween": 1973,
      "Ġgene": 1974,
      "Ġconstructor": 1975,
      "Ġsignature": 1976,
      "barre": 1977,
      "services": 1978,
      "ttributeError": 1979,
      "Ġcompon": 1980,
      "Ġfirst": 1981,
      "metadata": 1982,
      "ystem": 1983,
      "Ġinteger": 1984,
      "lignment": 1985,
      "yntax": 1986,
      "linalg": 1987,
      "aracter": 1988,
      "homeassistant": 1989,
      "ĠMockFileClient": 1990,
      "(_": 1991,
      "*).": 1992,
      ".]": 1993,
      ".')": 1994,
      "04": 1995,
      "12": 1996,
      "AS": 1997,
      "CL": 1998,
      "ED": 1999,
      "Frame": 2000,
      "GE": 2001,
      "IT": 2002,
      "ION": 2003,
      "Len": 2004,
      "Mod": 2005,
      "Module": 2006,
      "OL": 2007,
      "RDF": 2008,
      "SH": 2009,
      "SOR": 2010,
      "The": 2011,
      "You": 2012,
      "\\(": 2013,
      "][": 2014,
      "aint": 2015,
      "bn": 2016,
      "br": 2017,
      "bout": 2018,
      "batch": 2019,
      "cat": 2020,
      "even": 2021,
      "ered": 2022,
      "fter": 2023,
      "float": 2024,
      "gain": 2025,
      "ib": 2026,
      "jinja": 2027,
      "jection": 2028,
      "klearn": 2029,
      "ler": 2030,
      "link": 2031,
      "mask": 2032,
      "nt": 2033,
      "nown": 2034,
      "ome": 2035,
      "over": 2036,
      "open": 2037,
      "pub": 2038,
      "public": 2039,
      "sor": 2040,
      "swith": 2041,
      "sRoot": 2042,
      "srid": 2043,
      "tage": 2044,
      "tags": 2045,
      "target": 2046,
      "uuid": 2047,
      "vl": 2048,
      "xshut": 2049,
      "yter": 2050,
      "ython": 2051,
      "Ġ.": 2052,
      "ĠJ": 2053,
      "Ġent": 2054,
      "Ġquery": 2055,
      "ining": 2056,
      "indi": 2057,
      "include": 2058,
      "real": 2059,
      "replace": 2060,
      "atter": 2061,
      "atform": 2062,
      "Ġtc": 2063,
      "Ġtw": 2064,
      "stent": 2065,
      "stall": 2066,
      "ended": 2067,
      "orseq": 2068,
      "Ġagain": 2069,
      "debug": 2070,
      "lete": 2071,
      "Ġclear": 2072,
      "arn": 2073,
      "itt": 2074,
      "Ġreconcile": 2075,
      "Ġnon": 2076,
      "Ġpl": 2077,
      "Ġfol": 2078,
      "Ġfloat": 2079,
      "Ġinsert": 2080,
      "round": 2081,
      "defined": 2082,
      "pect": 2083,
      "Ġmissing": 2084,
      "Ġmsg": 2085,
      "Ġele": 2086,
      "Ġempty": 2087,
      "temperature": 2088,
      "Ġdag": 2089,
      "loader": 2090,
      "oth": 2091,
      "ilter": 2092,
      "utput": 2093,
      "ndler": 2094,
      "Ġstyle": 2095,
      "pto": 2096,
      "valu": 2097,
      "upError": 2098,
      "update": 2099,
      "upyter": 2100,
      "Ġ(*": 2101,
      "ision": 2102,
      "ĠNo": 2103,
      "')[": 2104,
      "')[-": 2105,
      "Ġcomplex": 2106,
      "ell": 2107,
      "diff": 2108,
      "rypto": 2109,
      "simple": 2110,
      "sistent": 2111,
      "Ġresources": 2112,
      "ĠAN": 2113,
      "ĠApp": 2114,
      "ĠAttributeError": 2115,
      "Ġarch": 2116,
      "icro": 2117,
      "ĠSet": 2118,
      "ches": 2119,
      "oom": 2120,
      "qui": 2121,
      "endswith": 2122,
      "Ġdirectory": 2123,
      "mplement": 2124,
      "prev": 2125,
      "prepend": 2126,
      "Ġdeterm": 2127,
      "Ġdestination": 2128,
      "Ġdefined": 2129,
      "cepts": 2130,
      "Ġ{'": 2131,
      "omic": 2132,
      "exist": 2133,
      "executor": 2134,
      "Ġyou": 2135,
      "Ġyield": 2136,
      "Ġuses": 2137,
      "imum": 2138,
      "itive": 2139,
      "Ġprob": 2140,
      "ĠOpen": 2141,
      "ĠOutput": 2142,
      "Ġpredi": 2143,
      "Ġprefix": 2144,
      "lowing": 2145,
      "MEN": 2146,
      "Ġchooser": 2147,
      "Ġcluster": 2148,
      "ĠIndex": 2149,
      "kubectl": 2150,
      "Exception": 2151,
      "Ġtrained": 2152,
      "Ġmatch": 2153,
      "fopen": 2154,
      "variables": 2155,
      "checks": 2156,
      "static": 2157,
      "Ġcallable": 2158,
      "RAME": 2159,
      "intercept": 2160,
      "comb": 2161,
      "Ġjust": 2162,
      "ĠWe": 2163,
      "Ġvalidation": 2164,
      "Ġstatic": 2165,
      "Ġfilesystem": 2166,
      "Ġregistr": 2167,
      "Ġregistry": 2168,
      "callback": 2169,
      "fastq": 2170,
      "mcu": 2171,
      "mcache": 2172,
      "archpath": 2173,
      "actory": 2174,
      "Ġsubject": 2175,
      "covery": 2176,
      "Ġotherwise": 2177,
      "Ġcolumns": 2178,
      "Seq": 2179,
      "ĠBy": 2180,
      "mainSplitter": 2181,
      "Ġleft": 2182,
      "Ġkubeconfig": 2183,
      "\\{%": 2184,
      "Ġphoto": 2185,
      "Ġphotos": 2186,
      "ĠComp": 2187,
      "slices": 2188,
      "umpy": 2189,
      "Ġinitialized": 2190,
      "Parameter": 2191,
      "auth": 2192,
      "Ġmyq": 2193,
      "bitmap": 2194,
      "Ġmanager": 2195,
      "ĠURI": 2196,
      "Append": 2197,
      "Ġselect": 2198,
      "rapped": 2199,
      "Ġwhere": 2200,
      "Ġdecomposition": 2201,
      "photo": 2202,
      "Hello": 2203,
      "Ġworld": 2204,
      "ĠLookupError": 2205,
      "Length": 2206,
      "indices": 2207,
      "ĠIndexError": 2208,
      "'re": 2209,
      ")):": 2210,
      "**": 2211,
      ",)": 2212,
      ",))": 2213,
      ".'.": 2214,
      "AN": 2215,
      "AP": 2216,
      "AIN": 2217,
      "ARAMS": 2218,
      "Bind": 2219,
      "CR": 2220,
      "Ch": 2221,
      "Clear": 2222,
      "Cannot": 2223,
      "Data": 2224,
      "Duplic": 2225,
      "EV": 2226,
      "FRAME": 2227,
      "Hey": 2228,
      "IG": 2229,
      "LT": 2230,
      "Le": 2231,
      "Not": 2232,
      "OU": 2233,
      "On": 2234,
      "Path": 2235,
      "Ste": 2236,
      "Spec": 2237,
      "Size": 2238,
      "SCHEME": 2239,
      "Type": 2240,
      "ULT": 2241,
      "VER": 2242,
      "]):": 2243,
      "av": 2244,
      "aile": 2245,
      "by": 2246,
      "block": 2247,
      "cked": 2248,
      "dability": 2249,
      "dcmd": 2250,
      "equence": 2251,
      "fin": 2252,
      "fer": 2253,
      "gener": 2254,
      "ground": 2255,
      "if": 2256,
      "ix": 2257,
      "ju": 2258,
      "kernel": 2259,
      "lass": 2260,
      "mer": 2261,
      "mar": 2262,
      "mod": 2263,
      "mark": 2264,
      "mtime": 2265,
      "nn": 2266,
      "of": 2267,
      "og": 2268,
      "op": 2269,
      "plo": 2270,
      "push": 2271,
      "pLength": 2272,
      "sa": 2273,
      "sup": 2274,
      "sort": 2275,
      "till": 2276,
      "tensor": 2277,
      "title": 2278,
      "vision": 2279,
      "wP": 2280,
      "ww": 2281,
      "zip": 2282,
      "})": 2283,
      "},": 2284,
      "Ġqu": 2285,
      "Ġversion": 2286,
      "Ġkeep": 2287,
      "Ġjob": 2288,
      "Ġunder": 2289,
      "Ġ64": 2290,
      "ĠYou": 2291,
      "send": 2292,
      "reet": 2293,
      "rever": 2294,
      "reci": 2295,
      "reconcile": 2296,
      "reak": 2297,
      "Ġter": 2298,
      "Ġtmpl": 2299,
      "Ġtitle": 2300,
      "onsi": 2301,
      "ster": 2302,
      "star": 2303,
      "stri": 2304,
      "stack": 2305,
      "start": 2306,
      "Ġapply": 2307,
      "Ġalignment": 2308,
      "Ġits": 2309,
      "deep": 2310,
      "dered": 2311,
      "deplo": 2312,
      "lect": 2313,
      "level": 2314,
      "alk": 2315,
      "Ġclo": 2316,
      "Ġcert": 2317,
      "Ġcgat": 2318,
      "Ġcell": 2319,
      "itch": 2320,
      "uring": 2321,
      "Ġreg": 2322,
      "Ġrece": 2323,
      "Ġrepre": 2324,
      "Ġreplace": 2325,
      "Ġrequi": 2326,
      "Ġnumpy": 2327,
      "Ġfragment": 2328,
      "Ġfaile": 2329,
      "Ġinven": 2330,
      "Ġsqu": 2331,
      "Ġsci": 2332,
      "Ġsca": 2333,
      "Ġsince": 2334,
      "Ġ'--": 2335,
      "raoul": 2336,
      "mpy": 2337,
      "Ġmenu": 2338,
      "Ġmicro": 2339,
      "Ġescape": 2340,
      "Ġboo": 2341,
      "Ġback": 2342,
      "Ġbound": 2343,
      "Ġbreak": 2344,
      "temp": 2345,
      "teSte": 2346,
      "Ġdot": 2347,
      "Ġduplic": 2348,
      "complete": 2349,
      "coding": 2350,
      "identifier": 2351,
      "Ġwron": 2352,
      "Ġwrapped": 2353,
      "asses": 2354,
      "rics": 2355,
      "Ġissub": 2356,
      "ĠĠĠĠĠĠĠĠĠĠĠĠĠĠĠĠĠĠĠĠĠ": 2357,
      "ĠĠĠĠĠĠĠĠĠĠĠĠĠĠĠĠĠĠĠĠĠĠĠĠĠĠ": 2358,
      "Ġstep": 2359,
      "Ġoffici": 2360,
      "().__": 2361,
      "apability": 2362,
      "connection": 2363,
      "').": 2364,
      "Ġconnect": 2365,
      "Ġconnection": 2366,
      "Ġcover": 2367,
      "Ġcounts": 2368,
      "very": 2369,
      "valued": 2370,
      "abs": 2371,
      "Ġexclude": 2372,
      "master": 2373,
      "Ġlabel": 2374,
      "Ġlambda": 2375,
      "ĠIN": 2376,
      "ĠPro": 2377,
      "ĠPath": 2378,
      "ĠPARAMS": 2379,
      "Ġsess": 2380,
      "Ġseries": 2381,
      "ither": 2382,
      "thing": 2383,
      "Ġordered": 2384,
      "Ġbeca": 2385,
      "ubernetes": 2386,
      "ubuntu": 2387,
      "Ġ\"'": 2388,
      "ical": 2389,
      "ĠSequence": 2390,
      "Ġalready": 2391,
      "'])": 2392,
      "Ġdig": 2393,
      "Ġdir": 2394,
      "apps": 2395,
      "apply": 2396,
      "Ġwithout": 2397,
      "allback": 2398,
      "params": 2399,
      "platform": 2400,
      "Ġkernel": 2401,
      "how": 2402,
      "Ġmeans": 2403,
      "Ġmemcache": 2404,
      "albums": 2405,
      "\").": 2406,
      "GetA": 2407,
      "GetRa": 2408,
      "exit": 2409,
      "exceptions": 2410,
      "oltage": 2411,
      "Ġnewpath": 2412,
      "ĠFor": 2413,
      "ĠFrame": 2414,
      "ONS": 2415,
      "objects": 2416,
      "validate": 2417,
      "ification": 2418,
      "Container": 2419,
      "Ġprog": 2420,
      "lication": 2421,
      "notation": 2422,
      "Ġprec": 2423,
      "pecifi": 2424,
      "lower": 2425,
      "node": 2426,
      "dirname": 2427,
      "errors": 2428,
      "Ġoverwr": 2429,
      "Ġtrack": 2430,
      "([-": 2431,
      "([[": 2432,
      "suffix": 2433,
      "numpy": 2434,
      "category": 2435,
      "PodSpec": 2436,
      "ĠHttp": 2437,
      "ĠHTML": 2438,
      "embed": 2439,
      "randfunc": 2440,
      "display": 2441,
      "Ġstatus": 2442,
      "Ġresponsi": 2443,
      "account": 2444,
      "access": 2445,
      "ecution": 2446,
      "document": 2447,
      "Ġlibr": 2448,
      "iteritems": 2449,
      "formation": 2450,
      "Comp": 2451,
      "ublicKey": 2452,
      "nscripts": 2453,
      "creteSte": 2454,
      "Ġcases": 2455,
      "Ġdocument": 2456,
      "saltenv": 2457,
      "measurement": 2458,
      "Ġgenerate": 2459,
      "ĠRandom": 2460,
      "ĠRaises": 2461,
      "packs": 2462,
      "slice": 2463,
      "relu": 2464,
      "Ġ...": 2465,
      "Ġresampled": 2466,
      "Ġattrname": 2467,
      "fullpath": 2468,
      "Ġlong": 2469,
      "ĠRemove": 2470,
      "RANGE": 2471,
      "Metrics": 2472,
      "Ġdiffe": 2473,
      "Reads": 2474,
      "Ġfastqfile": 2475,
      "Runner": 2476,
      "before": 2477,
      "bilities": 2478,
      "Ġauto": 2479,
      "Ġpick": 2480,
      "Ġpassed": 2481,
      "itten": 2482,
      "Ġfollowing": 2483,
      "ĠANSI": 2484,
      "Ġdetermine": 2485,
      "exists": 2486,
      "combine": 2487,
      "SeqMetrics": 2488,
      "authority": 2489,
      "EVT": 2490,
      "Level": 2491,
      "dcmdsRoot": 2492,
      "merge": 2493,
      "deepcopy": 2494,
      "deploy": 2495,
      "Ġrepresen": 2496,
      "Ġfailed": 2497,
      "Ġinvenio": 2498,
      "Ġboolean": 2499,
      "Ġwrong": 2500,
      "Ġissubclass": 2501,
      "Ġofficial": 2502,
      "Ġbecause": 2503,
      "GetRawP": 2504,
      "Ġoverwritten": 2505,
      "Ġresponsibilities": 2506,
      "Ġlibrary": 2507,
      "creteStepLength": 2508,
      "\"])": 2509,
      "%%": 2510,
      "(-": 2511,
      "(__": 2512,
      "*(": 2513,
      ".'": 2514,
      "25": 2515,
      "32": 2516,
      "404": 2517,
      ":-": 2518,
      ">'": 2519,
      "AB": 2520,
      "AD": 2521,
      "AL": 2522,
      "AR": 2523,
      "As": 2524,
      "Attribute": 2525,
      "Br": 2526,
      "Build": 2527,
      "CE": 2528,
      "CK": 2529,
      "Col": 2530,
      "Cert": 2531,
      "COM": 2532,
      "Class": 2533,
      "DY": 2534,
      "Dele": 2535,
      "DOM": 2536,
      "Def": 2537,
      "Duration": 2538,
      "Era": 2539,
      "FA": 2540,
      "FI": 2541,
      "Filter": 2542,
      "GB": 2543,
      "Hi": 2544,
      "Id": 2545,
      "LO": 2546,
      "Layer": 2547,
      "LIP": 2548,
      "MM": 2549,
      "Missing": 2550,
      "Main": 2551,
      "NK": 2552,
      "No": 2553,
      "Now": 2554,
      "OP": 2555,
      "Open": 2556,
      "OID": 2557,
      "PIL": 2558,
      "Paint": 2559,
      "Qual": 2560,
      "Rend": 2561,
      "Rna": 2562,
      "SON": 2563,
      "SCR": 2564,
      "Specifi": 2565,
      "TR": 2566,
      "Th": 2567,
      "Tra": 2568,
      "This": 2569,
      "VIC": 2570,
      "Window": 2571,
      "\\\\": 2572,
      "aus": 2573,
      "aded": 2574,
      "bal": 2575,
      "blo": 2576,
      "bert": 2577,
      "car": 2578,
      "clo": 2579,
      "cast": 2580,
      "cating": 2581,
      "db": 2582,
      "done": 2583,
      "drop": 2584,
      "down": 2585,
      "ees": 2586,
      "fg": 2587,
      "ful": 2588,
      "foo": 2589,
      "find": 2590,
      "gor": 2591,
      "gle": 2592,
      "gpi": 2593,
      "humidity": 2594,
      "href": 2595,
      "ict": 2596,
      "kContext": 2597,
      "lv": 2598,
      "lambda": 2599,
      "ms": 2600,
      "mro": 2601,
      "menu": 2602,
      "msg": 2603,
      "ng": 2604,
      "ning": 2605,
      "off": 2606,
      "optimizer": 2607,
      "ps": 2608,
      "psi": 2609,
      "pac": 2610,
      "ponse": 2611,
      "qc": 2612,
      "rat": 2613,
      "ral": 2614,
      "sc": 2615,
      "sion": 2616,
      "sue": 2617,
      "scal": 2618,
      "sink": 2619,
      "spect": 2620,
      "task": 2621,
      "tool": 2622,
      "tree": 2623,
      "trol": 2624,
      "width": 2625,
      "|.": 2626,
      "Ġq": 2627,
      "Ġ\"\"": 2628,
      "Ġve": 2629,
      "Ġurl": 2630,
      "Ġuntil": 2631,
      "Ġenrollment": 2632,
      "input": 2633,
      "ream": 2634,
      "remove": 2635,
      "attent": 2636,
      "stride": 2637,
      "strip": 2638,
      "ors": 2639,
      "orts": 2640,
      "Ġab": 2641,
      "Ġafter": 2642,
      "Ġim": 2643,
      "Ġimplement": 2644,
      "leep": 2645,
      "aln": 2646,
      "Ġcapability": 2647,
      "Ġref": 2648,
      "Ġrel": 2649,
      "Ġremain": 2650,
      "Ġpa": 2651,
      "Ġpk": 2652,
      "Ġpq": 2653,
      "Ġpil": 2654,
      "Ġpack": 2655,
      "Ġfn": 2656,
      "Ġfoo": 2657,
      "Ġol": 2658,
      "Ġour": 2659,
      "etch": 2660,
      "Ġinit": 2661,
      "Ġinfo": 2662,
      "Ġscheme": 2663,
      "ctest": 2664,
      "Ġ'-": 2665,
      "Ġ'/": 2666,
      "lifi": 2667,
      "liho": 2668,
      "lish": 2669,
      "mplifi": 2670,
      "Ġmast": 2671,
      "Ġbool": 2672,
      "Ġder": 2673,
      "Ġdate": 2674,
      "Ġdone": 2675,
      "ately": 2676,
      "unicode": 2677,
      "locity": 2678,
      "lobal": 2679,
      "complex": 2680,
      "kelv": 2681,
      "ash": 2682,
      "river": 2683,
      "riang": 2684,
      "ĠĠĠĠĠĠĠĠĠĠĠĠĠĠĠĠĠĠ": 2685,
      "servers": 2686,
      "ulate": 2687,
      "ulus": 2688,
      "Ġstage": 2689,
      "Ġstages": 2690,
      "Ġtoo": 2691,
      "()[": 2692,
      "apped": 2693,
      "isinstance": 2694,
      "cond": 2695,
      "connect": 2696,
      "ĠTest": 2697,
      "Ġgzip": 2698,
      "Ġgees": 2699,
      "character": 2700,
      "parts": 2701,
      "parameters": 2702,
      "amma": 2703,
      "tsv": 2704,
      "ationStats": 2705,
      "Ġcontainer": 2706,
      "Ġconvert": 2707,
      "Ġcoo": 2708,
      "Ġcovarian": 2709,
      "Ġhisense": 2710,
      "div": 2711,
      "delta": 2712,
      "Ġexecutor": 2713,
      "polic": 2714,
      "Ġlag": 2715,
      "ĠID": 2716,
      "ĠImage": 2717,
      "ĠPre": 2718,
      "('/": 2719,
      "sian": 2720,
      "siPar": 2721,
      "Ġseem": 2722,
      "Ġsearchpath": 2723,
      "Ġ_,": 2724,
      "Ġorg": 2725,
      "Ġbeing": 2726,
      "Ġbeha": 2727,
      "Ġannot": 2728,
      "resh": 2729,
      "ressed": 2730,
      "resources": 2731,
      "ĠSTAT": 2732,
      "Ġalpha": 2733,
      "Ġalgor": 2734,
      "ched": 2735,
      "oogle": 2736,
      "istics": 2737,
      "']]": 2738,
      "'][:": 2739,
      "matically": 2740,
      "classes": 2741,
      "Ġtesting": 2742,
      "__,": 2743,
      "ĠRating": 2744,
      "veni": 2745,
      "itions": 2746,
      "rence": 2747,
      "Ġdetail": 2748,
      "Ġdelete": 2749,
      "Ġrl": 2750,
      "Ġrpi": 2751,
      "osite": 2752,
      "tof": 2753,
      "Ġoutfiles": 2754,
      "Ġmess": 2755,
      "pping": 2756,
      "GetTests": 2757,
      "Ġ{\"": 2758,
      "Ġparts": 2759,
      "Ġparameters": 2760,
      "Ġidentifier": 2761,
      "compat": 2762,
      "exons": 2763,
      "ĠDe": 2764,
      "perations": 2765,
      ").\")": 2766,
      "ĠMark": 2767,
      "ĠMake": 2768,
      "devices": 2769,
      "Ġbased": 2770,
      "Ġsetting": 2771,
      "Ġunicode": 2772,
      "Ġunique": 2773,
      "Ġunpac": 2774,
      "extension": 2775,
      "readcr": 2776,
      "mounts": 2777,
      "Ġatta": 2778,
      "Ġatom": 2779,
      "roots": 2780,
      "Ġlength": 2781,
      "Ġproper": 2782,
      "Ġstrings": 2783,
      "licit": 2784,
      "component": 2785,
      "Ġimporting": 2786,
      "ĠĠĠĠĠĠĠĠĠĠĠĠĠĠĠĠĠĠĠĠĠĠĠĠĠĠĠĠĠĠĠĠĠĠĠĠĠĠĠĠĠĠ": 2787,
      "clients": 2788,
      "ĠLO": 2789,
      "Ġchar": 2790,
      "umbs": 2791,
      "Ġconfigure": 2792,
      "Ġheapsort": 2793,
      "Ġexisting": 2794,
      "kube": 2795,
      "attrname": 2796,
      "cpu": 2797,
      "Ġtrace": 2798,
      "Ġtrans": 2799,
      "Ġtranscripts": 2800,
      "Ġmatches": 2801,
      "[::-": 2802,
      "pients": 2803,
      "pipeline": 2804,
      "Ġspecify": 2805,
      "Ġmail": 2806,
      "Ġmake": 2807,
      "Ġcolor": 2808,
      "Ġcollection": 2809,
      "filters": 2810,
      "Ġserve": 2811,
      "Ġservers": 2812,
      "Ġpositions": 2813,
      "Ġmethods": 2814,
      "Ġidxstats": 2815,
      "ĠKeyword": 2816,
      "Ġvoltage": 2817,
      "command": 2818,
      "bounds": 2819,
      "Ġaddress": 2820,
      "Ġsock": 2821,
      "Ġiterator": 2822,
      "Ġcontrol": 2823,
      "Invalid": 2824,
      "Info": 2825,
      "lugin": 2826,
      "Ġstatobj": 2827,
      "Ġstatistics": 2828,
      "SAME": 2829,
      "SET": 2830,
      "SIS": 2831,
      "SION": 2832,
      "Ġhandler": 2833,
      "Ġdelentry": 2834,
      "Ġregister": 2835,
      "Ġmock": 2836,
      "Ġextract": 2837,
      "ĠPQDict": 2838,
      "calls": 2839,
      "fastmath": 2840,
      "Ġdisplay": 2841,
      "Ġdiscovery": 2842,
      "itialize": 2843,
      "0000": 2844,
      "hoto": 2845,
      "private": 2846,
      "Ġsuch": 2847,
      "coverage": 2848,
      "NameAttribute": 2849,
      "NameOID": 2850,
      "timeout": 2851,
      "ĠExample": 2852,
      "Ġaccepts": 2853,
      "Ġsaved": 2854,
      "REL": 2855,
      "currentBG": 2856,
      "currentFG": 2857,
      "length": 2858,
      "Ġtables": 2859,
      "Ġsubclass": 2860,
      "Ġsubclasses": 2861,
      "Ġdoesn": 2862,
      "created": 2863,
      "manager": 2864,
      "Ġlevel": 2865,
      "Ġcommon": 2866,
      "Ġkubernetes": 2867,
      "Ġdocumentation": 2868,
      "Ġservices": 2869,
      "PicardDuplic": 2870,
      "PicardRna": 2871,
      "Ġmaximum": 2872,
      "{}'.": 2873,
      "ĠKubernetes": 2874,
      "Ġindices": 2875,
      "Ġindicating": 2876,
      "annotations": 2877,
      "Ġlikeliho": 2878,
      "DEVIC": 2879,
      "FromFile": 2880,
      "auto": 2881,
      "Ġrot": 2882,
      "Ġmarker": 2883,
      "locking": 2884,
      "ĠAnsiPar": 2885,
      "ELLIP": 2886,
      "ports": 2887,
      "Ġerrtype": 2888,
      "Ġmuts": 2889,
      "volumes": 2890,
      "TATION": 2891,
      "swim": 2892,
      "Ġattributes": 2893,
      "Array": 2894,
      "DrivenTests": 2895,
      "Response": 2896,
      "hiddenstate": 2897,
      "Ġremount": 2898,
      "Ġswitch": 2899,
      "Ġwants": 2900,
      "Ġlooking": 2901,
      "Ġshuffle": 2902,
      "Ġcomponent": 2903,
      ".]])": 2904,
      "Modified": 2905,
      "RDFDatetime": 2906,
      "attern": 2907,
      "Ġtwo": 2908,
      "Ġplace": 2909,
      "Ġelements": 2910,
      "valuate": 2911,
      "ĠAppConfig": 2912,
      "Ġarchive": 2913,
      "ĠOpenLayer": 2914,
      "Ġregistrations": 2915,
      "VERSION": 2916,
      "marker": 2917,
      "safe": 2918,
      "Ġterm": 2919,
      "Ġreceived": 2920,
      "Ġsquare": 2921,
      "Ġscipy": 2922,
      "Ġmicrosite": 2923,
      "Ġdigamma": 2924,
      "Ġdifferent": 2925,
      "Ġrepresenting": 2926,
      "AsDatetime": 2927,
      "DYSON": 2928,
      "DOMAIN": 2929,
      "Erase": 2930,
      "Quality": 2931,
      "Render": 2932,
      "Specificity": 2933,
      "Transcript": 2934,
      "aussian": 2935,
      "blocked": 2936,
      "gpio": 2937,
      "offset": 2938,
      "ratio": 2939,
      "scaling": 2940,
      "Ġvelocity": 2941,
      "attention": 2942,
      "lisher": 2943,
      "Ġmaster": 2944,
      "kelvin": 2945,
      "riangular": 2946,
      "policy": 2947,
      "Ġannotations": 2948,
      "ĠSTATE": 2949,
      "Ġalgorithm": 2950,
      "'][:]": 2951,
      "GetTestsFrom": 2952,
      "Ġunpacked": 2953,
      "readcrumbs": 2954,
      "PicardDuplicationStats": 2955,
      "PicardRnaSeqMetrics": 2956,
      "Ġlikelihood": 2957,
      "DEVICES": 2958,
      "ĠAnsiParser": 2959,
      "ELLIPSIS": 2960,
      "ĠOpenLayers": 2961,
      "${": 2962,
      ")[:,": 2963,
      ".%%": 2964,
      "/'": 2965,
      "01": 2966,
      "29": 2967,
      "42": 2968,
      ":\"": 2969,
      ":]))": 2970,
      "</": 2971,
      "=\"\"": 2972,
      "=',": 2973,
      ">.": 2974,
      "Aeh": 2975,
      "About": 2976,
      "Back": 2977,
      "CM": 2978,
      "CU": 2979,
      "Case": 2980,
      "Dis": 2981,
      "Dest": 2982,
      "DSA": 2983,
      "Dial": 2984,
      "Ele": 2985,
      "Empty": 2986,
      "Found": 2987,
      "Factory": 2988,
      "Git": 2989,
      "He": 2990,
      "HTML": 2991,
      "HIT": 2992,
      "Is": 2993,
      "Iss": 2994,
      "Item": 2995,
      "Jinja": 2996,
      "Lms": 2997,
      "MON": 2998,
      "MStats": 2999,
      "Menu": 3000,
      "NOR": 3001,
      "NSOR": 3002,
      "Object": 3003,
      "Optimizer": 3004,
      "PE": 3005,
      "PP": 3006,
      "PS": 3007,
      "Parameters": 3008,
      "RX": 3009,
      "RES": 3010,
      "SU": 3011,
      "Show": 3012,
      "TY": 3013,
      "US": 3014,
      "Up": 3015,
      "VL": 3016,
      "WN": 3017,
      "WX": 3018,
      "WOR": 3019,
      "WHIT": 3020,
      "XSH": 3021,
      "ZE": 3022,
      "Zoom": 3023,
      "\\)": 3024,
      "\\):": 3025,
      "]]": 3026,
      "az": 3027,
      "bb": 3028,
      "bh": 3029,
      "ber": 3030,
      "bot": 3031,
      "bind": 3032,
      "bits": 3033,
      "bose": 3034,
      "bold": 3035,
      "bib": 3036,
      "breadcrumbs": 3037,
      "cc": 3038,
      "cn": 3039,
      "cor": 3040,
      "cum": 3041,
      "can": 3042,
      "cure": 3043,
      "curse": 3044,
      "cache": 3045,
      "ccess": 3046,
      "cfg": 3047,
      "dc": 3048,
      "du": 3049,
      "don": 3050,
      "dImage": 3051,
      "eat": 3052,
      "ece": 3053,
      "eut": 3054,
      "ead": 3055,
      "ements": 3056,
      "effici": 3057,
      "fr": 3058,
      "face": 3059,
      "fragment": 3060,
      "fetch": 3061,
      "gin": 3062,
      "git": 3063,
      "gexp": 3064,
      "gaussian": 3065,
      "hod": 3066,
      "hstack": 3067,
      "ice": 3068,
      "imp": 3069,
      "ied": 3070,
      "ife": 3071,
      "iqc": 3072,
      "jutils": 3073,
      "jang": 3074,
      "kmeans": 3075,
      "known": 3076,
      "lat": 3077,
      "ling": 3078,
      "lue": 3079,
      "lri": 3080,
      "lap": 3081,
      "lite": 3082,
      "last": 3083,
      "lash": 3084,
      "mall": 3085,
      "now": 3086,
      "nreads": 3087,
      "ness": 3088,
      "nnotation": 3089,
      "nlri": 3090,
      "oad": 3091,
      "option": 3092,
      "oked": 3093,
      "operations": 3094,
      "pil": 3095,
      "pare": 3096,
      "plicit": 3097,
      "pattern": 3098,
      "qlite": 3099,
      "rpartition": 3100,
      "ruct": 3101,
      "ridden": 3102,
      "rna": 3103,
      "sk": 3104,
      "space": 3105,
      "sklearn": 3106,
      "tk": 3107,
      "try": 3108,
      "table": 3109,
      "ures": 3110,
      "vect": 3111,
      "ves": 3112,
      "xcom": 3113,
      "zer": 3114,
      "zoom": 3115,
      "}'": 3116,
      "}-": 3117,
      "}.'''": 3118,
      "Ġ7": 3119,
      "Ġ8": 3120,
      "Ġ;": 3121,
      "Ġval": 3122,
      "ĠError": 3123,
      "Ġ),": 3124,
      "Ġens": 3125,
      "Ġqual": 3126,
      "Ġjoin": 3127,
      "ĠGener": 3128,
      "sep": 3129,
      "separ": 3130,
      "sets": 3131,
      "series": 3132,
      "inst": 3133,
      "inition": 3134,
      "ĠĠĠĠĠĠĠĠĠĠĠĠĠ": 3135,
      "reg": 3136,
      "ret": 3137,
      "repor": 3138,
      "atro": 3139,
      "atase": 3140,
      "atrix": 3141,
      "Ġtmp": 3142,
      "Ġtake": 3143,
      "Ġtarget": 3144,
      "erase": 3145,
      "stra": 3146,
      "orted": 3147,
      "Ġad": 3148,
      "Ġapi": 3149,
      "Ġairflow": 3150,
      "decode": 3151,
      "decar": 3152,
      "hell": 3153,
      "hether": 3154,
      "leg": 3155,
      "Ġcc": 3156,
      "Ġcho": 3157,
      "Ġclean": 3158,
      "medi": 3159,
      "meth": 3160,
      "figs": 3161,
      "arg": 3162,
      "ites": 3163,
      "itical": 3164,
      "ursor": 3165,
      "Ġret": 3166,
      "Ġrefe": 3167,
      "Ġremove": 3168,
      "Ġrevision": 3169,
      "Ġthere": 3170,
      "Ġnone": 3171,
      "Ġnam": 3172,
      "Ġnorm": 3173,
      "Ġnee": 3174,
      "Ġneed": 3175,
      "Ġput": 3176,
      "Ġpub": 3177,
      "Ġpipeline": 3178,
      "Ġpublic": 3179,
      "Ġplugin": 3180,
      "Ġfvel": 3181,
      "Ġopen": 3182,
      "Ġold": 3183,
      "ently": 3184,
      "entries": 3185,
      "ential": 3186,
      "Ġinclu": 3187,
      "Ġinner": 3188,
      "Ġinstall": 3189,
      "Ġsamples": 3190,
      "Ġsklearn": 3191,
      "Ġsmall": 3192,
      "Ġshell": 3193,
      "row": 3194,
      "roy": 3195,
      "defaults": 3196,
      "Ġ''": 3197,
      "Ġ'.": 3198,
      "Ġ'\\": 3199,
      "Ġ'__": 3200,
      "Ġ'{}": 3201,
      "Ġ'${": 3202,
      "lib": 3203,
      "ram": 3204,
      "raw": 3205,
      "Ġmu": 3206,
      "Ġevery": 3207,
      "Ġbar": 3208,
      "Ġboth": 3209,
      "Ġdup": 3210,
      "Ġdtype": 3211,
      "Ġdyn": 3212,
      "Ġdown": 3213,
      "Ġdbh": 3214,
      "units": 3215,
      "unique": 3216,
      "undefined": 3217,
      "lot": 3218,
      "look": 3219,
      "umer": 3220,
      "Ġreturning": 3221,
      "idation": 3222,
      "Ġwas": 3223,
      "Ġwait": 3224,
      "asi": 3225,
      "asy": 3226,
      "asic": 3227,
      "assign": 3228,
      "ndle": 3229,
      "ndfunc": 3230,
      "riate": 3231,
      "rivate": 3232,
      "Ġisn": 3233,
      "Ġissue": 3234,
      "Ġforce": 3235,
      "ula": 3236,
      "ather": 3237,
      "Ġsto": 3238,
      "Ġstub": 3239,
      "Ġstrip": 3240,
      "ptags": 3241,
      "admin": 3242,
      "any": 3243,
      "ones": 3244,
      "api": 3245,
      "issuer": 3246,
      "content": 3247,
      "configs": 3248,
      "ĠTrig": 3249,
      "ĠTemplate": 3250,
      "ĠTemperature": 3251,
      "Ġgtf": 3252,
      "Ġgreet": 3253,
      "Ġglobal": 3254,
      "char": 3255,
      "park": 3256,
      "vior": 3257,
      "')]": 3258,
      "amic": 3259,
      "amtool": 3260,
      "tswith": 3261,
      "Ġconv": 3262,
      "Ġconsistent": 3263,
      "Ġcounter": 3264,
      "Ġcomplete": 3265,
      "Ġthose": 3266,
      "Ġthings": 3267,
      "paths": 3268,
      "verify": 3269,
      "verbose": 3270,
      "Ġhow": 3271,
      "Ġexons": 3272,
      "Ġexception": 3273,
      "Ġexecute": 3274,
      "Ġexecution": 3275,
      "pool": 3276,
      "make": 3277,
      "Ġ*=": 3278,
      "Ġlat": 3279,
      "estruct": 3280,
      "ĠPython": 3281,
      "Ġraw": 3282,
      "Ġrandfunc": 3283,
      "('#": 3284,
      "('_": 3285,
      "Ġseq": 3286,
      "Ġsequen": 3287,
      "Ġserial": 3288,
      "Ġsent": 3289,
      "Ġsecure": 3290,
      "Ġresults": 3291,
      "Ġlocal": 3292,
      "Ġlocation": 3293,
      "Ġloaded": 3294,
      "Ġlooked": 3295,
      "ĠARX": 3296,
      "Ġbeen": 3297,
      "Ġbelow": 3298,
      "Ġbefore": 3299,
      "Ġ\"%(": 3300,
      "Ġarr": 3301,
      "Ġ[('": 3302,
      "Ġ%\\}": 3303,
      "resample": 3304,
      "ĠSyntax": 3305,
      "quo": 3306,
      "istral": 3307,
      "ciated": 3308,
      "Ġdirect": 3309,
      "]).": 3310,
      "])[-": 3311,
      "force": 3312,
      "match": 3313,
      "matrices": 3314,
      "cluster": 3315,
      "__)": 3316,
      "__.__": 3317,
      "Ġasso": 3318,
      "Ġraised": 3319,
      "Ġxshut": 3320,
      "setdefault": 3321,
      "pret": 3322,
      "Ġknown": 3323,
      "Ġknow": 3324,
      "Ġdepend": 3325,
      "ĠCA": 3326,
      "(\"%": 3327,
      "Ġrs": 3328,
      "Ġrv": 3329,
      "Ġrating": 3330,
      "Ġrvel": 3331,
      "Ġdefinition": 3332,
      "ourse": 3333,
      "Ġusers": 3334,
      "toarray": 3335,
      "tostring": 3336,
      "Ġ<========": 3337,
      "astype": 3338,
      "pper": 3339,
      "Gets": 3340,
      "Ġ{{": 3341,
      "Ġparse": 3342,
      "expected": 3343,
      "execute": 3344,
      "ĠData": 3345,
      "ĠDust": 3346,
      "ĠDef": 3347,
      "ĠDestruct": 3348,
      "Ġyour": 3349,
      "initial": 3350,
      "life": 3351,
      "ĠMatrix": 3352,
      "Ġbasestring": 3353,
      "Ġsetup": 3354,
      "Ġsetattr": 3355,
      "Ġunich": 3356,
      "Ġundefined": 3357,
      "extent": 3358,
      "extra": 3359,
      "extract": 3360,
      "validation": 3361,
      "mode": 3362,
      "mount": 3363,
      "ounds": 3364,
      "Ġdoor": 3365,
      "Ġprocess": 3366,
      "Ġproble": 3367,
      "configuring": 3368,
      "Strand": 3369,
      "ĠOver": 3370,
      "ĠĠĠĠĠĠĠĠĠĠĠĠĠĠĠĠĠĠĠĠĠĠĠĠĠĠĠĠĠĠĠĠĠĠĠĠĠ": 3371,
      "notification": 3372,
      "Ġapprop": 3373,
      "Ġappended": 3374,
      "Ġbyte": 3375,
      "profile": 3376,
      "process": 3377,
      "projection": 3378,
      "ĠLoad": 3379,
      "Ġcharacter": 3380,
      "gister": 3381,
      "Ġpoint": 3382,
      "Ġconfiguration": 3383,
      "Validation": 3384,
      "Ġfilesize": 3385,
      "Ġoverride": 3386,
      "Ġoverridden": 3387,
      "viewability": 3388,
      "Exit": 3389,
      "Ġ!')": 3390,
      "Ġtranscript": 3391,
      "Ġtraining": 3392,
      "Ġmodules": 3393,
      "additional": 3394,
      "TestRunner": 3395,
      "TestCase": 3396,
      "piClient": 3397,
      "Ġcollect": 3398,
      "izes": 3399,
      "ostDriven": 3400,
      "assertRa": 3401,
      "======": 3402,
      "ĠUn": 3403,
      "ĠUNK": 3404,
      "Ġnote": 3405,
      "Ġprime": 3406,
      "basename": 3407,
      "Ġpositional": 3408,
      "Ġpositive": 3409,
      "Ġ{})": 3410,
      "orks": 3411,
      "Ġhash": 3412,
      "Ġspecific": 3413,
      "PodGenerator": 3414,
      "newpath": 3415,
      "ĠHumidity": 3416,
      "Ġhosts": 3417,
      "Ġheight": 3418,
      "Ġadditional": 3419,
      "Ġcreated": 3420,
      "Regexp": 3421,
      "ĠWh": 3422,
      "ĠWhether": 3423,
      "Ġready": 3424,
      "Ġperm": 3425,
      "defaultBG": 3426,
      "defaultFG": 3427,
      "Ġdkeys": 3428,
      "popitem": 3429,
      "Ġrunner": 3430,
      "Initialize": 3431,
      "Ġcaches": 3432,
      "ĠSaltRender": 3433,
      "SER": 3434,
      "SENSOR": 3435,
      "acy": 3436,
      "emails": 3437,
      "Ġmove": 3438,
      "Ġextra": 3439,
      "mcw": 3440,
      "trans": 3441,
      "transcript": 3442,
      "training": 3443,
      "archFilter": 3444,
      "Ġpymyq": 3445,
      "Ġmappingorseq": 3446,
      "ĠdiscreteStepLength": 3447,
      "Ġformula": 3448,
      "Ġdimension": 3449,
      "ĠConstruct": 3450,
      "Ġ30": 3451,
      "Ġsuffix": 3452,
      "::-": 3453,
      "Count": 3454,
      "Random": 3455,
      "without": 3456,
      "ĠExamples": 3457,
      "Ġcannot": 3458,
      "Ġsave": 3459,
      "SearchFilter": 3460,
      "TIES": 3461,
      "TIONS": 3462,
      "TITIES": 3463,
      "registry": 3464,
      "Ġshall": 3465,
      "Ġmodulus": 3466,
      "Ġwindowsize": 3467,
      "mainmenu": 3468,
      "signature": 3469,
      "Ġcallbacks": 3470,
      "ĠGc": 3471,
      "ĠGiven": 3472,
      "ooks": 3473,
      "\\{\\{": 3474,
      "\\}\\}": 3475,
      "world": 3476,
      "Ġ}}.'''": 3477,
      "Ġviews": 3478,
      "ĠCount": 3479,
      "==============": 3480,
      "Ġsomething": 3481,
      ".*/": 3482,
      "umps": 3483,
      "uffle": 3484,
      "Ġ512": 3485,
      "indexes": 3486,
      "Ġintercept": 3487,
      "Ġinitialize": 3488,
      "jobs": 3489,
      "ENTITIES": 3490,
      "Ġrow": 3491,
      "Ġrobot": 3492,
      "Ġmymacro": 3493,
      "Ġmarkup": 3494,
      "Ġmarkdown": 3495,
      "ĠbmpX": 3496,
      "ĠbmpY": 3497,
      "Ġattrs": 3498,
      "BAMStats": 3499,
      "NOWN": 3500,
      "PARAMS": 3501,
      "certificates": 3502,
      "Ġendmacro": 3503,
      "serialize": 3504,
      "reviewLink": 3505,
      "Ġworker": 3506,
      "children": 3507,
      "essage": 3508,
      "isesRegexp": 3509,
      "underline": 3510,
      "ContextStats": 3511,
      "ĠURL": 3512,
      "Method": 3513,
      "andle": 3514,
      "swapped": 3515,
      "Ġfullpath": 3516,
      "ĠfullPath": 3517,
      ")]).": 3518,
      "ArxModel": 3519,
      "Adds": 3520,
      "hiddenstates": 3521,
      "mappingorseq": 3522,
      "Ġencoding": 3523,
      "Ġcritical": 3524,
      "Ġremoved": 3525,
      "Ġrequests": 3526,
      "Ġsimplifi": 3527,
      "limate": 3528,
      "Ġdriver": 3529,
      "Ġwant": 3530,
      "umbnailLink": 3531,
      "variance": 3532,
      "Ġcomponents": 3533,
      "ibility": 3534,
      "overrun": 3535,
      "publisher": 3536,
      "ĠJupyter": 3537,
      "Ġentity": 3538,
      "Ġentries": 3539,
      "arnings": 3540,
      "ĠNote": 3541,
      "Ġprobability": 3542,
      "Ġpredicate": 3543,
      "Ġpredicted": 3544,
      "Ġmatching": 3545,
      "ĠWeb": 3546,
      "\\{%-": 3547,
      "AppendItem": 3548,
      "API": 3549,
      "NotFound": 3550,
      "OUN": 3551,
      "finis": 3552,
      "super": 3553,
      "Ġquasi": 3554,
      "reverse": 3555,
      "recipients": 3556,
      "startswith": 3557,
      "strict": 3558,
      "Ġclosed": 3559,
      "Ġscaled": 3560,
      "Ġduplicate": 3561,
      "abspath": 3562,
      "Ġorderedary": 3563,
      "Ġprogress": 3564,
      "embeddability": 3565,
      "Composite": 3566,
      "Ġautomatically": 3567,
      "Ġpickle": 3568,
      "deployment": 3569,
      "GetRawPublicKey": 3570,
      "ABEL": 3571,
      "Brush": 3572,
      "Color": 3573,
      "COMMON": 3574,
      "Deletes": 3575,
      "Defaults": 3576,
      "FAULT": 3577,
      "Idx": 3578,
      "OPTIONS": 3579,
      "ThumbnailLink": 3580,
      "close": 3581,
      "Ġimplementation": 3582,
      "Ġreffile": 3583,
      "Ġrelations": 3584,
      "Ġderived": 3585,
      "Ġcontainers": 3586,
      "Ġcovariances": 3587,
      "Ġseems": 3588,
      "Ġbehavior": 3589,
      "Ġdetails": 3590,
      "compatibility": 3591,
      "ĠMarkup": 3592,
      "Ġattack": 3593,
      "Ġproperty": 3594,
      "Ġtransformation": 3595,
      "Ġspecifying": 3596,
      "Ġcollections": 3597,
      "InfoLink": 3598,
      "TranscriptPro": 3599,
      "AehW": 3600,
      "Background": 3601,
      "Destroy": 3602,
      "DSAobj": 3603,
      "Dialog": 3604,
      "Element": 3605,
      "EmptyImage": 3606,
      "LmsSearchFilter": 3607,
      "TYPE": 3608,
      "XSHUT": 3609,
      "ZoomLevel": 3610,
      "bibauthority": 3611,
      "cumsum": 3612,
      "eatures": 3613,
      "eutron": 3614,
      "jango": 3615,
      "lueprint": 3616,
      "nnotationLink": 3617,
      "vector": 3618,
      "separable": 3619,
      "reporter": 3620,
      "atrous": 3621,
      "ataset": 3622,
      "Ġchosen": 3623,
      "Ġreference": 3624,
      "Ġnaming": 3625,
      "Ġneeded": 3626,
      "Ġincluded": 3627,
      "Ġdynamic": 3628,
      "lookup": 3629,
      "assignements": 3630,
      "amtools": 3631,
      "Ġsequences": 3632,
      "ĠSyntaxError": 3633,
      "Ġassociated": 3634,
      "Ġ<======================": 3635,
      "ĠDestructive": 3636,
      "Ġunichr": 3637,
      "Ġproblem": 3638,
      "StrandSpecificity": 3639,
      "Ġappropriate": 3640,
      "assertRaisesRegexp": 3641,
      "ĠUNKNOWN": 3642,
      "ĠSaltRenderError": 3643,
      "LmsSearchFilterGenerator": 3644,
      "!!": 3645,
      "!\\": 3646,
      "\">": 3647,
      "\"],": 3648,
      "%\\}": 3649,
      "'!": 3650,
      "'d": 3651,
      "'}": 3652,
      "'\")": 3653,
      "'ll": 3654,
      "'>'": 3655,
      "(.": 3656,
      ")'": 3657,
      ")*": 3658,
      "-',": 3659,
      "/%": 3660,
      "/*": 3661,
      "/.": 3662,
      "/<": 3663,
      "/~": 3664,
      "/{}'.": 3665,
      "15": 3666,
      "34": 3667,
      "36": 3668,
      "324": 3669,
      "60": 3670,
      "68": 3671,
      "742": 3672,
      "768": 3673,
      "86": 3674,
      ":'": 3675,
      ":])": 3676,
      ":],": 3677,
      ":]:": 3678,
      "<..": 3679,
      "=''": 3680,
      ">_": 3681,
      ">'],": 3682,
      ">\").": 3683,
      ">/<": 3684,
      "AF": 3685,
      "All": 3686,
      "AME": 3687,
      "Apply": 3688,
      "Alignment": 3689,
      "ApiClient": 3690,
      "BI": 3691,
      "Bar": 3692,
      "Bit": 3693,
      "BLO": 3694,
      "Basic": 3695,
      "CA": 3696,
      "Cent": 3697,
      "Com": 3698,
      "CON": 3699,
      "Cool": 3700,
      "Certificate": 3701,
      "CEL": 3702,
      "Crypto": 3703,
      "DC": 3704,
      "DO": 3705,
      "De": 3706,
      "Dec": 3707,
      "DRE": 3708,
      "Driver": 3709,
      "Draw": 3710,
      "ET": 3711,
      "En": 3712,
      "ERA": 3713,
      "Escape": 3714,
      "Either": 3715,
      "EFAULT": 3716,
      "FF": 3717,
      "Fun": 3718,
      "FIC": 3719,
      "GG": 3720,
      "GN": 3721,
      "Graph": 3722,
      "GBA": 3723,
      "GMM": 3724,
      "HOR": 3725,
      "Humidity": 3726,
      "Import": 3727,
      "IZE": 3728,
      "Jupyter": 3729,
      "KM": 3730,
      "LE": 3731,
      "LP": 3732,
      "Lag": 3733,
      "List": 3734,
      "LUT": 3735,
      "LED": 3736,
      "MO": 3737,
      "Max": 3738,
      "Mix": 3739,
      "MAL": 3740,
      "Message": 3741,
      "OK": 3742,
      "OSE": 3743,
      "OFF": 3744,
      "PI": 3745,
      "Pi": 3746,
      "Pan": 3747,
      "Pure": 3748,
      "PRE": 3749,
      "Position": 3750,
      "Photo": 3751,
      "QL": 3752,
      "Qu": 3753,
      "Ret": 3754,
      "RNA": 3755,
      "RGB": 3756,
      "RGBA": 3757,
      "SS": 3758,
      "Sh": 3759,
      "Sing": 3760,
      "Sup": 3761,
      "Salt": 3762,
      "Since": 3763,
      "Sess": 3764,
      "TA": 3765,
      "TS": 3766,
      "Template": 3767,
      "TRAN": 3768,
      "Temperature": 3769,
      "TkContext": 3770,
      "UME": 3771,
      "UDE": 3772,
      "USER": 3773,
      "Ver": 3774,
      "VBG": 3775,
      "VOL": 3776,
      "Width": 3777,
      "Works": 3778,
      "YBLO": 3779,
      "[%": 3780,
      "](": 3781,
      "]+": 3782,
      "]_": 3783,
      "]],": 3784,
      "][-": 3785,
      "]([-": 3786,
      "_\"": 3787,
      "_{}'.": 3788,
      "`_": 3789,
      "`).": 3790,
      "action": 3791,
      "aff": 3792,
      "acted": 3793,
      "available": 3794,
      "airflow": 3795,
      "after": 3796,
      "bly": 3797,
      "bool": 3798,
      "buntu": 3799,
      "blueprint": 3800,
      "cer": 3801,
      "cus": 3802,
      "cert": 3803,
      "correct": 3804,
      "crypto": 3805,
      "ccepts": 3806,
      "climate": 3807,
      "dan": 3808,
      "dag": 3809,
      "dust": 3810,
      "dating": 3811,
      "duct": 3812,
      "eb": 3813,
      "eze": 3814,
      "eve": 3815,
      "eans": 3816,
      "fm": 3817,
      "flo": 3818,
      "fset": 3819,
      "fom": 3820,
      "finfo": 3821,
      "fallback": 3822,
      "fresh": 3823,
      "flash": 3824,
      "gr": 3825,
      "gine": 3826,
      "gno": 3827,
      "given": 3828,
      "greet": 3829,
      "google": 3830,
      "has": 3831,
      "hus": 3832,
      "ias": 3833,
      "ies": 3834,
      "ired": 3835,
      "ible": 3836,
      "irectory": 3837,
      "implement": 3838,
      "just": 3839,
      "kw": 3840,
      "kfin": 3841,
      "ls": 3842,
      "lin": 3843,
      "lon": 3844,
      "lst": 3845,
      "mit": 3846,
      "mits": 3847,
      "mart": 3848,
      "missing": 3849,
      "mbed": 3850,
      "mended": 3851,
      "mistral": 3852,
      "nc": 3853,
      "non": 3854,
      "none": 3855,
      "nge": 3856,
      "nip": 3857,
      "ore": 3858,
      "pq": 3859,
      "pet": 3860,
      "ping": 3861,
      "pite": 3862,
      "pill": 3863,
      "pull": 3864,
      "png": 3865,
      "pressed": 3866,
      "sq": 3867,
      "sample": 3868,
      "slow": 3869,
      "sque": 3870,
      "sbed": 3871,
      "since": 3872,
      "syntax": 3873,
      "show": 3874,
      "sleep": 3875,
      "samtools": 3876,
      "snip": 3877,
      "spite": 3878,
      "tmp": 3879,
      "tot": 3880,
      "tid": 3881,
      "trip": 3882,
      "ttemp": 3883,
      "triangular": 3884,
      "uction": 3885,
      "ving": 3886,
      "vid": 3887,
      "void": 3888,
      "ward": 3889,
      "warn": 3890,
      "xy": 3891,
      "xis": 3892,
      "xim": 3893,
      "xbb": 3894,
      "yQ": 3895,
      "yper": 3896,
      "you": 3897,
      "{'": 3898,
      "}:": 3899,
      "}',": 3900,
      "}\")": 3901,
      "}_{": 3902,
      "}},": 3903,
      "âĢ": 3904,
      "Ġ&": 3905,
      "ĠV": 3906,
      "Ġ]": 3907,
      "Ġ~": 3908,
      "Ġvi": 3909,
      "Ġ))": 3910,
      "Ġvari": 3911,
      "Ġutil": 3912,
      "Ġentities": 3913,
      "Ġenrollments": 3914,
      "Ġenvironment": 3915,
      "ĠQuality": 3916,
      "Ġverify": 3917,
      "Ġ\\}\\}": 3918,
      "sequence": 3919,
      "searchpath": 3920,
      "install": 3921,
      "inspect": 3922,
      "repo": 3923,
      "rements": 3924,
      "restart": 3925,
      "recurse": 3926,
      "atus": 3927,
      "Ġtag": 3928,
      "Ġtak": 3929,
      "Ġtemperature": 3930,
      "Ġtalk": 3931,
      "Ġtriangular": 3932,
      "onal": 3933,
      "onding": 3934,
      "onValidation": 3935,
      "ertain": 3936,
      "erred": 3937,
      "stage": 3938,
      "strand": 3939,
      "strap": 3940,
      "stop": 3941,
      "stream": 3942,
      "stead": 3943,
      "store": 3944,
      "ense": 3945,
      "ence": 3946,
      "engine": 3947,
      "orig": 3948,
      "orresp": 3949,
      "original": 3950,
      "ordan": 3951,
      "Ġ=',": 3952,
      "Ġaw": 3953,
      "Ġact": 3954,
      "Ġaction": 3955,
      "Ġaren": 3956,
      "Ġabout": 3957,
      "Ġavoid": 3958,
      "Ġaxis": 3959,
      "Ġip": 3960,
      "Ġicon": 3961,
      "Ġigno": 3962,
      "dete": 3963,
      "deID": 3964,
      "detail": 3965,
      "delete": 3966,
      "deException": 3967,
      "deserialize": 3968,
      "hed": 3969,
      "hes": 3970,
      "header": 3971,
      "height": 3972,
      "lei": 3973,
      "leObject": 3974,
      "Ġcd": 3975,
      "Ġcmp": 3976,
      "Ġcust": 3977,
      "Ġcrypto": 3978,
      "Ġcursor": 3979,
      "Ġcertain": 3980,
      "Ġcorresp": 3981,
      "method": 3982,
      "first": 3983,
      "arts": 3984,
      "arage": 3985,
      "arger": 3986,
      "itect": 3987,
      "Ġresize": 3988,
      "Ġrepro": 3989,
      "Ġreview": 3990,
      "Ġrecur": 3991,
      "Ġrepet": 3992,
      "Ġnu": 3993,
      "Ġnum": 3994,
      "Ġpan": 3995,
      "Ġpage": 3996,
      "Ġpadd": 3997,
      "Ġpicard": 3998,
      "Ġpush": 3999,
      "Ġpatter": 4000,
      "Ġfb": 4001,
      "Ġfp": 4002,
      "Ġfin": 4003,
      "Ġfind": 4004,
      "Ġfail": 4005,
      "Ġflag": 4006,
      "Ġfeed": 4007,
      "Ġfactory": 4008,
      "Ġfallback": 4009,
      "Ġfeatures": 4010,
      "Ġoptim": 4011,
      "entity": 4012,
      "entify": 4013,
      "etree": 4014,
      "Ġind": 4015,
      "Ġincre": 4016,
      "Ġinformation": 4017,
      "Ġinspect": 4018,
      "Ġinfom": 4019,
      "Ġinstead": 4020,
      "-----": 4021,
      "):.": 4022,
      "Ġsil": 4023,
      "Ġsource": 4024,
      "Ġspec": 4025,
      "Ġslow": 4026,
      "Ġsys": 4027,
      "Ġschur": 4028,
      "Ġsplitter": 4029,
      "Ġsyntax": 4030,
      "Ġsleep": 4031,
      "Ġsched": 4032,
      "Ġsqlite": 4033,
      "Ġsorted": 4034,
      "Ġspark": 4035,
      "rofile": 4036,
      "rosbed": 4037,
      "roxim": 4038,
      "deferred": 4039,
      "Ġ'&": 4040,
      "Ġ',": 4041,
      "Ġ'',": 4042,
      "Ġ'..": 4043,
      "Ġ'<..": 4044,
      "lier": 4045,
      "like": 4046,
      "lies": 4047,
      "rain": 4048,
      "raise": 4049,
      "raft": 4050,
      "rang": 4051,
      "raquo": 4052,
      "rapper": 4053,
      "range": 4054,
      "Ġmv": 4055,
      "Ġmate": 4056,
      "Ġmost": 4057,
      "Ġmtime": 4058,
      "Ġmix": 4059,
      "Ġear": 4060,
      "Ġeig": 4061,
      "Ġeither": 4062,
      "Ġevaluate": 4063,
      "Ġembed": 4064,
      "Ġbit": 4065,
      "Ġbus": 4066,
      "Ġbrand": 4067,
      "Ġboot": 4068,
      "Ġdon": 4069,
      "Ġdum": 4070,
      "Ġdid": 4071,
      "Ġdataset": 4072,
      "Ġdense": 4073,
      "ategory": 4074,
      "unted": 4075,
      "unpack": 4076,
      "unused": 4077,
      "unescape": 4078,
      "ilename": 4079,
      "covar": 4080,
      "counts": 4081,
      "covariance": 4082,
      "utf": 4083,
      "ution": 4084,
      "utations": 4085,
      "Ġwise": 4086,
      "Ġway": 4087,
      "asurement": 4088,
      "rieve": 4089,
      "ĠĠĠĠĠĠĠĠĠĠĠĠĠĠĠĠĠĠĠĠĠĠĠĠ": 4090,
      "Ġstack": 4091,
      "Ġstream": 4092,
      "Ġstarts": 4093,
      "pth": 4094,
      "adow": 4095
    },
    "merges": [
      [
        "Ġ",
        "Ġ"
      ],
      [
        "ĠĠ",
        "ĠĠ"
      ],
      [
        "ĠĠ",
        "Ġ"
      ],
      [
        "ĠĠĠĠ",
        "ĠĠĠ"
      ],
      [
        "s",
        "e"
      ],
      [
        "i",
        "n"
      ],
      [
        "ĠĠĠĠ",
        "ĠĠĠĠ"
      ],
      [
        "r",
        "e"
      ],
      [
        "a",
        "t"
      ],
      [
        "Ġ",
        "t"
      ],
      [
        "o",
        "n"
      ],
      [
        "e",
        "r"
      ],
      [
        "s",
        "t"
      ],
      [
        "e",
        "n"
      ],
      [
        "o",
        "r"
      ],
      [
        "-",
        "-"
      ],
      [
        "\"",
        "\""
      ],
      [
        "se",
        "l"
      ],
      [
        "sel",
        "f"
      ],
      [
        "Ġ",
        "="
      ],
      [
        "Ġ",
        "a"
      ],
      [
        "Ġ",
        "i"
      ],
      [
        "d",
        "e"
      ],
      [
        "h",
        "e"
      ],
      [
        "ĠĠĠĠ",
        "ĠĠĠĠĠĠĠ"
      ],
      [
        "l",
        "e"
      ],
      [
        "a",
        "l"
      ],
      [
        "Ġ",
        "c"
      ],
      [
        "m",
        "e"
      ],
      [
        "f",
        "i"
      ],
      [
        "a",
        "r"
      ],
      [
        "i",
        "t"
      ],
      [
        "u",
        "r"
      ],
      [
        "Ġ",
        "self"
      ],
      [
        "Ġ",
        "re"
      ],
      [
        "Ġt",
        "he"
      ],
      [
        "Ġ",
        "n"
      ],
      [
        "Ġ",
        "p"
      ],
      [
        "\"\"",
        "\""
      ],
      [
        "Ġ",
        "f"
      ],
      [
        "Ġ",
        "o"
      ],
      [
        "en",
        "t"
      ],
      [
        "e",
        "t"
      ],
      [
        "Ġ",
        "in"
      ],
      [
        "a",
        "me"
      ],
      [
        "i",
        "on"
      ],
      [
        "c",
        "e"
      ],
      [
        "--",
        "--"
      ],
      [
        ")",
        ":"
      ],
      [
        "Ġ",
        "s"
      ],
      [
        "r",
        "o"
      ],
      [
        "c",
        "t"
      ],
      [
        "de",
        "f"
      ],
      [
        "Ġ",
        "'"
      ],
      [
        "Ġ",
        "\"\"\""
      ],
      [
        "l",
        "i"
      ],
      [
        "r",
        "a"
      ],
      [
        "m",
        "p"
      ],
      [
        "ur",
        "n"
      ],
      [
        "p",
        "e"
      ],
      [
        "Ġ",
        "m"
      ],
      [
        "Ġ",
        "e"
      ],
      [
        "Ġi",
        "f"
      ],
      [
        "Ġ",
        "b"
      ],
      [
        "t",
        "e"
      ],
      [
        "in",
        "g"
      ],
      [
        "Ġ",
        "d"
      ],
      [
        "at",
        "e"
      ],
      [
        "u",
        "n"
      ],
      [
        "l",
        "o"
      ],
      [
        "o",
        "t"
      ],
      [
        "t",
        "urn"
      ],
      [
        "u",
        "m"
      ],
      [
        "ĠĠĠĠĠĠĠĠ",
        "ĠĠĠĠĠĠĠ"
      ],
      [
        "Ġre",
        "turn"
      ],
      [
        "i",
        "l"
      ],
      [
        "c",
        "o"
      ],
      [
        "k",
        "e"
      ],
      [
        "u",
        "t"
      ],
      [
        "fi",
        "le"
      ],
      [
        "i",
        "d"
      ],
      [
        "Ġ",
        "w"
      ],
      [
        "u",
        "e"
      ],
      [
        "a",
        "s"
      ],
      [
        "o",
        "d"
      ],
      [
        "n",
        "d"
      ],
      [
        "r",
        "i"
      ],
      [
        "Ġi",
        "s"
      ],
      [
        "Ġf",
        "or"
      ],
      [
        "ĠĠĠĠĠĠĠĠ",
        "ĠĠĠĠĠĠĠĠ"
      ],
      [
        "se",
        "r"
      ],
      [
        "t",
        "er"
      ],
      [
        "u",
        "l"
      ],
      [
        "at",
        "h"
      ],
      [
        "ke",
        "y"
      ],
      [
        "Ġ",
        "st"
      ],
      [
        "Ġt",
        "o"
      ],
      [
        "p",
        "t"
      ],
      [
        "v",
        "al"
      ],
      [
        "a",
        "d"
      ],
      [
        ".",
        "_"
      ],
      [
        "a",
        "n"
      ],
      [
        "n",
        "ame"
      ],
      [
        "b",
        "j"
      ],
      [
        "u",
        "p"
      ],
      [
        "Ġ",
        ":"
      ],
      [
        "Ġo",
        "f"
      ],
      [
        "Ġ",
        "#"
      ],
      [
        "on",
        "e"
      ],
      [
        "(",
        ")"
      ],
      [
        "a",
        "p"
      ],
      [
        "c",
        "k"
      ],
      [
        "Ġ",
        "("
      ],
      [
        "----",
        "----"
      ],
      [
        "i",
        "s"
      ],
      [
        "e",
        "ct"
      ],
      [
        "'",
        "'"
      ],
      [
        "c",
        "on"
      ],
      [
        "a",
        "g"
      ],
      [
        "Ġn",
        "ot"
      ],
      [
        "Ġ",
        "T"
      ],
      [
        "Ġ",
        "g"
      ],
      [
        "Ġ",
        "N"
      ],
      [
        "c",
        "h"
      ],
      [
        "p",
        "ar"
      ],
      [
        "y",
        "pe"
      ],
      [
        "r",
        "or"
      ],
      [
        "v",
        "i"
      ],
      [
        "e",
        "d"
      ],
      [
        "'",
        ")"
      ],
      [
        "'",
        ","
      ],
      [
        "a",
        "m"
      ],
      [
        "t",
        "s"
      ],
      [
        "x",
        "t"
      ],
      [
        "at",
        "ion"
      ],
      [
        "Ġc",
        "on"
      ],
      [
        "Ġc",
        "o"
      ],
      [
        "ĠĠĠĠĠĠĠĠ",
        "ĠĠĠĠĠĠĠĠĠĠĠ"
      ],
      [
        "Ġt",
        "h"
      ],
      [
        "p",
        "ath"
      ],
      [
        "v",
        "er"
      ],
      [
        "Ġ",
        "u"
      ],
      [
        "val",
        "ue"
      ],
      [
        "a",
        "b"
      ],
      [
        "Ġa",
        "nd"
      ],
      [
        "e",
        "l"
      ],
      [
        "Ġ",
        "h"
      ],
      [
        "d",
        "i"
      ],
      [
        "t",
        "a"
      ],
      [
        "de",
        "l"
      ],
      [
        "Ġe",
        "x"
      ],
      [
        "e",
        "s"
      ],
      [
        "p",
        "o"
      ],
      [
        "bj",
        "ect"
      ],
      [
        "m",
        "a"
      ],
      [
        "Ġ",
        "*"
      ],
      [
        "E",
        "r"
      ],
      [
        "Ġ",
        "l"
      ],
      [
        "ul",
        "t"
      ],
      [
        "Er",
        "ror"
      ],
      [
        ")",
        ")"
      ],
      [
        "e",
        "st"
      ],
      [
        "i",
        "se"
      ],
      [
        "Ġ",
        "I"
      ],
      [
        "Ġ",
        "P"
      ],
      [
        "Ġ",
        "ra"
      ],
      [
        "or",
        "t"
      ],
      [
        "li",
        "ent"
      ],
      [
        "r",
        "y"
      ],
      [
        "(",
        "'"
      ],
      [
        "a",
        "se"
      ],
      [
        "s",
        "i"
      ],
      [
        "Ġ",
        "se"
      ],
      [
        "ĠN",
        "one"
      ],
      [
        "e",
        "w"
      ],
      [
        "it",
        "h"
      ],
      [
        "ĠĠĠĠ",
        "Ġ"
      ],
      [
        "Ġre",
        "s"
      ],
      [
        "g",
        "s"
      ],
      [
        "Ġ",
        "1"
      ],
      [
        "Ġ",
        "-"
      ],
      [
        "Ġ",
        "lo"
      ],
      [
        "Ġ",
        "+"
      ],
      [
        "Ġ",
        "_"
      ],
      [
        "t",
        "h"
      ],
      [
        "Ġ",
        "A"
      ],
      [
        "b",
        "um"
      ],
      [
        "Ġ",
        "or"
      ],
      [
        "Ġb",
        "e"
      ],
      [
        "ro",
        "m"
      ],
      [
        "Ġ'",
        "''"
      ],
      [
        "u",
        "b"
      ],
      [
        "Ġ",
        "\""
      ],
      [
        "at",
        "a"
      ],
      [
        "Ġa",
        "r"
      ],
      [
        "as",
        "s"
      ],
      [
        "Ġ",
        "["
      ],
      [
        "i",
        "c"
      ],
      [
        "m",
        "ent"
      ],
      [
        "o",
        "del"
      ],
      [
        "Ġ",
        "%"
      ],
      [
        "il",
        "d"
      ],
      [
        "t",
        "ype"
      ],
      [
        "Ġa",
        "n"
      ],
      [
        "re",
        "s"
      ],
      [
        "Ġ",
        "S"
      ],
      [
        "Ġa",
        "l"
      ],
      [
        "fi",
        "l"
      ],
      [
        "g",
        "et"
      ],
      [
        "Ġ",
        "key"
      ],
      [
        "c",
        "he"
      ],
      [
        "o",
        "o"
      ],
      [
        "vi",
        "ce"
      ],
      [
        "q",
        "u"
      ],
      [
        "i",
        "st"
      ],
      [
        "fi",
        "g"
      ],
      [
        "ra",
        "y"
      ],
      [
        "'",
        "]"
      ],
      [
        "li",
        "st"
      ],
      [
        "Ġst",
        "r"
      ],
      [
        "ag",
        "e"
      ],
      [
        "c",
        "i"
      ],
      [
        "en",
        "d"
      ],
      [
        "Ġn",
        "ame"
      ],
      [
        "Ġd",
        "i"
      ],
      [
        "Ġe",
        "l"
      ],
      [
        "ap",
        "p"
      ],
      [
        "file",
        "s"
      ],
      [
        "mp",
        "le"
      ],
      [
        "Ġw",
        "ith"
      ],
      [
        "]",
        ")"
      ],
      [
        "f",
        "or"
      ],
      [
        "h",
        "a"
      ],
      [
        "te",
        "xt"
      ],
      [
        "n",
        "s"
      ],
      [
        "Ġ",
        "0"
      ],
      [
        "m",
        "at"
      ],
      [
        "al",
        "l"
      ],
      [
        "pt",
        "ion"
      ],
      [
        "ab",
        "le"
      ],
      [
        "[",
        "'"
      ],
      [
        "Ġ",
        "value"
      ],
      [
        "ct",
        "ion"
      ],
      [
        "c",
        "l"
      ],
      [
        "ar",
        "gs"
      ],
      [
        "Ġt",
        "est"
      ],
      [
        "ta",
        "in"
      ],
      [
        "Ġel",
        "se"
      ],
      [
        "_",
        "_"
      ],
      [
        "Ġ",
        "R"
      ],
      [
        "Ġa",
        "s"
      ],
      [
        "par",
        "am"
      ],
      [
        "Ġra",
        "ise"
      ],
      [
        "u",
        "ild"
      ],
      [
        "z",
        "e"
      ],
      [
        "Ġ",
        "x"
      ],
      [
        "Ġc",
        "lient"
      ],
      [
        ".",
        "\"\"\""
      ],
      [
        "p",
        "l"
      ],
      [
        "v",
        "en"
      ],
      [
        "se",
        "t"
      ],
      [
        "it",
        "y"
      ],
      [
        "it",
        "ion"
      ],
      [
        "el",
        "d"
      ],
      [
        "p",
        "re"
      ],
      [
        "v",
        "e"
      ],
      [
        "re",
        "n"
      ],
      [
        "et",
        "urn"
      ],
      [
        "Ġ",
        "k"
      ],
      [
        "Ġ",
        "de"
      ],
      [
        "Ġ=",
        "="
      ],
      [
        "Ġf",
        "rom"
      ],
      [
        "mp",
        "l"
      ],
      [
        "--------",
        "--------"
      ],
      [
        "u",
        "le"
      ],
      [
        "Ġ",
        "C"
      ],
      [
        "Ġ",
        "list"
      ],
      [
        "ĠĠĠĠĠĠĠĠ",
        "ĠĠĠĠ"
      ],
      [
        "it",
        "e"
      ],
      [
        "te",
        "st"
      ],
      [
        "(",
        "\""
      ],
      [
        "h",
        "o"
      ],
      [
        "Ġ",
        "r"
      ],
      [
        "Ġ",
        "def"
      ],
      [
        "o",
        "ur"
      ],
      [
        "in",
        "d"
      ],
      [
        "Ġn",
        "p"
      ],
      [
        "Ġo",
        "bject"
      ],
      [
        "od",
        "ule"
      ],
      [
        "Ġu",
        "ser"
      ],
      [
        "Ġg",
        "et"
      ],
      [
        "o",
        "s"
      ],
      [
        "t",
        "o"
      ],
      [
        "u",
        "s"
      ],
      [
        "fi",
        "eld"
      ],
      [
        "Ġo",
        "ut"
      ],
      [
        "un",
        "t"
      ],
      [
        "=",
        "="
      ],
      [
        ">",
        ">"
      ],
      [
        "o",
        "ut"
      ],
      [
        "st",
        "r"
      ],
      [
        "a",
        "y"
      ],
      [
        "ser",
        "t"
      ],
      [
        "]",
        ","
      ],
      [
        "o",
        "bj"
      ],
      [
        "Ġ",
        "<"
      ],
      [
        "st",
        "an"
      ],
      [
        "ce",
        "s"
      ],
      [
        "mp",
        "ort"
      ],
      [
        "a",
        "st"
      ],
      [
        "Ġ",
        "me"
      ],
      [
        "at",
        "s"
      ],
      [
        "he",
        "ap"
      ],
      [
        "ent",
        "s"
      ],
      [
        "ce",
        "pt"
      ],
      [
        "po",
        "s"
      ],
      [
        "lo",
        "g"
      ],
      [
        "'",
        ":"
      ],
      [
        "a",
        "ck"
      ],
      [
        "u",
        "re"
      ],
      [
        "u",
        "st"
      ],
      [
        "ro",
        "up"
      ],
      [
        "p",
        "p"
      ],
      [
        "p",
        "y"
      ],
      [
        "t",
        "r"
      ],
      [
        "Ġ",
        "`"
      ],
      [
        "in",
        "ts"
      ],
      [
        "al",
        "bum"
      ],
      [
        "Ġth",
        "at"
      ],
      [
        "\"",
        ")"
      ],
      [
        "G",
        "et"
      ],
      [
        "d",
        "ata"
      ],
      [
        "Ġ",
        "--"
      ],
      [
        "Ġ",
        "fil"
      ],
      [
        "un",
        "d"
      ],
      [
        "Ġth",
        "is"
      ],
      [
        "tain",
        "er"
      ],
      [
        "a",
        "ult"
      ],
      [
        "o",
        "w"
      ],
      [
        "p",
        "ut"
      ],
      [
        "w",
        "args"
      ],
      [
        "Ġ",
        "{"
      ],
      [
        "re",
        "ate"
      ],
      [
        "ar",
        "y"
      ],
      [
        "Ġp",
        "ar"
      ],
      [
        "ren",
        "t"
      ],
      [
        "r",
        "ue"
      ],
      [
        "in",
        "e"
      ],
      [
        "Ġi",
        "d"
      ],
      [
        "Ġar",
        "ray"
      ],
      [
        "mpl",
        "ate"
      ],
      [
        "a",
        "mple"
      ],
      [
        "i",
        "g"
      ],
      [
        "o",
        "m"
      ],
      [
        "p",
        "od"
      ],
      [
        "co",
        "mp"
      ],
      [
        "e",
        "x"
      ],
      [
        "Ġ",
        "D"
      ],
      [
        "ur",
        "se"
      ],
      [
        "ent",
        "ry"
      ],
      [
        "p",
        "er"
      ],
      [
        "Ġb",
        "uild"
      ],
      [
        "co",
        "l"
      ],
      [
        "ma",
        "il"
      ],
      [
        "Ġi",
        "t"
      ],
      [
        "ame",
        "ter"
      ],
      [
        "our",
        "ce"
      ],
      [
        "Ġ",
        "y"
      ],
      [
        "in",
        "it"
      ],
      [
        "al",
        "t"
      ],
      [
        "li",
        "f"
      ],
      [
        ")",
        ","
      ],
      [
        ")",
        "."
      ],
      [
        "g",
        "roup"
      ],
      [
        "i",
        "me"
      ],
      [
        "l",
        "y"
      ],
      [
        "Ġ",
        "2"
      ],
      [
        "Ġ",
        "M"
      ],
      [
        "Ġt",
        "ry"
      ],
      [
        "Ġu",
        "se"
      ],
      [
        "Ġres",
        "ult"
      ],
      [
        "stan",
        "ce"
      ],
      [
        "o",
        "l"
      ],
      [
        "de",
        "vice"
      ],
      [
        "con",
        "tainer"
      ],
      [
        "c",
        "al"
      ],
      [
        "t",
        "ition"
      ],
      [
        "he",
        "ck"
      ],
      [
        "Ġn",
        "et"
      ],
      [
        "Ġe",
        "lif"
      ],
      [
        "ad",
        "er"
      ],
      [
        "i",
        "m"
      ],
      [
        "st",
        "ate"
      ],
      [
        "pe",
        "c"
      ],
      [
        "Ġb",
        "ase"
      ],
      [
        "Ġse",
        "t"
      ],
      [
        "g",
        "e"
      ],
      [
        "p",
        "ort"
      ],
      [
        "en",
        "ame"
      ],
      [
        "it",
        "i"
      ],
      [
        "Ġn",
        "ew"
      ],
      [
        "Ġm",
        "odel"
      ],
      [
        "ĠI",
        "f"
      ],
      [
        "Ġout",
        "file"
      ],
      [
        "N",
        "one"
      ],
      [
        "a",
        "che"
      ],
      [
        "f",
        "f"
      ],
      [
        "Ġ",
        "F"
      ],
      [
        "Ġ",
        "un"
      ],
      [
        "Ġex",
        "cept"
      ],
      [
        "O",
        "N"
      ],
      [
        "e",
        "xt"
      ],
      [
        "o",
        "bject"
      ],
      [
        "u",
        "ser"
      ],
      [
        "ĠĠĠĠĠĠĠĠ",
        "Ġ"
      ],
      [
        "re",
        "ad"
      ],
      [
        "val",
        "id"
      ],
      [
        "si",
        "ze"
      ],
      [
        "=",
        "'"
      ],
      [
        "e",
        "y"
      ],
      [
        "i",
        "fi"
      ],
      [
        "m",
        "o"
      ],
      [
        "m",
        "odel"
      ],
      [
        "o",
        "und"
      ],
      [
        "p",
        "h"
      ],
      [
        "s",
        "s"
      ],
      [
        "Ġ",
        "at"
      ],
      [
        "ĠĠĠĠĠĠĠĠ",
        "Ċ"
      ],
      [
        "al",
        "se"
      ],
      [
        "ro",
        "ot"
      ],
      [
        "Ġd",
        "o"
      ],
      [
        "Ġw",
        "h"
      ],
      [
        "Ġl",
        "en"
      ],
      [
        "for",
        "mat"
      ],
      [
        "ption",
        "s"
      ],
      [
        "C",
        "on"
      ],
      [
        "e",
        "p"
      ],
      [
        "n",
        "et"
      ],
      [
        "Ġ",
        "on"
      ],
      [
        "en",
        "er"
      ],
      [
        "Ġp",
        "ro"
      ],
      [
        "con",
        "fig"
      ],
      [
        "Ġal",
        "bum"
      ],
      [
        "Ġstr",
        "ing"
      ],
      [
        "ha",
        "pe"
      ],
      [
        "S",
        "t"
      ],
      [
        "l",
        "l"
      ],
      [
        "v",
        "ar"
      ],
      [
        "li",
        "c"
      ],
      [
        "te",
        "m"
      ],
      [
        "ĠT",
        "he"
      ],
      [
        "ĠR",
        "eturn"
      ],
      [
        "h",
        "t"
      ],
      [
        "i",
        "le"
      ],
      [
        "y",
        "n"
      ],
      [
        "Ġc",
        "heck"
      ],
      [
        "Ġp",
        "ath"
      ],
      [
        "comp",
        "on"
      ],
      [
        "j",
        "o"
      ],
      [
        "s",
        "pec"
      ],
      [
        "Ġ",
        "O"
      ],
      [
        "Ġi",
        "mport"
      ],
      [
        "ĠĠĠĠĠĠĠĠĠĠĠĠĠĠĠĠ",
        "ĠĠĠĠĠĠĠĠĠĠĠĠĠĠĠĠ"
      ],
      [
        "pl",
        "it"
      ],
      [
        "pre",
        "c"
      ],
      [
        "K",
        "ey"
      ],
      [
        "c",
        "lient"
      ],
      [
        "n",
        "ot"
      ],
      [
        "Ġ",
        "X"
      ],
      [
        "in",
        "t"
      ],
      [
        "er",
        "t"
      ],
      [
        "Ġa",
        "pp"
      ],
      [
        "Ġi",
        "tem"
      ],
      [
        "Ġp",
        "re"
      ],
      [
        "Ġo",
        "s"
      ],
      [
        "pe",
        "ci"
      ],
      [
        "Ġb",
        "y"
      ],
      [
        "te",
        "mplate"
      ],
      [
        "lo",
        "w"
      ],
      [
        "id",
        "x"
      ],
      [
        "nd",
        "om"
      ],
      [
        "M",
        "E"
      ],
      [
        "p",
        "ro"
      ],
      [
        "Ġ",
        "L"
      ],
      [
        "in",
        "stance"
      ],
      [
        "Ġc",
        "h"
      ],
      [
        "Ġc",
        "l"
      ],
      [
        "Ġs",
        "ho"
      ],
      [
        "um",
        "b"
      ],
      [
        "um",
        "ent"
      ],
      [
        "po",
        "ints"
      ],
      [
        "Ġ*",
        "*"
      ],
      [
        "ĠI",
        "n"
      ],
      [
        "Ġlo",
        "g"
      ],
      [
        "cl",
        "ass"
      ],
      [
        "var",
        "i"
      ],
      [
        "g",
        "ist"
      ],
      [
        "k",
        "wargs"
      ],
      [
        "n",
        "p"
      ],
      [
        "Ġ",
        ">>"
      ],
      [
        "Ġp",
        "o"
      ],
      [
        "Ġd",
        "ata"
      ],
      [
        "id",
        "s"
      ],
      [
        "ĠT",
        "rue"
      ],
      [
        "Ġcon",
        "fig"
      ],
      [
        "col",
        "um"
      ],
      [
        "compon",
        "ents"
      ],
      [
        "V",
        "al"
      ],
      [
        "a",
        "ce"
      ],
      [
        "m",
        "age"
      ],
      [
        "n",
        "o"
      ],
      [
        "p",
        "ha"
      ],
      [
        "Ġ",
        ")"
      ],
      [
        "Ġ",
        "heap"
      ],
      [
        "or",
        "y"
      ],
      [
        "de",
        "d"
      ],
      [
        "ar",
        "ray"
      ],
      [
        "il",
        "l"
      ],
      [
        "di",
        "r"
      ],
      [
        "ction",
        "ary"
      ],
      [
        "k",
        "en"
      ],
      [
        "r",
        "ame"
      ],
      [
        "Ġ",
        "file"
      ],
      [
        "pt",
        "s"
      ],
      [
        "Ġex",
        "ist"
      ],
      [
        "app",
        "end"
      ],
      [
        "__",
        "("
      ],
      [
        "Ġdef",
        "ault"
      ],
      [
        "ay",
        "er"
      ],
      [
        "Ġbuild",
        "er"
      ],
      [
        "St",
        "ats"
      ],
      [
        "R",
        "eturn"
      ],
      [
        "k",
        "ub"
      ],
      [
        "q",
        "ue"
      ],
      [
        "s",
        "hape"
      ],
      [
        "u",
        "te"
      ],
      [
        "Ġ",
        "up"
      ],
      [
        "at",
        "tr"
      ],
      [
        "er",
        "ror"
      ],
      [
        "en",
        "s"
      ],
      [
        "Ġa",
        "re"
      ],
      [
        "Ġf",
        "un"
      ],
      [
        "Ġo",
        "ver"
      ],
      [
        "Ġm",
        "ust"
      ],
      [
        "''",
        "'"
      ],
      [
        "vi",
        "ew"
      ],
      [
        "Ġco",
        "urse"
      ],
      [
        "ameter",
        "s"
      ],
      [
        "E",
        "x"
      ],
      [
        "c",
        "p"
      ],
      [
        "d",
        "d"
      ],
      [
        "i",
        "ven"
      ],
      [
        "Ġ",
        "!"
      ],
      [
        "Ġ",
        "Val"
      ],
      [
        "re",
        "d"
      ],
      [
        "Ġt",
        "ra"
      ],
      [
        "ra",
        "ph"
      ],
      [
        "Ġm",
        "at"
      ],
      [
        "Ġm",
        "odule"
      ],
      [
        "ter",
        "m"
      ],
      [
        "ad",
        "d"
      ],
      [
        "par",
        "se"
      ],
      [
        "res",
        "p"
      ],
      [
        "ns",
        "or"
      ],
      [
        "cal",
        "a"
      ],
      [
        "(",
        "):"
      ],
      [
        ":",
        "`"
      ],
      [
        "T",
        "est"
      ],
      [
        "[",
        ":"
      ],
      [
        "f",
        "o"
      ],
      [
        "i",
        "ze"
      ],
      [
        "l",
        "ine"
      ],
      [
        "m",
        "odule"
      ],
      [
        "p",
        "i"
      ],
      [
        "u",
        "g"
      ],
      [
        "at",
        "or"
      ],
      [
        "Ġs",
        "peci"
      ],
      [
        "Ġm",
        "a"
      ],
      [
        "ue",
        "Error"
      ],
      [
        "ul",
        "d"
      ],
      [
        "._",
        "_"
      ],
      [
        "Ġco",
        "l"
      ],
      [
        "ĠĠĠĠĠĠĠĠĠĠĠĠ",
        "Ċ"
      ],
      [
        "ite",
        "m"
      ],
      [
        "Ġfil",
        "ename"
      ],
      [
        "ĠReturn",
        "s"
      ],
      [
        "Ġ>>",
        ">"
      ],
      [
        "ĠVal",
        "ueError"
      ],
      [
        "e",
        "c"
      ],
      [
        "i",
        "z"
      ],
      [
        "i",
        "ch"
      ],
      [
        "o",
        "st"
      ],
      [
        "Ġ",
        "--------"
      ],
      [
        "Ġ",
        "entry"
      ],
      [
        "in",
        "k"
      ],
      [
        "Ġt",
        "ype"
      ],
      [
        "er",
        "y"
      ],
      [
        "al",
        "pha"
      ],
      [
        "as",
        "sert"
      ],
      [
        "Ġis",
        "instance"
      ],
      [
        "Ġcon",
        "text"
      ],
      [
        "Ġar",
        "g"
      ],
      [
        "qu",
        "al"
      ],
      [
        "==",
        "=="
      ],
      [
        "(",
        "["
      ],
      [
        "c",
        "a"
      ],
      [
        "m",
        "d"
      ],
      [
        "s",
        "u"
      ],
      [
        "s",
        "plit"
      ],
      [
        "Ġ",
        "U"
      ],
      [
        "in",
        "v"
      ],
      [
        "in",
        "files"
      ],
      [
        "Ġn",
        "o"
      ],
      [
        "Ġp",
        "ri"
      ],
      [
        "as",
        "k"
      ],
      [
        "par",
        "tition"
      ],
      [
        "Ġ_",
        "_"
      ],
      [
        "th",
        "od"
      ],
      [
        "fil",
        "ter"
      ],
      [
        "ind",
        "ow"
      ],
      [
        "b",
        "ase"
      ],
      [
        "b",
        "ack"
      ],
      [
        "m",
        "ath"
      ],
      [
        "n",
        "u"
      ],
      [
        "o",
        "ptions"
      ],
      [
        "Ġ",
        "ser"
      ],
      [
        "at",
        "ing"
      ],
      [
        "Ġp",
        "os"
      ],
      [
        "ri",
        "ven"
      ],
      [
        "Ġ+",
        "="
      ],
      [
        "Ġal",
        "l"
      ],
      [
        "Ġ{",
        "}"
      ],
      [
        "Ġsho",
        "uld"
      ],
      [
        "vari",
        "able"
      ],
      [
        "c",
        "ate"
      ],
      [
        "d",
        "o"
      ],
      [
        "d",
        "ate"
      ],
      [
        "ĠĠĠĠ",
        "ĠĠ"
      ],
      [
        "or",
        "k"
      ],
      [
        "ur",
        "rent"
      ],
      [
        "Ġs",
        "li"
      ],
      [
        "Ġw",
        "e"
      ],
      [
        "Ġst",
        "ate"
      ],
      [
        "name",
        "s"
      ],
      [
        "ation",
        "s"
      ],
      [
        "Ġh",
        "as"
      ],
      [
        "th",
        "on"
      ],
      [
        "che",
        "ck"
      ],
      [
        "qu",
        "ery"
      ],
      [
        "Ġme",
        "thod"
      ],
      [
        "Ġid",
        "x"
      ],
      [
        "container",
        "s"
      ],
      [
        "Ġwh",
        "ich"
      ],
      [
        "yn",
        "c"
      ],
      [
        "jo",
        "in"
      ],
      [
        "Ġfun",
        "ction"
      ],
      [
        "'",
        "."
      ],
      [
        "E",
        "qual"
      ],
      [
        "F",
        "ile"
      ],
      [
        "a",
        "il"
      ],
      [
        "a",
        "rent"
      ],
      [
        "c",
        "ro"
      ],
      [
        "c",
        "ri"
      ],
      [
        "f",
        "rom"
      ],
      [
        "h",
        "is"
      ],
      [
        "i",
        "p"
      ],
      [
        "t",
        "y"
      ],
      [
        "w",
        "r"
      ],
      [
        "Ġ",
        "field"
      ],
      [
        "st",
        "at"
      ],
      [
        "de",
        "x"
      ],
      [
        "Ġc",
        "all"
      ],
      [
        "fi",
        "x"
      ],
      [
        "ar",
        "d"
      ],
      [
        "Ġp",
        "od"
      ],
      [
        "Ġw",
        "ill"
      ],
      [
        "Ġg",
        "iven"
      ],
      [
        "ment",
        "s"
      ],
      [
        "Ġname",
        "s"
      ],
      [
        "app",
        "ing"
      ],
      [
        "cl",
        "u"
      ],
      [
        "ind",
        "er"
      ],
      [
        "Ġfil",
        "ter"
      ],
      [
        "umb",
        "er"
      ],
      [
        "Ġspeci",
        "fi"
      ],
      [
        "assert",
        "Equal"
      ],
      [
        "\"",
        ","
      ],
      [
        "R",
        "A"
      ],
      [
        "p",
        "en"
      ],
      [
        "u",
        "ct"
      ],
      [
        "Ġ",
        "Key"
      ],
      [
        "ar",
        "ameters"
      ],
      [
        "Ġin",
        "t"
      ],
      [
        "Ġin",
        "to"
      ],
      [
        "pe",
        "line"
      ],
      [
        "Ġw",
        "x"
      ],
      [
        "ri",
        "x"
      ],
      [
        "Ġ[",
        "]"
      ],
      [
        ".",
        "."
      ],
      [
        "E",
        "S"
      ],
      [
        "G",
        "ener"
      ],
      [
        "P",
        "od"
      ],
      [
        "a",
        "ch"
      ],
      [
        "g",
        "en"
      ],
      [
        "n",
        "ew"
      ],
      [
        "t",
        "f"
      ],
      [
        "t",
        "t"
      ],
      [
        "v",
        "el"
      ],
      [
        "Ġ",
        "H"
      ],
      [
        "Ġ",
        "v"
      ],
      [
        "Ġ",
        "|"
      ],
      [
        "se",
        "d"
      ],
      [
        "in",
        "ter"
      ],
      [
        "ĠĠĠĠĠĠĠĠ",
        "ĠĠĠĠĠĠĠĠĠĠĠĠĠĠĠ"
      ],
      [
        "Ġt",
        "ime"
      ],
      [
        "Ġin",
        "files"
      ],
      [
        "ro",
        "p"
      ],
      [
        "co",
        "m"
      ],
      [
        "co",
        "unt"
      ],
      [
        "()",
        ")"
      ],
      [
        "ype",
        "Error"
      ],
      [
        "ver",
        "s"
      ],
      [
        "Ġh",
        "ost"
      ],
      [
        "ma",
        "x"
      ],
      [
        "Ġres",
        "ource"
      ],
      [
        "Ġkey",
        "s"
      ],
      [
        "----------------",
        "----------------"
      ],
      [
        "ample",
        "s"
      ],
      [
        "que",
        "st"
      ],
      [
        "A",
        "T"
      ],
      [
        "b",
        "ound"
      ],
      [
        "d",
        "key"
      ],
      [
        "g",
        "n"
      ],
      [
        "r",
        "un"
      ],
      [
        "s",
        "um"
      ],
      [
        "w",
        "er"
      ],
      [
        "Ġ",
        "j"
      ],
      [
        "Ġ",
        "he"
      ],
      [
        "re",
        "ct"
      ],
      [
        "at",
        "ure"
      ],
      [
        "Ġt",
        "f"
      ],
      [
        "Ġa",
        "dd"
      ],
      [
        "Ġc",
        "reate"
      ],
      [
        "Ġs",
        "o"
      ],
      [
        "mp",
        "ty"
      ],
      [
        "co",
        "de"
      ],
      [
        "ri",
        "de"
      ],
      [
        "ĠT",
        "ypeError"
      ],
      [
        "Ġlo",
        "wer"
      ],
      [
        "th",
        "er"
      ],
      [
        "Ġvalue",
        "s"
      ],
      [
        "ĠĠĠĠĠĠĠĠĠĠĠĠ",
        "ĠĠ"
      ],
      [
        "iti",
        "es"
      ],
      [
        "ss",
        "age"
      ],
      [
        "clu",
        "de"
      ],
      [
        "'",
        "s"
      ],
      [
        ".",
        ","
      ],
      [
        "R",
        "e"
      ],
      [
        "e",
        "m"
      ],
      [
        "n",
        "er"
      ],
      [
        "r",
        "on"
      ],
      [
        "y",
        "s"
      ],
      [
        "Ġ",
        ">"
      ],
      [
        "Ġ",
        "W"
      ],
      [
        "Ġi",
        "ter"
      ],
      [
        "le",
        "d"
      ],
      [
        "Ġs",
        "up"
      ],
      [
        "ra",
        "nd"
      ],
      [
        "lo",
        "ad"
      ],
      [
        "il",
        "ity"
      ],
      [
        "ĠĠĠĠĠĠĠĠĠĠĠĠĠĠĠĠ",
        "ĠĠĠĠĠĠĠĠĠĠĠ"
      ],
      [
        "con",
        "text"
      ],
      [
        "ĠT",
        "his"
      ],
      [
        "ch",
        "ur"
      ],
      [
        "Ġcon",
        "t"
      ],
      [
        "ĠP",
        "arameters"
      ],
      [
        "Ġra",
        "n"
      ],
      [
        "Ġlo",
        "ad"
      ],
      [
        "Ġdi",
        "ct"
      ],
      [
        "Ġde",
        "vice"
      ],
      [
        "pro",
        "b"
      ],
      [
        "Ġ--------",
        "--"
      ],
      [
        "(",
        "*"
      ],
      [
        "F",
        "alse"
      ],
      [
        "O",
        "R"
      ],
      [
        "b",
        "et"
      ],
      [
        "d",
        "is"
      ],
      [
        "d",
        "riven"
      ],
      [
        "e",
        "config"
      ],
      [
        "f",
        "un"
      ],
      [
        "i",
        "peline"
      ],
      [
        "n",
        "ect"
      ],
      [
        "s",
        "cala"
      ],
      [
        "Ġ",
        "valid"
      ],
      [
        "en",
        "ro"
      ],
      [
        "or",
        "m"
      ],
      [
        "Ġre",
        "ad"
      ],
      [
        "Ġp",
        "er"
      ],
      [
        "Ġp",
        "ass"
      ],
      [
        "ct",
        "ed"
      ],
      [
        "def",
        "ault"
      ],
      [
        "Ġe",
        "ach"
      ],
      [
        "Ġd",
        "key"
      ],
      [
        "co",
        "pe"
      ],
      [
        "Ġfor",
        "mat"
      ],
      [
        "ul",
        "l"
      ],
      [
        "an",
        "s"
      ],
      [
        "ver",
        "t"
      ],
      [
        "po",
        "p"
      ],
      [
        "Ġ%",
        "("
      ],
      [
        "res",
        "s"
      ],
      [
        "oo",
        "l"
      ],
      [
        "Ġk",
        "wargs"
      ],
      [
        "Ġr",
        "un"
      ],
      [
        "ĠF",
        "alse"
      ],
      [
        "'",
        "t"
      ],
      [
        "B",
        "am"
      ],
      [
        "I",
        "n"
      ],
      [
        "a",
        "it"
      ],
      [
        "l",
        "ug"
      ],
      [
        "s",
        "ing"
      ],
      [
        "w",
        "e"
      ],
      [
        "in",
        "file"
      ],
      [
        "Ġc",
        "ache"
      ],
      [
        "ar",
        "k"
      ],
      [
        "Ġe",
        "mail"
      ],
      [
        "ri",
        "g"
      ],
      [
        "Ġst",
        "at"
      ],
      [
        "di",
        "ctionary"
      ],
      [
        "Ġra",
        "ndom"
      ],
      [
        "Ġres",
        "p"
      ],
      [
        "ĠS",
        "alt"
      ],
      [
        "per",
        "ation"
      ],
      [
        "Ġun",
        "it"
      ],
      [
        "Ġpo",
        "ints"
      ],
      [
        "colum",
        "ns"
      ],
      [
        "wr",
        "ite"
      ],
      [
        "Ġspecifi",
        "ed"
      ],
      [
        "ĠKey",
        "Error"
      ],
      [
        "enro",
        "ll"
      ],
      [
        "'",
        "):"
      ],
      [
        "Q",
        "D"
      ],
      [
        "S",
        "A"
      ],
      [
        "S",
        "E"
      ],
      [
        "S",
        "I"
      ],
      [
        "T",
        "rue"
      ],
      [
        "]",
        "))"
      ],
      [
        "`",
        "`"
      ],
      [
        "a",
        "c"
      ],
      [
        "b",
        "uild"
      ],
      [
        "b",
        "ute"
      ],
      [
        "e",
        "mail"
      ],
      [
        "f",
        "c"
      ],
      [
        "f",
        "e"
      ],
      [
        "i",
        "od"
      ],
      [
        "j",
        "a"
      ],
      [
        "l",
        "ayer"
      ],
      [
        "s",
        "o"
      ],
      [
        "Ġ",
        "files"
      ],
      [
        "in",
        "ed"
      ],
      [
        "re",
        "e"
      ],
      [
        "er",
        "r"
      ],
      [
        "or",
        "ity"
      ],
      [
        "le",
        "ar"
      ],
      [
        "me",
        "ta"
      ],
      [
        "fi",
        "ci"
      ],
      [
        "it",
        "s"
      ],
      [
        "ut",
        "il"
      ],
      [
        "as",
        "ync"
      ],
      [
        "ri",
        "bute"
      ],
      [
        "ĠĠĠĠĠĠĠĠĠĠĠĠĠĠĠĠ",
        "ĠĠĠĠ"
      ],
      [
        "ul",
        "ts"
      ],
      [
        "ag",
        "s"
      ],
      [
        "Ġcon",
        "tain"
      ],
      [
        "Ġh",
        "a"
      ],
      [
        "Ġh",
        "ass"
      ],
      [
        "di",
        "m"
      ],
      [
        "ĠA",
        "r"
      ],
      [
        "ĠS",
        "chur"
      ],
      [
        "str",
        "uct"
      ],
      [
        "ces",
        "s"
      ],
      [
        "Ġ`",
        "`"
      ],
      [
        "Ġpar",
        "tition"
      ],
      [
        "Ġch",
        "ild"
      ],
      [
        "Ġ!",
        "="
      ],
      [
        "ec",
        "ut"
      ],
      [
        "do",
        "c"
      ],
      [
        "query",
        "set"
      ],
      [
        "Ġran",
        "ge"
      ],
      [
        "bet",
        "a"
      ],
      [
        "iod",
        "ic"
      ],
      [
        "V",
        "i"
      ],
      [
        "[",
        "\""
      ],
      [
        "e",
        "mplate"
      ],
      [
        "i",
        "r"
      ],
      [
        "n",
        "orm"
      ],
      [
        "o",
        "pts"
      ],
      [
        "s",
        "amples"
      ],
      [
        "w",
        "x"
      ],
      [
        "Ġ",
        "Ċ"
      ],
      [
        "Ġ",
        "li"
      ],
      [
        "Ġ",
        "del"
      ],
      [
        "Ġ",
        "error"
      ],
      [
        "in",
        "ja"
      ],
      [
        "at",
        "ab"
      ],
      [
        "it",
        "er"
      ],
      [
        "Ġre",
        "gist"
      ],
      [
        "def",
        "inder"
      ],
      [
        "pe",
        "d"
      ],
      [
        "Ġm",
        "o"
      ],
      [
        "Ġe",
        "xt"
      ],
      [
        "co",
        "urse"
      ],
      [
        "nd",
        "er"
      ],
      [
        "',",
        "'"
      ],
      [
        "ab",
        "ility"
      ],
      [
        "ĠP",
        "ipeline"
      ],
      [
        "ĠP",
        "QD"
      ],
      [
        "Ġse",
        "nsor"
      ],
      [
        "Ġ[",
        "'"
      ],
      [
        "oo",
        "ser"
      ],
      [
        "qu",
        "en"
      ],
      [
        "set",
        "up"
      ],
      [
        "ifi",
        "cate"
      ],
      [
        "ert",
        "ificate"
      ],
      [
        "item",
        "s"
      ],
      [
        "Gener",
        "ator"
      ],
      [
        "ys",
        "on"
      ],
      [
        "Bam",
        "Stats"
      ],
      [
        "Vi",
        "ew"
      ],
      [
        "atab",
        "ase"
      ],
      [
        "ĠPipeline",
        "BamStats"
      ],
      [
        ".",
        "\""
      ],
      [
        "L",
        "o"
      ],
      [
        "L",
        "ink"
      ],
      [
        "M",
        "odel"
      ],
      [
        "]",
        "."
      ],
      [
        "]",
        ":"
      ],
      [
        "c",
        "all"
      ],
      [
        "c",
        "md"
      ],
      [
        "f",
        "ast"
      ],
      [
        "f",
        "low"
      ],
      [
        "g",
        "raph"
      ],
      [
        "i",
        "ve"
      ],
      [
        "m",
        "c"
      ],
      [
        "n",
        "se"
      ],
      [
        "p",
        "ace"
      ],
      [
        "r",
        "int"
      ],
      [
        "t",
        "ra"
      ],
      [
        "v",
        "ate"
      ],
      [
        "Ġ",
        "/"
      ],
      [
        "er",
        "net"
      ],
      [
        "ar",
        "ch"
      ],
      [
        "Ġp",
        "y"
      ],
      [
        "Ġp",
        "arent"
      ],
      [
        "Ġs",
        "alt"
      ],
      [
        "Ġm",
        "apping"
      ],
      [
        "Ġd",
        "is"
      ],
      [
        "Ġfor",
        "m"
      ],
      [
        "pt",
        "im"
      ],
      [
        "di",
        "ct"
      ],
      [
        "ise",
        "nse"
      ],
      [
        "ĠP",
        "od"
      ],
      [
        "']",
        ","
      ],
      [
        "Ġdi",
        "m"
      ],
      [
        "Ġas",
        "sert"
      ],
      [
        "ĠC",
        "on"
      ],
      [
        "iti",
        "al"
      ],
      [
        "ON",
        "F"
      ],
      [
        "Ġcl",
        "ass"
      ],
      [
        "ument",
        "ation"
      ],
      [
        "ernet",
        "es"
      ],
      [
        "0",
        "0"
      ],
      [
        "5",
        "0"
      ],
      [
        "S",
        "et"
      ],
      [
        "[",
        "-"
      ],
      [
        "a",
        "x"
      ],
      [
        "a",
        "ct"
      ],
      [
        "d",
        "s"
      ],
      [
        "e",
        "e"
      ],
      [
        "e",
        "h"
      ],
      [
        "f",
        "y"
      ],
      [
        "h",
        "ot"
      ],
      [
        "n",
        "um"
      ],
      [
        "p",
        "ri"
      ],
      [
        "s",
        "h"
      ],
      [
        "t",
        "c"
      ],
      [
        "v",
        "ail"
      ],
      [
        "w",
        "ait"
      ],
      [
        "Ġ",
        "3"
      ],
      [
        "in",
        "al"
      ],
      [
        "in",
        "ation"
      ],
      [
        "re",
        "turn"
      ],
      [
        "re",
        "port"
      ],
      [
        "re",
        "quest"
      ],
      [
        "st",
        "ination"
      ],
      [
        "en",
        "v"
      ],
      [
        "Ġi",
        "mage"
      ],
      [
        "Ġc",
        "a"
      ],
      [
        "ar",
        "t"
      ],
      [
        "Ġp",
        "key"
      ],
      [
        "ent",
        "ities"
      ],
      [
        "Ġs",
        "u"
      ],
      [
        "Ġs",
        "ing"
      ],
      [
        "Ġm",
        "er"
      ],
      [
        "te",
        "d"
      ],
      [
        "co",
        "ver"
      ],
      [
        "ke",
        "d"
      ],
      [
        "Ġ-",
        ">"
      ],
      [
        "ic",
        "ard"
      ],
      [
        "res",
        "ource"
      ],
      [
        "for",
        "m"
      ],
      [
        "Con",
        "fig"
      ],
      [
        "colum",
        "n"
      ],
      [
        "no",
        "definder"
      ],
      [
        "ens",
        "or"
      ],
      [
        "stat",
        "us"
      ],
      [
        "inter",
        "val"
      ],
      [
        "fun",
        "c"
      ],
      [
        "rig",
        "ht"
      ],
      [
        "Lo",
        "ader"
      ],
      [
        "vail",
        "able"
      ],
      [
        ")",
        "]"
      ],
      [
        ":",
        ":"
      ],
      [
        "=",
        "\""
      ],
      [
        "C",
        "o"
      ],
      [
        "C",
        "ache"
      ],
      [
        "I",
        "mage"
      ],
      [
        "N",
        "ame"
      ],
      [
        "R",
        "a"
      ],
      [
        "a",
        "ults"
      ],
      [
        "b",
        "am"
      ],
      [
        "g",
        "tf"
      ],
      [
        "l",
        "lo"
      ],
      [
        "m",
        "l"
      ],
      [
        "s",
        "parse"
      ],
      [
        "t",
        "ime"
      ],
      [
        "w",
        "ith"
      ],
      [
        "Ġ",
        "4"
      ],
      [
        "Ġ",
        "Z"
      ],
      [
        "Ġ",
        "Get"
      ],
      [
        "Ġ",
        "Ex"
      ],
      [
        "Ġ",
        "variable"
      ],
      [
        "at",
        "ch"
      ],
      [
        "or",
        "g"
      ],
      [
        "--",
        "-"
      ],
      [
        "Ġa",
        "c"
      ],
      [
        "he",
        "llo"
      ],
      [
        "Ġc",
        "an"
      ],
      [
        "Ġo",
        "ther"
      ],
      [
        "Ġs",
        "a"
      ],
      [
        "Ġd",
        "rop"
      ],
      [
        "ĠĠĠĠĠĠĠĠĠĠĠĠĠĠĠĠ",
        "ĠĠĠĠĠĠĠĠĠĠĠĠĠĠĠ"
      ],
      [
        "ma",
        "cro"
      ],
      [
        "Ġl",
        "ast"
      ],
      [
        "ub",
        "lic"
      ],
      [
        "Ġdi",
        "ctionary"
      ],
      [
        "ns",
        "cri"
      ],
      [
        "out",
        "put"
      ],
      [
        "Ġuse",
        "d"
      ],
      [
        "Ġmodel",
        "s"
      ],
      [
        "Ġpre",
        "v"
      ],
      [
        "kub",
        "econfig"
      ],
      [
        "Ġcol",
        "um"
      ],
      [
        "iz",
        "er"
      ],
      [
        "Ġsli",
        "m"
      ],
      [
        "vers",
        "ion"
      ],
      [
        "ĠSalt",
        "Cache"
      ],
      [
        "quen",
        "ce"
      ],
      [
        "ptim",
        "izer"
      ],
      [
        "ĠSaltCache",
        "Loader"
      ],
      [
        "\"",
        "]"
      ],
      [
        "/",
        "/"
      ],
      [
        ":",
        "//"
      ],
      [
        "D",
        "I"
      ],
      [
        "R",
        "E"
      ],
      [
        "S",
        "e"
      ],
      [
        "T",
        "I"
      ],
      [
        "`",
        "."
      ],
      [
        "b",
        "le"
      ],
      [
        "c",
        "urrent"
      ],
      [
        "d",
        "er"
      ],
      [
        "e",
        "mpty"
      ],
      [
        "f",
        "fici"
      ],
      [
        "g",
        "er"
      ],
      [
        "g",
        "th"
      ],
      [
        "l",
        "en"
      ],
      [
        "l",
        "ag"
      ],
      [
        "m",
        "y"
      ],
      [
        "o",
        "u"
      ],
      [
        "v",
        "ed"
      ],
      [
        "w",
        "ork"
      ],
      [
        "Ġ",
        "B"
      ],
      [
        "se",
        "nsor"
      ],
      [
        "re",
        "gist"
      ],
      [
        "Ġt",
        "up"
      ],
      [
        "Ġt",
        "able"
      ],
      [
        "on",
        "s"
      ],
      [
        "Ġa",
        "wait"
      ],
      [
        "al",
        "led"
      ],
      [
        "me",
        "ans"
      ],
      [
        "Ġn",
        "umber"
      ],
      [
        "Ġs",
        "h"
      ],
      [
        "Ġs",
        "ub"
      ],
      [
        "Ġs",
        "ig"
      ],
      [
        "Ġs",
        "cope"
      ],
      [
        "pe",
        "cted"
      ],
      [
        "Ġm",
        "od"
      ],
      [
        "Ġm",
        "ap"
      ],
      [
        "Ġm",
        "ult"
      ],
      [
        "um",
        "ents"
      ],
      [
        "ke",
        "ep"
      ],
      [
        "Ġw",
        "indow"
      ],
      [
        "ri",
        "es"
      ],
      [
        "Ġst",
        "ride"
      ],
      [
        "Ġco",
        "py"
      ],
      [
        "ab",
        "el"
      ],
      [
        "ma",
        "in"
      ],
      [
        "si",
        "gn"
      ],
      [
        "Ġar",
        "gs"
      ],
      [
        "che",
        "me"
      ],
      [
        "out",
        "file"
      ],
      [
        "Ġme",
        "ssage"
      ],
      [
        "ow",
        "n"
      ],
      [
        "Ġarray",
        "s"
      ],
      [
        "ig",
        "h"
      ],
      [
        "Ġdo",
        "es"
      ],
      [
        "Ġcheck",
        "s"
      ],
      [
        "array",
        "s"
      ],
      [
        "Ġmat",
        "rix"
      ],
      [
        "ca",
        "pe"
      ],
      [
        "Ġpri",
        "ority"
      ],
      [
        "Ġcall",
        "back"
      ],
      [
        "util",
        "s"
      ],
      [
        "50",
        "9"
      ],
      [
        "ax",
        "is"
      ],
      [
        "Ġsing",
        "le"
      ],
      [
        "%",
        "("
      ],
      [
        "5",
        "3"
      ],
      [
        "=",
        "{"
      ],
      [
        "C",
        "lient"
      ],
      [
        "C",
        "reate"
      ],
      [
        "E",
        "R"
      ],
      [
        "N",
        "A"
      ],
      [
        "a",
        "eh"
      ],
      [
        "c",
        "r"
      ],
      [
        "c",
        "re"
      ],
      [
        "c",
        "reate"
      ],
      [
        "m",
        "an"
      ],
      [
        "o",
        "us"
      ],
      [
        "t",
        "ing"
      ],
      [
        "Ġ",
        "E"
      ],
      [
        "Ġ",
        "G"
      ],
      [
        "Ġ",
        "le"
      ],
      [
        "Ġt",
        "emplate"
      ],
      [
        "er",
        "ature"
      ],
      [
        "Ġa",
        "vailable"
      ],
      [
        "de",
        "t"
      ],
      [
        "Ġc",
        "ase"
      ],
      [
        "Ġc",
        "urrent"
      ],
      [
        "me",
        "m"
      ],
      [
        "Ġf",
        "c"
      ],
      [
        "Ġo",
        "peration"
      ],
      [
        "Ġs",
        "ame"
      ],
      [
        "mp",
        "erature"
      ],
      [
        "ate",
        "d"
      ],
      [
        "un",
        "ts"
      ],
      [
        "Ġst",
        "ats"
      ],
      [
        "()",
        ","
      ],
      [
        "()",
        "."
      ],
      [
        "con",
        "ci"
      ],
      [
        "Ġg",
        "raph"
      ],
      [
        "Ġco",
        "m"
      ],
      [
        "Ġth",
        "en"
      ],
      [
        "Ġlo",
        "ader"
      ],
      [
        "ĠA",
        "l"
      ],
      [
        "fil",
        "ename"
      ],
      [
        "oo",
        "k"
      ],
      [
        "Ġk",
        "ub"
      ],
      [
        "ho",
        "st"
      ],
      [
        "Ġpar",
        "ameter"
      ],
      [
        "mo",
        "ve"
      ],
      [
        "Ġdo",
        "c"
      ],
      [
        "Ġpro",
        "vi"
      ],
      [
        "Ġalbum",
        "s"
      ],
      [
        "ht",
        "ml"
      ],
      [
        "add",
        "ress"
      ],
      [
        "[:",
        ","
      ],
      [
        "Ġarg",
        "uments"
      ],
      [
        "Ġser",
        "vice"
      ],
      [
        "Ġtime",
        "out"
      ],
      [
        "enroll",
        "ments"
      ],
      [
        "ecut",
        "or"
      ],
      [
        "igh",
        "ts"
      ],
      [
        "aeh",
        "w"
      ],
      [
        ".",
        "],"
      ],
      [
        ".",
        "\")"
      ],
      [
        "C",
        "H"
      ],
      [
        "P",
        "icard"
      ],
      [
        "T",
        "ree"
      ],
      [
        "\\",
        "{"
      ],
      [
        "\\",
        "}"
      ],
      [
        "e",
        "le"
      ],
      [
        "h",
        "isense"
      ],
      [
        "i",
        "mport"
      ],
      [
        "l",
        "d"
      ],
      [
        "s",
        "alt"
      ],
      [
        "v",
        "ent"
      ],
      [
        "w",
        "or"
      ],
      [
        "Ġ",
        "}"
      ],
      [
        "Ġ",
        "root"
      ],
      [
        "Ġ",
        "view"
      ],
      [
        "Ġ",
        "queryset"
      ],
      [
        "in",
        "sert"
      ],
      [
        "Ġt",
        "ext"
      ],
      [
        "on",
        "se"
      ],
      [
        "st",
        "k"
      ],
      [
        "en",
        "u"
      ],
      [
        "le",
        "ction"
      ],
      [
        "Ġc",
        "md"
      ],
      [
        "me",
        "as"
      ],
      [
        "Ġre",
        "port"
      ],
      [
        "Ġp",
        "hot"
      ],
      [
        "Ġf",
        "ast"
      ],
      [
        "Ġf",
        "rame"
      ],
      [
        "Ġo",
        "bj"
      ],
      [
        "ce",
        "ption"
      ],
      [
        "Ġb",
        "et"
      ],
      [
        "lo",
        "at"
      ],
      [
        "co",
        "py"
      ],
      [
        "ri",
        "al"
      ],
      [
        "key",
        "s"
      ],
      [
        "an",
        "g"
      ],
      [
        "Ġ#",
        "--------------------------------"
      ],
      [
        "is",
        "sing"
      ],
      [
        "Ġg",
        "en"
      ],
      [
        "Ġg",
        "ener"
      ],
      [
        "par",
        "t"
      ],
      [
        "vi",
        "ron"
      ],
      [
        "')",
        ")"
      ],
      [
        "Ġcon",
        "struct"
      ],
      [
        "Ġco",
        "unt"
      ],
      [
        "Ġh",
        "oo"
      ],
      [
        "ma",
        "nd"
      ],
      [
        "Ġse",
        "nd"
      ],
      [
        "ĠR",
        "a"
      ],
      [
        "----------------",
        "--------"
      ],
      [
        "ĠC",
        "o"
      ],
      [
        "test",
        "s"
      ],
      [
        "Ġget",
        "attr"
      ],
      [
        "str",
        "ing"
      ],
      [
        "stan",
        "t"
      ],
      [
        "Ġpar",
        "t"
      ],
      [
        "ĠD",
        "SA"
      ],
      [
        "group",
        "s"
      ],
      [
        "read",
        "s"
      ],
      [
        "read",
        "y"
      ],
      [
        "mo",
        "ck"
      ],
      [
        "Ġcl",
        "s"
      ],
      [
        "ken",
        "v"
      ],
      [
        "Ġup",
        "date"
      ],
      [
        "Test",
        "s"
      ],
      [
        "Ġma",
        "x"
      ],
      [
        "====",
        "===="
      ],
      [
        "su",
        "er"
      ],
      [
        "Ġstate",
        "ment"
      ],
      [
        "tt",
        "p"
      ],
      [
        "Ġso",
        "me"
      ],
      [
        "Ġsup",
        "er"
      ],
      [
        "Ġper",
        "iodic"
      ],
      [
        "pri",
        "or"
      ],
      [
        "request",
        "s"
      ],
      [
        "Ġtup",
        "le"
      ],
      [
        "Ġsig",
        "n"
      ],
      [
        "conci",
        "le"
      ],
      [
        "ĠAl",
        "bum"
      ],
      [
        "Ġ#--------------------------------",
        "------------------------"
      ],
      [
        "viron",
        "ment"
      ],
      [
        "Ġhoo",
        "kenv"
      ],
      [
        "(",
        "("
      ],
      [
        ".",
        "*"
      ],
      [
        "=",
        "-"
      ],
      [
        "I",
        "D"
      ],
      [
        "I",
        "L"
      ],
      [
        "b",
        "d"
      ],
      [
        "b",
        "ar"
      ],
      [
        "d",
        "en"
      ],
      [
        "e",
        "ff"
      ],
      [
        "f",
        "rame"
      ],
      [
        "o",
        "k"
      ],
      [
        "p",
        "ack"
      ],
      [
        "r",
        "st"
      ],
      [
        "s",
        "g"
      ],
      [
        "s",
        "li"
      ],
      [
        "u",
        "se"
      ],
      [
        "u",
        "mp"
      ],
      [
        "u",
        "ff"
      ],
      [
        "v",
        "ol"
      ],
      [
        "{",
        "}"
      ],
      [
        "Ġ",
        "5"
      ],
      [
        "Ġ",
        "K"
      ],
      [
        "Ġ",
        "one"
      ],
      [
        "in",
        "dex"
      ],
      [
        "ĠĠĠĠĠĠĠĠ",
        "ĠĠ"
      ],
      [
        "re",
        "l"
      ],
      [
        "st",
        "ats"
      ],
      [
        "en",
        "vironment"
      ],
      [
        "it",
        "le"
      ],
      [
        "Ġre",
        "nder"
      ],
      [
        "Ġthe",
        "y"
      ],
      [
        "Ġo",
        "pts"
      ],
      [
        "ent",
        "ifi"
      ],
      [
        "Ġin",
        "ter"
      ],
      [
        "Ġin",
        "di"
      ],
      [
        "Ġin",
        "stance"
      ],
      [
        "Ġin",
        "itial"
      ],
      [
        "id",
        "den"
      ],
      [
        "ri",
        "p"
      ],
      [
        "ser",
        "vice"
      ],
      [
        "ul",
        "ar"
      ],
      [
        "Ġto",
        "p"
      ],
      [
        "Ġto",
        "ken"
      ],
      [
        "an",
        "not"
      ],
      [
        "Ġ(",
        "'"
      ],
      [
        "con",
        "v"
      ],
      [
        "')",
        ","
      ],
      [
        "value",
        "s"
      ],
      [
        "Ġex",
        "pected"
      ],
      [
        "Ġl",
        "ayer"
      ],
      [
        "ith",
        "m"
      ],
      [
        "Ġ1",
        "0"
      ],
      [
        "Ġor",
        "der"
      ],
      [
        "Ġal",
        "so"
      ],
      [
        "mple",
        "x"
      ],
      [
        "cl",
        "s"
      ],
      [
        "Ġtest",
        "s"
      ],
      [
        "pl",
        "ace"
      ],
      [
        "pre",
        "fix"
      ],
      [
        "Ġout",
        "put"
      ],
      [
        "str",
        "umentation"
      ],
      [
        "py",
        "thon"
      ],
      [
        "Ġid",
        "s"
      ],
      [
        "ĠD",
        "yson"
      ],
      [
        "Ġon",
        "ly"
      ],
      [
        "jo",
        "b"
      ],
      [
        "ĠIn",
        "put"
      ],
      [
        "Ġpo",
        "p"
      ],
      [
        "Ġexist",
        "s"
      ],
      [
        "Ġno",
        "de"
      ],
      [
        "Ġsli",
        "ce"
      ],
      [
        "ip",
        "le"
      ],
      [
        "new",
        "axis"
      ],
      [
        "tt",
        "ribute"
      ],
      [
        "nect",
        "ion"
      ],
      [
        "we",
        "ights"
      ],
      [
        "Ġha",
        "ve"
      ],
      [
        "ĠAr",
        "gs"
      ],
      [
        "Ġli",
        "ke"
      ],
      [
        "ĠPod",
        "Generator"
      ],
      [
        "Ġmult",
        "iple"
      ],
      [
        "mem",
        "ory"
      ],
      [
        "Ġprovi",
        "ded"
      ],
      [
        "\"",
        "{"
      ],
      [
        "D",
        "E"
      ],
      [
        "E",
        "N"
      ],
      [
        "F",
        "rom"
      ],
      [
        "I",
        "N"
      ],
      [
        "I",
        "P"
      ],
      [
        "M",
        "S"
      ],
      [
        "P",
        "ar"
      ],
      [
        "U",
        "T"
      ],
      [
        "a",
        "in"
      ],
      [
        "a",
        "ut"
      ],
      [
        "b",
        "ed"
      ],
      [
        "c",
        "ation"
      ],
      [
        "c",
        "ase"
      ],
      [
        "c",
        "ity"
      ],
      [
        "d",
        "f"
      ],
      [
        "d",
        "ot"
      ],
      [
        "d",
        "type"
      ],
      [
        "f",
        "t"
      ],
      [
        "g",
        "ed"
      ],
      [
        "i",
        "al"
      ],
      [
        "i",
        "fy"
      ],
      [
        "n",
        "el"
      ],
      [
        "o",
        "ot"
      ],
      [
        "p",
        "co"
      ],
      [
        "s",
        "cheme"
      ],
      [
        "u",
        "me"
      ],
      [
        "w",
        "indow"
      ],
      [
        "x",
        "Model"
      ],
      [
        "Ġ",
        "@"
      ],
      [
        "Ġ",
        "z"
      ],
      [
        "Ġ",
        "----"
      ],
      [
        "Ġ",
        "ro"
      ],
      [
        "Ġ",
        ".."
      ],
      [
        "in",
        "ce"
      ],
      [
        "er",
        "nel"
      ],
      [
        "de",
        "stination"
      ],
      [
        "Ġc",
        "alled"
      ],
      [
        "Ġre",
        "al"
      ],
      [
        "Ġp",
        "ort"
      ],
      [
        "Ġp",
        "rint"
      ],
      [
        "Ġs",
        "parse"
      ],
      [
        "Ġs",
        "cala"
      ],
      [
        "Ġs",
        "ize"
      ],
      [
        "Ġ\"\"\"",
        "("
      ],
      [
        "ra",
        "ndom"
      ],
      [
        "Ġm",
        "y"
      ],
      [
        "Ġm",
        "ath"
      ],
      [
        "Ġm",
        "ay"
      ],
      [
        "Ġm",
        "ark"
      ],
      [
        "Ġb",
        "in"
      ],
      [
        "Ġb",
        "mp"
      ],
      [
        "Ġb",
        "am"
      ],
      [
        "Ġd",
        "atabase"
      ],
      [
        "ate",
        "s"
      ],
      [
        "un",
        "ter"
      ],
      [
        "lo",
        "ck"
      ],
      [
        "Ġreturn",
        "s"
      ],
      [
        "ri",
        "ces"
      ],
      [
        "ĠĠĠĠĠĠĠĠĠĠĠĠĠĠĠĠ",
        "ĠĠĠĠĠĠĠĠĠĠĠĠ"
      ],
      [
        "ĠĠĠĠĠĠĠĠĠĠĠĠĠĠĠĠ",
        "ĠĠĠĠĠĠĠĠĠ"
      ],
      [
        "up",
        "lic"
      ],
      [
        "ag",
        "er"
      ],
      [
        "ag",
        "es"
      ],
      [
        "Ġg",
        "roup"
      ],
      [
        "Ġco",
        "mp"
      ],
      [
        "ĠI",
        "t"
      ],
      [
        "ĠI",
        "mport"
      ],
      [
        "Ġres",
        "ample"
      ],
      [
        "ĠA",
        "n"
      ],
      [
        "Ġan",
        "y"
      ],
      [
        "all",
        "y"
      ],
      [
        "ption",
        "al"
      ],
      [
        "ition",
        "al"
      ],
      [
        "ĠC",
        "ONF"
      ],
      [
        "(\"",
        "'"
      ],
      [
        "Ġr",
        "df"
      ],
      [
        "our",
        "ces"
      ],
      [
        "us",
        "h"
      ],
      [
        "py",
        "pco"
      ],
      [
        "Ġat",
        "tr"
      ],
      [
        "ĠO",
        "ptional"
      ],
      [
        "Ġitem",
        "s"
      ],
      [
        "ens",
        "ion"
      ],
      [
        "su",
        "bject"
      ],
      [
        "Ġpri",
        "vate"
      ],
      [
        "Ġnames",
        "pace"
      ],
      [
        "Ġhe",
        "ader"
      ],
      [
        "rect",
        "ory"
      ],
      [
        "dis",
        "k"
      ],
      [
        "Ġread",
        "s"
      ],
      [
        "Ġpy",
        "thon"
      ],
      [
        "nscri",
        "pt"
      ],
      [
        "DI",
        "R"
      ],
      [
        "entifi",
        "er"
      ],
      [
        "ĠImport",
        "Error"
      ],
      [
        "pypco",
        "eff"
      ],
      [
        "\"",
        "):"
      ],
      [
        ".",
        "'''"
      ],
      [
        "B",
        "A"
      ],
      [
        "B",
        "G"
      ],
      [
        "E",
        "L"
      ],
      [
        "E",
        "M"
      ],
      [
        "F",
        "G"
      ],
      [
        "N",
        "O"
      ],
      [
        "O",
        "M"
      ],
      [
        "P",
        "A"
      ],
      [
        "S",
        "tr"
      ],
      [
        "T",
        "M"
      ],
      [
        "T",
        "ext"
      ],
      [
        "U",
        "n"
      ],
      [
        "a",
        "re"
      ],
      [
        "a",
        "ke"
      ],
      [
        "b",
        "it"
      ],
      [
        "c",
        "ur"
      ],
      [
        "c",
        "ertificate"
      ],
      [
        "f",
        "u"
      ],
      [
        "f",
        "ull"
      ],
      [
        "h",
        "ass"
      ],
      [
        "i",
        "o"
      ],
      [
        "l",
        "g"
      ],
      [
        "l",
        "abel"
      ],
      [
        "m",
        "ap"
      ],
      [
        "n",
        "a"
      ],
      [
        "n",
        "umber"
      ],
      [
        "o",
        "se"
      ],
      [
        "o",
        "gen"
      ],
      [
        "o",
        "ffici"
      ],
      [
        "p",
        "or"
      ],
      [
        "p",
        "end"
      ],
      [
        "s",
        "ource"
      ],
      [
        "s",
        "cri"
      ],
      [
        "t",
        "ent"
      ],
      [
        "t",
        "mpl"
      ],
      [
        "w",
        "ise"
      ],
      [
        "Ġ",
        "\\"
      ],
      [
        "Ġ",
        "fi"
      ],
      [
        "Ġ",
        "end"
      ],
      [
        "Ġ",
        "err"
      ],
      [
        "Ġ",
        "right"
      ],
      [
        "se",
        "n"
      ],
      [
        "se",
        "rial"
      ],
      [
        "in",
        "ue"
      ],
      [
        "in",
        "fo"
      ],
      [
        "re",
        "view"
      ],
      [
        "or",
        "rect"
      ],
      [
        "le",
        "an"
      ],
      [
        "me",
        "t"
      ],
      [
        "me",
        "ssage"
      ],
      [
        "ar",
        "get"
      ],
      [
        "ur",
        "l"
      ],
      [
        "Ġp",
        "atch"
      ],
      [
        "Ġin",
        "put"
      ],
      [
        "Ġin",
        "dex"
      ],
      [
        "Ġin",
        "clude"
      ],
      [
        "Ġs",
        "hape"
      ],
      [
        "Ġs",
        "lug"
      ],
      [
        "ra",
        "ct"
      ],
      [
        "mp",
        "ro"
      ],
      [
        "Ġm",
        "ut"
      ],
      [
        "Ġm",
        "an"
      ],
      [
        "Ġm",
        "ask"
      ],
      [
        "Ġe",
        "vent"
      ],
      [
        "Ġb",
        "ut"
      ],
      [
        "ing",
        "s"
      ],
      [
        "um",
        "id"
      ],
      [
        "Ġw",
        "ork"
      ],
      [
        "as",
        "array"
      ],
      [
        "Ġis",
        "suer"
      ],
      [
        "an",
        "ge"
      ],
      [
        "Ġg",
        "it"
      ],
      [
        "ch",
        "ild"
      ],
      [
        "ch",
        "ooser"
      ],
      [
        "am",
        "bd"
      ],
      [
        "Ġu",
        "id"
      ],
      [
        "Ġex",
        "ogen"
      ],
      [
        "es",
        "s"
      ],
      [
        "Ġl",
        "on"
      ],
      [
        "ise",
        "s"
      ],
      [
        "Ġ\"",
        "."
      ],
      [
        "ĠS",
        "ee"
      ],
      [
        "oo",
        "st"
      ],
      [
        "ĠR",
        "e"
      ],
      [
        "pl",
        "ay"
      ],
      [
        "Ġobject",
        "s"
      ],
      [
        "ust",
        "er"
      ],
      [
        "und",
        "er"
      ],
      [
        "ig",
        "inal"
      ],
      [
        "ol",
        "d"
      ],
      [
        "ifi",
        "ed"
      ],
      [
        "Ġat",
        "t"
      ],
      [
        "Ġwh",
        "en"
      ],
      [
        "Con",
        "text"
      ],
      [
        "ĠĠĠĠĠĠĠĠĠĠĠĠĠĠĠĠĠĠĠĠĠĠĠĠĠĠĠĠĠĠĠĠ",
        "ĠĠĠĠĠĠĠĠĠĠĠĠĠĠ"
      ],
      [
        "plit",
        "ter"
      ],
      [
        "Ġsho",
        "w"
      ],
      [
        "Ġma",
        "cro"
      ],
      [
        "iz",
        "ed"
      ],
      [
        "ĠU",
        "R"
      ],
      [
        "ĠU",
        "se"
      ],
      [
        "Ġhas",
        "attr"
      ],
      [
        "RA",
        "N"
      ],
      [
        "Ġj",
        "inja"
      ],
      [
        "Ġcont",
        "inue"
      ],
      [
        "Ġext",
        "end"
      ],
      [
        "sh",
        "ut"
      ],
      [
        "Ġcolum",
        "n"
      ],
      [
        "regist",
        "er"
      ],
      [
        "Tree",
        "View"
      ],
      [
        "vol",
        "ume"
      ],
      [
        "environment",
        "al"
      ],
      [
        "Ġ----",
        "---"
      ],
      [
        "Ġbin",
        "ary"
      ],
      [
        "EM",
        "P"
      ],
      [
        "Str",
        "ing"
      ],
      [
        "offici",
        "al"
      ],
      [
        "umid",
        "ity"
      ],
      [
        "ambd",
        "a"
      ],
      [
        "Ġexogen",
        "ous"
      ],
      [
        "\"",
        ":"
      ],
      [
        ")",
        "["
      ],
      [
        "1",
        "0"
      ],
      [
        "2",
        "4"
      ],
      [
        ":",
        "]"
      ],
      [
        "A",
        "pp"
      ],
      [
        "D",
        "at"
      ],
      [
        "I",
        "C"
      ],
      [
        "L",
        "AT"
      ],
      [
        "M",
        "et"
      ],
      [
        "S",
        "ensor"
      ],
      [
        "T",
        "AT"
      ],
      [
        "]",
        "['"
      ],
      [
        "a",
        "nd"
      ],
      [
        "b",
        "oost"
      ],
      [
        "c",
        "s"
      ],
      [
        "d",
        "atabase"
      ],
      [
        "f",
        "fix"
      ],
      [
        "g",
        "ment"
      ],
      [
        "i",
        "code"
      ],
      [
        "m",
        "in"
      ],
      [
        "p",
        "k"
      ],
      [
        "p",
        "arent"
      ],
      [
        "r",
        "ating"
      ],
      [
        "s",
        "w"
      ],
      [
        "s",
        "ub"
      ],
      [
        "u",
        "al"
      ],
      [
        "u",
        "id"
      ],
      [
        "y",
        "st"
      ],
      [
        "z",
        "y"
      ],
      [
        "z",
        "zy"
      ],
      [
        "Ġ",
        "sel"
      ],
      [
        "re",
        "f"
      ],
      [
        "Ġt",
        "ask"
      ],
      [
        "Ġn",
        "c"
      ],
      [
        "Ġp",
        "si"
      ],
      [
        "Ġp",
        "ool"
      ],
      [
        "Ġf",
        "ound"
      ],
      [
        "Ġf",
        "inder"
      ],
      [
        "Ġf",
        "ull"
      ],
      [
        "Ġo",
        "ptimizer"
      ],
      [
        "et",
        "ime"
      ],
      [
        "Ġin",
        "te"
      ],
      [
        "Ġin",
        "file"
      ],
      [
        "Ġin",
        "strumentation"
      ],
      [
        "Ġs",
        "ample"
      ],
      [
        "ro",
        "l"
      ],
      [
        "li",
        "gn"
      ],
      [
        "ra",
        "p"
      ],
      [
        "ra",
        "gment"
      ],
      [
        "lo",
        "cal"
      ],
      [
        "Ġreturn",
        "ed"
      ],
      [
        "co",
        "v"
      ],
      [
        "Ġw",
        "he"
      ],
      [
        "Ġst",
        "rand"
      ],
      [
        "Ġst",
        "art"
      ],
      [
        "ad",
        "ata"
      ],
      [
        "ect",
        "ion"
      ],
      [
        "ĠN",
        "ame"
      ],
      [
        "Ġth",
        "an"
      ],
      [
        "ta",
        "il"
      ],
      [
        "del",
        "ay"
      ],
      [
        "Ġl",
        "ine"
      ],
      [
        "ĠI",
        "mpro"
      ],
      [
        "Ġ-",
        "="
      ],
      [
        "Ġdi",
        "v"
      ],
      [
        "Ġdi",
        "ff"
      ],
      [
        "mple",
        "te"
      ],
      [
        "mat",
        "rix"
      ],
      [
        "pl",
        "y"
      ],
      [
        "Ġde",
        "comp"
      ],
      [
        "ĠC",
        "reate"
      ],
      [
        "Ġdef",
        "aults"
      ],
      [
        "os",
        "ition"
      ],
      [
        "to",
        "ken"
      ],
      [
        "field",
        "s"
      ],
      [
        "unt",
        "il"
      ],
      [
        "Ġ<",
        "="
      ],
      [
        "ure",
        "d"
      ],
      [
        "ig",
        "ht"
      ],
      [
        "ex",
        "p"
      ],
      [
        "per",
        "ly"
      ],
      [
        "ext",
        "end"
      ],
      [
        "ph",
        "ot"
      ],
      [
        "format",
        "Text"
      ],
      [
        "yn",
        "ta"
      ],
      [
        "Ġpath",
        "s"
      ],
      [
        "kub",
        "ernetes"
      ],
      [
        "fo",
        "re"
      ],
      [
        "ec",
        "ute"
      ],
      [
        "Ġarg",
        "ument"
      ],
      [
        "RA",
        "MS"
      ],
      [
        "Re",
        "ad"
      ],
      [
        "Ġiter",
        "able"
      ],
      [
        "Ġcont",
        "ent"
      ],
      [
        "write",
        "String"
      ],
      [
        "Ġdel",
        "ta"
      ],
      [
        "Ġmo",
        "re"
      ],
      [
        "Ġsalt",
        "env"
      ],
      [
        "ds",
        "TreeView"
      ],
      [
        "Ġmer",
        "ge"
      ],
      [
        "Ġmer",
        "ged"
      ],
      [
        "Config",
        "ured"
      ],
      [
        "Ġvariable",
        "s"
      ],
      [
        "Ġac",
        "count"
      ],
      [
        "Ġsa",
        "fe"
      ],
      [
        "my",
        "q"
      ],
      [
        "NA",
        "ME"
      ],
      [
        "wor",
        "d"
      ],
      [
        "Ġfast",
        "q"
      ],
      [
        "part",
        "ner"
      ],
      [
        "Ġtop",
        "ic"
      ],
      [
        "Ġrdf",
        "value"
      ],
      [
        "Ġnamespace",
        "d"
      ],
      [
        "TM",
        "L"
      ],
      [
        "fu",
        "zzy"
      ],
      [
        "scri",
        "ption"
      ],
      [
        "Ġatt",
        "ribute"
      ],
      [
        "EMP",
        "LAT"
      ],
      [
        "Dat",
        "etime"
      ],
      [
        "Ġpool",
        "ing"
      ],
      [
        "ĠImpro",
        "perly"
      ],
      [
        "EMPLAT",
        "ES"
      ],
      [
        "ĠImproperly",
        "Configured"
      ],
      [
        "\"",
        "."
      ],
      [
        ")",
        "])"
      ],
      [
        "6",
        "4"
      ],
      [
        "=",
        "%("
      ],
      [
        "A",
        "r"
      ],
      [
        "A",
        "dd"
      ],
      [
        "C",
        "ONF"
      ],
      [
        "D",
        "F"
      ],
      [
        "D",
        "riven"
      ],
      [
        "D",
        "yson"
      ],
      [
        "E",
        "ME"
      ],
      [
        "H",
        "el"
      ],
      [
        "P",
        "ro"
      ],
      [
        "R",
        "un"
      ],
      [
        "R",
        "es"
      ],
      [
        "R",
        "oot"
      ],
      [
        "S",
        "T"
      ],
      [
        "S",
        "plitter"
      ],
      [
        "T",
        "o"
      ],
      [
        "T",
        "EMPLATES"
      ],
      [
        "]",
        "*"
      ],
      [
        "_",
        "{"
      ],
      [
        "a",
        "k"
      ],
      [
        "b",
        "e"
      ],
      [
        "b",
        "il"
      ],
      [
        "b",
        "ug"
      ],
      [
        "d",
        "ing"
      ],
      [
        "e",
        "f"
      ],
      [
        "e",
        "ed"
      ],
      [
        "e",
        "mperature"
      ],
      [
        "g",
        "z"
      ],
      [
        "g",
        "at"
      ],
      [
        "g",
        "ory"
      ],
      [
        "h",
        "idden"
      ],
      [
        "i",
        "eld"
      ],
      [
        "i",
        "que"
      ],
      [
        "i",
        "ved"
      ],
      [
        "l",
        "inal"
      ],
      [
        "m",
        "on"
      ],
      [
        "m",
        "apping"
      ],
      [
        "n",
        "ail"
      ],
      [
        "o",
        "id"
      ],
      [
        "o",
        "ul"
      ],
      [
        "o",
        "ck"
      ],
      [
        "o",
        "peration"
      ],
      [
        "p",
        "key"
      ],
      [
        "p",
        "rint"
      ],
      [
        "p",
        "ply"
      ],
      [
        "r",
        "id"
      ],
      [
        "s",
        "ite"
      ],
      [
        "s",
        "cope"
      ],
      [
        "s",
        "lug"
      ],
      [
        "s",
        "cape"
      ],
      [
        "t",
        "ag"
      ],
      [
        "u",
        "sed"
      ],
      [
        "y",
        "p"
      ],
      [
        "y",
        "le"
      ],
      [
        "}",
        "'."
      ],
      [
        "Ġ",
        "en"
      ],
      [
        "se",
        "q"
      ],
      [
        "se",
        "s"
      ],
      [
        "re",
        "nder"
      ],
      [
        "Ġt",
        "s"
      ],
      [
        "Ġt",
        "ags"
      ],
      [
        "Ġt",
        "yp"
      ],
      [
        "st",
        "ep"
      ],
      [
        "Ġa",
        "ut"
      ],
      [
        "Ġi",
        "mp"
      ],
      [
        "de",
        "scription"
      ],
      [
        "Ġc",
        "r"
      ],
      [
        "Ġc",
        "ertificate"
      ],
      [
        "Ġc",
        "orrect"
      ],
      [
        "ar",
        "act"
      ],
      [
        "ar",
        "ithm"
      ],
      [
        "ar",
        "ange"
      ],
      [
        "ur",
        "ation"
      ],
      [
        "Ġre",
        "mo"
      ],
      [
        "Ġre",
        "quest"
      ],
      [
        "Ġp",
        "i"
      ],
      [
        "Ġp",
        "as"
      ],
      [
        "Ġo",
        "ption"
      ],
      [
        "Ġo",
        "ptions"
      ],
      [
        "ce",
        "ptions"
      ],
      [
        "ce",
        "ll"
      ],
      [
        "Ġs",
        "i"
      ],
      [
        "Ġs",
        "w"
      ],
      [
        "Ġ'",
        "%"
      ],
      [
        "li",
        "m"
      ],
      [
        "Ġb",
        "its"
      ],
      [
        "te",
        "s"
      ],
      [
        "Ġd",
        "c"
      ],
      [
        "Ġd",
        "s"
      ],
      [
        "Ġd",
        "ri"
      ],
      [
        "Ġd",
        "lg"
      ],
      [
        "un",
        "it"
      ],
      [
        "co",
        "unter"
      ],
      [
        "id",
        "th"
      ],
      [
        "Ġw",
        "or"
      ],
      [
        "Ġw",
        "an"
      ],
      [
        "ect",
        "l"
      ],
      [
        "con",
        "vert"
      ],
      [
        "Ġu",
        "sing"
      ],
      [
        "Ġh",
        "ttp"
      ],
      [
        "Ġex",
        "on"
      ],
      [
        "es",
        "cape"
      ],
      [
        "Ġl",
        "work"
      ],
      [
        "))",
        ")"
      ],
      [
        "si",
        "ble"
      ],
      [
        "si",
        "stant"
      ],
      [
        "Ġse",
        "quence"
      ],
      [
        "Ġlo",
        "ok"
      ],
      [
        "Ġor",
        "iginal"
      ],
      [
        "ic",
        "s"
      ],
      [
        "ic",
        "ally"
      ],
      [
        "type",
        "s"
      ],
      [
        "res",
        "ult"
      ],
      [
        "']",
        ":"
      ],
      [
        "Ġas",
        "ync"
      ],
      [
        "ĠC",
        "heck"
      ],
      [
        "ho",
        "meas"
      ],
      [
        "unt",
        "u"
      ],
      [
        "ure",
        "ment"
      ],
      [
        "Get",
        "P"
      ],
      [
        "per",
        "iodic"
      ],
      [
        "col",
        "lection"
      ],
      [
        "ĠM",
        "ock"
      ],
      [
        "im",
        "age"
      ],
      [
        "im",
        "View"
      ],
      [
        "state",
        "s"
      ],
      [
        "model",
        "s"
      ],
      [
        "Ġwh",
        "ile"
      ],
      [
        "ĠO",
        "n"
      ],
      [
        "ĠĠĠĠĠĠĠĠĠĠĠĠĠĠĠĠĠĠĠĠĠĠĠĠĠĠĠĠĠĠĠĠ",
        "ĠĠĠĠĠĠĠĠĠĠĠĠĠĠĠĠ"
      ],
      [
        "ĠL",
        "ist"
      ],
      [
        "ĠL",
        "ook"
      ],
      [
        "umb",
        "nail"
      ],
      [
        "Ġlog",
        "arithm"
      ],
      [
        "vari",
        "an"
      ],
      [
        "Return",
        "s"
      ],
      [
        "Ġover",
        "write"
      ],
      [
        "Ġmat",
        "rices"
      ],
      [
        "Ġser",
        "ver"
      ],
      [
        "Ġpos",
        "sible"
      ],
      [
        "File",
        "Client"
      ],
      [
        "Ġhe",
        "re"
      ],
      [
        "Ġsup",
        "port"
      ],
      [
        "(*",
        "*"
      ],
      [
        "we",
        "en"
      ],
      [
        "Ġresp",
        "onse"
      ],
      [
        "enroll",
        "ment"
      ],
      [
        "lear",
        "n"
      ],
      [
        "Ġcontain",
        "s"
      ],
      [
        "Ġcontain",
        "ing"
      ],
      [
        "ĠAr",
        "xModel"
      ],
      [
        "Ġchild",
        "ren"
      ],
      [
        "doc",
        "s"
      ],
      [
        "ir",
        "flow"
      ],
      [
        "Ġerror",
        "s"
      ],
      [
        "ĠCon",
        "vert"
      ],
      [
        "Ġsh",
        "uff"
      ],
      [
        "man",
        "y"
      ],
      [
        "Ġcom",
        "mand"
      ],
      [
        "CH",
        "EME"
      ],
      [
        "ele",
        "ment"
      ],
      [
        "Ġbet",
        "ween"
      ],
      [
        "Ġgen",
        "e"
      ],
      [
        "Ġconstruct",
        "or"
      ],
      [
        "Ġsign",
        "ature"
      ],
      [
        "bar",
        "re"
      ],
      [
        "service",
        "s"
      ],
      [
        "ttribute",
        "Error"
      ],
      [
        "Ġcomp",
        "on"
      ],
      [
        "Ġfi",
        "rst"
      ],
      [
        "met",
        "adata"
      ],
      [
        "yst",
        "em"
      ],
      [
        "Ġinte",
        "ger"
      ],
      [
        "lign",
        "ment"
      ],
      [
        "ynta",
        "x"
      ],
      [
        "linal",
        "g"
      ],
      [
        "aract",
        "er"
      ],
      [
        "homeas",
        "sistant"
      ],
      [
        "ĠMock",
        "FileClient"
      ],
      [
        "(",
        "_"
      ],
      [
        "*",
        ")."
      ],
      [
        ".",
        "]"
      ],
      [
        ".",
        "')"
      ],
      [
        "0",
        "4"
      ],
      [
        "1",
        "2"
      ],
      [
        "A",
        "S"
      ],
      [
        "C",
        "L"
      ],
      [
        "E",
        "D"
      ],
      [
        "F",
        "rame"
      ],
      [
        "G",
        "E"
      ],
      [
        "I",
        "T"
      ],
      [
        "I",
        "ON"
      ],
      [
        "L",
        "en"
      ],
      [
        "M",
        "od"
      ],
      [
        "M",
        "odule"
      ],
      [
        "O",
        "L"
      ],
      [
        "R",
        "DF"
      ],
      [
        "S",
        "H"
      ],
      [
        "S",
        "OR"
      ],
      [
        "T",
        "he"
      ],
      [
        "Y",
        "ou"
      ],
      [
        "\\",
        "("
      ],
      [
        "]",
        "["
      ],
      [
        "a",
        "int"
      ],
      [
        "b",
        "n"
      ],
      [
        "b",
        "r"
      ],
      [
        "b",
        "out"
      ],
      [
        "b",
        "atch"
      ],
      [
        "c",
        "at"
      ],
      [
        "e",
        "ven"
      ],
      [
        "e",
        "red"
      ],
      [
        "f",
        "ter"
      ],
      [
        "f",
        "loat"
      ],
      [
        "g",
        "ain"
      ],
      [
        "i",
        "b"
      ],
      [
        "j",
        "inja"
      ],
      [
        "j",
        "ection"
      ],
      [
        "k",
        "learn"
      ],
      [
        "l",
        "er"
      ],
      [
        "l",
        "ink"
      ],
      [
        "m",
        "ask"
      ],
      [
        "n",
        "t"
      ],
      [
        "n",
        "own"
      ],
      [
        "o",
        "me"
      ],
      [
        "o",
        "ver"
      ],
      [
        "o",
        "pen"
      ],
      [
        "p",
        "ub"
      ],
      [
        "p",
        "ublic"
      ],
      [
        "s",
        "or"
      ],
      [
        "s",
        "with"
      ],
      [
        "s",
        "Root"
      ],
      [
        "s",
        "rid"
      ],
      [
        "t",
        "age"
      ],
      [
        "t",
        "ags"
      ],
      [
        "t",
        "arget"
      ],
      [
        "u",
        "uid"
      ],
      [
        "v",
        "l"
      ],
      [
        "x",
        "shut"
      ],
      [
        "y",
        "ter"
      ],
      [
        "y",
        "thon"
      ],
      [
        "Ġ",
        "."
      ],
      [
        "Ġ",
        "J"
      ],
      [
        "Ġ",
        "ent"
      ],
      [
        "Ġ",
        "query"
      ],
      [
        "in",
        "ing"
      ],
      [
        "in",
        "di"
      ],
      [
        "in",
        "clude"
      ],
      [
        "re",
        "al"
      ],
      [
        "re",
        "place"
      ],
      [
        "at",
        "ter"
      ],
      [
        "at",
        "form"
      ],
      [
        "Ġt",
        "c"
      ],
      [
        "Ġt",
        "w"
      ],
      [
        "st",
        "ent"
      ],
      [
        "st",
        "all"
      ],
      [
        "en",
        "ded"
      ],
      [
        "or",
        "seq"
      ],
      [
        "Ġa",
        "gain"
      ],
      [
        "de",
        "bug"
      ],
      [
        "le",
        "te"
      ],
      [
        "Ġc",
        "lear"
      ],
      [
        "ar",
        "n"
      ],
      [
        "it",
        "t"
      ],
      [
        "Ġre",
        "concile"
      ],
      [
        "Ġn",
        "on"
      ],
      [
        "Ġp",
        "l"
      ],
      [
        "Ġf",
        "ol"
      ],
      [
        "Ġf",
        "loat"
      ],
      [
        "Ġin",
        "sert"
      ],
      [
        "ro",
        "und"
      ],
      [
        "def",
        "ined"
      ],
      [
        "pe",
        "ct"
      ],
      [
        "Ġm",
        "issing"
      ],
      [
        "Ġm",
        "sg"
      ],
      [
        "Ġe",
        "le"
      ],
      [
        "Ġe",
        "mpty"
      ],
      [
        "te",
        "mperature"
      ],
      [
        "Ġd",
        "ag"
      ],
      [
        "lo",
        "ader"
      ],
      [
        "ot",
        "h"
      ],
      [
        "il",
        "ter"
      ],
      [
        "ut",
        "put"
      ],
      [
        "nd",
        "ler"
      ],
      [
        "Ġst",
        "yle"
      ],
      [
        "pt",
        "o"
      ],
      [
        "val",
        "u"
      ],
      [
        "up",
        "Error"
      ],
      [
        "up",
        "date"
      ],
      [
        "up",
        "yter"
      ],
      [
        "Ġ(",
        "*"
      ],
      [
        "is",
        "ion"
      ],
      [
        "ĠN",
        "o"
      ],
      [
        "')",
        "["
      ],
      [
        "')",
        "[-"
      ],
      [
        "Ġco",
        "mplex"
      ],
      [
        "el",
        "l"
      ],
      [
        "di",
        "ff"
      ],
      [
        "ry",
        "pto"
      ],
      [
        "si",
        "mple"
      ],
      [
        "si",
        "stent"
      ],
      [
        "Ġres",
        "ources"
      ],
      [
        "ĠA",
        "N"
      ],
      [
        "ĠA",
        "pp"
      ],
      [
        "ĠA",
        "ttributeError"
      ],
      [
        "Ġar",
        "ch"
      ],
      [
        "ic",
        "ro"
      ],
      [
        "ĠS",
        "et"
      ],
      [
        "che",
        "s"
      ],
      [
        "oo",
        "m"
      ],
      [
        "qu",
        "i"
      ],
      [
        "end",
        "swith"
      ],
      [
        "Ġdi",
        "rectory"
      ],
      [
        "mple",
        "ment"
      ],
      [
        "pre",
        "v"
      ],
      [
        "pre",
        "pend"
      ],
      [
        "Ġde",
        "term"
      ],
      [
        "Ġde",
        "stination"
      ],
      [
        "Ġdef",
        "ined"
      ],
      [
        "cept",
        "s"
      ],
      [
        "Ġ{",
        "'"
      ],
      [
        "om",
        "ic"
      ],
      [
        "ex",
        "ist"
      ],
      [
        "ex",
        "ecutor"
      ],
      [
        "Ġy",
        "ou"
      ],
      [
        "Ġy",
        "ield"
      ],
      [
        "Ġuse",
        "s"
      ],
      [
        "im",
        "um"
      ],
      [
        "iti",
        "ve"
      ],
      [
        "Ġpro",
        "b"
      ],
      [
        "ĠO",
        "pen"
      ],
      [
        "ĠO",
        "utput"
      ],
      [
        "Ġpre",
        "di"
      ],
      [
        "Ġpre",
        "fix"
      ],
      [
        "low",
        "ing"
      ],
      [
        "ME",
        "N"
      ],
      [
        "Ġch",
        "ooser"
      ],
      [
        "Ġcl",
        "uster"
      ],
      [
        "ĠIn",
        "dex"
      ],
      [
        "kub",
        "ectl"
      ],
      [
        "Ex",
        "ception"
      ],
      [
        "Ġtra",
        "ined"
      ],
      [
        "Ġmat",
        "ch"
      ],
      [
        "fo",
        "pen"
      ],
      [
        "variable",
        "s"
      ],
      [
        "check",
        "s"
      ],
      [
        "stat",
        "ic"
      ],
      [
        "Ġcall",
        "able"
      ],
      [
        "RA",
        "ME"
      ],
      [
        "inter",
        "cept"
      ],
      [
        "com",
        "b"
      ],
      [
        "Ġj",
        "ust"
      ],
      [
        "ĠW",
        "e"
      ],
      [
        "Ġvalid",
        "ation"
      ],
      [
        "Ġstat",
        "ic"
      ],
      [
        "Ġfiles",
        "ystem"
      ],
      [
        "Ġregist",
        "r"
      ],
      [
        "Ġregist",
        "ry"
      ],
      [
        "call",
        "back"
      ],
      [
        "fast",
        "q"
      ],
      [
        "mc",
        "u"
      ],
      [
        "mc",
        "ache"
      ],
      [
        "arch",
        "path"
      ],
      [
        "act",
        "ory"
      ],
      [
        "Ġsu",
        "bject"
      ],
      [
        "cover",
        "y"
      ],
      [
        "Ġother",
        "wise"
      ],
      [
        "Ġcolum",
        "ns"
      ],
      [
        "Se",
        "q"
      ],
      [
        "ĠB",
        "y"
      ],
      [
        "main",
        "Splitter"
      ],
      [
        "Ġle",
        "ft"
      ],
      [
        "Ġkub",
        "econfig"
      ],
      [
        "\\{",
        "%"
      ],
      [
        "Ġphot",
        "o"
      ],
      [
        "Ġphot",
        "os"
      ],
      [
        "ĠCo",
        "mp"
      ],
      [
        "sli",
        "ces"
      ],
      [
        "ump",
        "y"
      ],
      [
        "Ġinitial",
        "ized"
      ],
      [
        "Par",
        "ameter"
      ],
      [
        "aut",
        "h"
      ],
      [
        "Ġmy",
        "q"
      ],
      [
        "bit",
        "map"
      ],
      [
        "Ġman",
        "ager"
      ],
      [
        "ĠUR",
        "I"
      ],
      [
        "App",
        "end"
      ],
      [
        "Ġsel",
        "ect"
      ],
      [
        "rap",
        "ped"
      ],
      [
        "Ġwhe",
        "re"
      ],
      [
        "Ġdecomp",
        "osition"
      ],
      [
        "phot",
        "o"
      ],
      [
        "Hel",
        "lo"
      ],
      [
        "Ġwor",
        "ld"
      ],
      [
        "ĠLook",
        "upError"
      ],
      [
        "Len",
        "gth"
      ],
      [
        "indi",
        "ces"
      ],
      [
        "ĠIndex",
        "Error"
      ],
      [
        "'",
        "re"
      ],
      [
        ")",
        "):"
      ],
      [
        "*",
        "*"
      ],
      [
        ",",
        ")"
      ],
      [
        ",",
        "))"
      ],
      [
        ".",
        "'."
      ],
      [
        "A",
        "N"
      ],
      [
        "A",
        "P"
      ],
      [
        "A",
        "IN"
      ],
      [
        "A",
        "RAMS"
      ],
      [
        "B",
        "ind"
      ],
      [
        "C",
        "R"
      ],
      [
        "C",
        "h"
      ],
      [
        "C",
        "lear"
      ],
      [
        "C",
        "annot"
      ],
      [
        "D",
        "ata"
      ],
      [
        "D",
        "uplic"
      ],
      [
        "E",
        "V"
      ],
      [
        "F",
        "RAME"
      ],
      [
        "H",
        "ey"
      ],
      [
        "I",
        "G"
      ],
      [
        "L",
        "T"
      ],
      [
        "L",
        "e"
      ],
      [
        "N",
        "ot"
      ],
      [
        "O",
        "U"
      ],
      [
        "O",
        "n"
      ],
      [
        "P",
        "ath"
      ],
      [
        "S",
        "te"
      ],
      [
        "S",
        "pec"
      ],
      [
        "S",
        "ize"
      ],
      [
        "S",
        "CHEME"
      ],
      [
        "T",
        "ype"
      ],
      [
        "U",
        "LT"
      ],
      [
        "V",
        "ER"
      ],
      [
        "]",
        "):"
      ],
      [
        "a",
        "v"
      ],
      [
        "a",
        "ile"
      ],
      [
        "b",
        "y"
      ],
      [
        "b",
        "lock"
      ],
      [
        "c",
        "ked"
      ],
      [
        "d",
        "ability"
      ],
      [
        "d",
        "cmd"
      ],
      [
        "e",
        "quence"
      ],
      [
        "f",
        "in"
      ],
      [
        "f",
        "er"
      ],
      [
        "g",
        "ener"
      ],
      [
        "g",
        "round"
      ],
      [
        "i",
        "f"
      ],
      [
        "i",
        "x"
      ],
      [
        "j",
        "u"
      ],
      [
        "k",
        "ernel"
      ],
      [
        "l",
        "ass"
      ],
      [
        "m",
        "er"
      ],
      [
        "m",
        "ar"
      ],
      [
        "m",
        "od"
      ],
      [
        "m",
        "ark"
      ],
      [
        "m",
        "time"
      ],
      [
        "n",
        "n"
      ],
      [
        "o",
        "f"
      ],
      [
        "o",
        "g"
      ],
      [
        "o",
        "p"
      ],
      [
        "p",
        "lo"
      ],
      [
        "p",
        "ush"
      ],
      [
        "p",
        "Length"
      ],
      [
        "s",
        "a"
      ],
      [
        "s",
        "up"
      ],
      [
        "s",
        "ort"
      ],
      [
        "t",
        "ill"
      ],
      [
        "t",
        "ensor"
      ],
      [
        "t",
        "itle"
      ],
      [
        "v",
        "ision"
      ],
      [
        "w",
        "P"
      ],
      [
        "w",
        "w"
      ],
      [
        "z",
        "ip"
      ],
      [
        "}",
        ")"
      ],
      [
        "}",
        ","
      ],
      [
        "Ġ",
        "qu"
      ],
      [
        "Ġ",
        "version"
      ],
      [
        "Ġ",
        "keep"
      ],
      [
        "Ġ",
        "job"
      ],
      [
        "Ġ",
        "under"
      ],
      [
        "Ġ",
        "64"
      ],
      [
        "Ġ",
        "You"
      ],
      [
        "se",
        "nd"
      ],
      [
        "re",
        "et"
      ],
      [
        "re",
        "ver"
      ],
      [
        "re",
        "ci"
      ],
      [
        "re",
        "concile"
      ],
      [
        "re",
        "ak"
      ],
      [
        "Ġt",
        "er"
      ],
      [
        "Ġt",
        "mpl"
      ],
      [
        "Ġt",
        "itle"
      ],
      [
        "on",
        "si"
      ],
      [
        "st",
        "er"
      ],
      [
        "st",
        "ar"
      ],
      [
        "st",
        "ri"
      ],
      [
        "st",
        "ack"
      ],
      [
        "st",
        "art"
      ],
      [
        "Ġa",
        "pply"
      ],
      [
        "Ġa",
        "lignment"
      ],
      [
        "Ġi",
        "ts"
      ],
      [
        "de",
        "ep"
      ],
      [
        "de",
        "red"
      ],
      [
        "de",
        "plo"
      ],
      [
        "le",
        "ct"
      ],
      [
        "le",
        "vel"
      ],
      [
        "al",
        "k"
      ],
      [
        "Ġc",
        "lo"
      ],
      [
        "Ġc",
        "ert"
      ],
      [
        "Ġc",
        "gat"
      ],
      [
        "Ġc",
        "ell"
      ],
      [
        "it",
        "ch"
      ],
      [
        "ur",
        "ing"
      ],
      [
        "Ġre",
        "g"
      ],
      [
        "Ġre",
        "ce"
      ],
      [
        "Ġre",
        "pre"
      ],
      [
        "Ġre",
        "place"
      ],
      [
        "Ġre",
        "qui"
      ],
      [
        "Ġn",
        "umpy"
      ],
      [
        "Ġf",
        "ragment"
      ],
      [
        "Ġf",
        "aile"
      ],
      [
        "Ġin",
        "ven"
      ],
      [
        "Ġs",
        "qu"
      ],
      [
        "Ġs",
        "ci"
      ],
      [
        "Ġs",
        "ca"
      ],
      [
        "Ġs",
        "ince"
      ],
      [
        "Ġ'",
        "--"
      ],
      [
        "ra",
        "oul"
      ],
      [
        "mp",
        "y"
      ],
      [
        "Ġm",
        "enu"
      ],
      [
        "Ġm",
        "icro"
      ],
      [
        "Ġe",
        "scape"
      ],
      [
        "Ġb",
        "oo"
      ],
      [
        "Ġb",
        "ack"
      ],
      [
        "Ġb",
        "ound"
      ],
      [
        "Ġb",
        "reak"
      ],
      [
        "te",
        "mp"
      ],
      [
        "te",
        "Ste"
      ],
      [
        "Ġd",
        "ot"
      ],
      [
        "Ġd",
        "uplic"
      ],
      [
        "co",
        "mplete"
      ],
      [
        "co",
        "ding"
      ],
      [
        "id",
        "entifier"
      ],
      [
        "Ġw",
        "ron"
      ],
      [
        "Ġw",
        "rapped"
      ],
      [
        "as",
        "ses"
      ],
      [
        "ri",
        "cs"
      ],
      [
        "Ġis",
        "sub"
      ],
      [
        "ĠĠĠĠĠĠĠĠĠĠĠĠĠĠĠĠ",
        "ĠĠĠĠĠ"
      ],
      [
        "ĠĠĠĠĠĠĠĠĠĠĠĠĠĠĠĠ",
        "ĠĠĠĠĠĠĠĠĠĠ"
      ],
      [
        "Ġst",
        "ep"
      ],
      [
        "Ġof",
        "fici"
      ],
      [
        "()",
        ".__"
      ],
      [
        "ap",
        "ability"
      ],
      [
        "con",
        "nection"
      ],
      [
        "')",
        "."
      ],
      [
        "Ġcon",
        "nect"
      ],
      [
        "Ġcon",
        "nection"
      ],
      [
        "Ġco",
        "ver"
      ],
      [
        "Ġco",
        "unts"
      ],
      [
        "ver",
        "y"
      ],
      [
        "value",
        "d"
      ],
      [
        "ab",
        "s"
      ],
      [
        "Ġex",
        "clude"
      ],
      [
        "ma",
        "ster"
      ],
      [
        "Ġl",
        "abel"
      ],
      [
        "Ġl",
        "ambda"
      ],
      [
        "ĠI",
        "N"
      ],
      [
        "ĠP",
        "ro"
      ],
      [
        "ĠP",
        "ath"
      ],
      [
        "ĠP",
        "ARAMS"
      ],
      [
        "Ġse",
        "ss"
      ],
      [
        "Ġse",
        "ries"
      ],
      [
        "ith",
        "er"
      ],
      [
        "th",
        "ing"
      ],
      [
        "Ġor",
        "dered"
      ],
      [
        "Ġbe",
        "ca"
      ],
      [
        "ub",
        "ernetes"
      ],
      [
        "ub",
        "untu"
      ],
      [
        "Ġ\"",
        "'"
      ],
      [
        "ic",
        "al"
      ],
      [
        "ĠS",
        "equence"
      ],
      [
        "Ġal",
        "ready"
      ],
      [
        "']",
        ")"
      ],
      [
        "Ġdi",
        "g"
      ],
      [
        "Ġdi",
        "r"
      ],
      [
        "app",
        "s"
      ],
      [
        "app",
        "ly"
      ],
      [
        "Ġwith",
        "out"
      ],
      [
        "all",
        "back"
      ],
      [
        "param",
        "s"
      ],
      [
        "pl",
        "atform"
      ],
      [
        "Ġk",
        "ernel"
      ],
      [
        "ho",
        "w"
      ],
      [
        "Ġme",
        "ans"
      ],
      [
        "Ġme",
        "mcache"
      ],
      [
        "album",
        "s"
      ],
      [
        "\")",
        "."
      ],
      [
        "Get",
        "A"
      ],
      [
        "Get",
        "Ra"
      ],
      [
        "ex",
        "it"
      ],
      [
        "ex",
        "ceptions"
      ],
      [
        "ol",
        "tage"
      ],
      [
        "Ġnew",
        "path"
      ],
      [
        "ĠF",
        "or"
      ],
      [
        "ĠF",
        "rame"
      ],
      [
        "ON",
        "S"
      ],
      [
        "object",
        "s"
      ],
      [
        "valid",
        "ate"
      ],
      [
        "ifi",
        "cation"
      ],
      [
        "Con",
        "tainer"
      ],
      [
        "Ġpro",
        "g"
      ],
      [
        "lic",
        "ation"
      ],
      [
        "not",
        "ation"
      ],
      [
        "Ġpre",
        "c"
      ],
      [
        "peci",
        "fi"
      ],
      [
        "low",
        "er"
      ],
      [
        "no",
        "de"
      ],
      [
        "dir",
        "name"
      ],
      [
        "error",
        "s"
      ],
      [
        "Ġover",
        "wr"
      ],
      [
        "Ġtra",
        "ck"
      ],
      [
        "([",
        "-"
      ],
      [
        "([",
        "["
      ],
      [
        "su",
        "ffix"
      ],
      [
        "nu",
        "mpy"
      ],
      [
        "cate",
        "gory"
      ],
      [
        "Pod",
        "Spec"
      ],
      [
        "ĠH",
        "ttp"
      ],
      [
        "ĠH",
        "TML"
      ],
      [
        "em",
        "bed"
      ],
      [
        "rand",
        "func"
      ],
      [
        "dis",
        "play"
      ],
      [
        "Ġstat",
        "us"
      ],
      [
        "Ġresp",
        "onsi"
      ],
      [
        "ac",
        "count"
      ],
      [
        "ac",
        "cess"
      ],
      [
        "ecut",
        "ion"
      ],
      [
        "doc",
        "ument"
      ],
      [
        "Ġli",
        "br"
      ],
      [
        "iter",
        "items"
      ],
      [
        "form",
        "ation"
      ],
      [
        "Co",
        "mp"
      ],
      [
        "ublic",
        "Key"
      ],
      [
        "nscri",
        "pts"
      ],
      [
        "cre",
        "teSte"
      ],
      [
        "Ġcase",
        "s"
      ],
      [
        "Ġdoc",
        "ument"
      ],
      [
        "salt",
        "env"
      ],
      [
        "meas",
        "urement"
      ],
      [
        "Ġgener",
        "ate"
      ],
      [
        "ĠRa",
        "ndom"
      ],
      [
        "ĠRa",
        "ises"
      ],
      [
        "pack",
        "s"
      ],
      [
        "sli",
        "ce"
      ],
      [
        "rel",
        "u"
      ],
      [
        "Ġ..",
        "."
      ],
      [
        "Ġresample",
        "d"
      ],
      [
        "Ġattr",
        "name"
      ],
      [
        "full",
        "path"
      ],
      [
        "Ġlon",
        "g"
      ],
      [
        "ĠRe",
        "move"
      ],
      [
        "RAN",
        "GE"
      ],
      [
        "Met",
        "rics"
      ],
      [
        "Ġdiff",
        "e"
      ],
      [
        "Read",
        "s"
      ],
      [
        "Ġfastq",
        "file"
      ],
      [
        "Run",
        "ner"
      ],
      [
        "be",
        "fore"
      ],
      [
        "bil",
        "ities"
      ],
      [
        "Ġaut",
        "o"
      ],
      [
        "Ġpi",
        "ck"
      ],
      [
        "Ġpas",
        "sed"
      ],
      [
        "itt",
        "en"
      ],
      [
        "Ġfol",
        "lowing"
      ],
      [
        "ĠAN",
        "SI"
      ],
      [
        "Ġdeterm",
        "ine"
      ],
      [
        "exist",
        "s"
      ],
      [
        "comb",
        "ine"
      ],
      [
        "Seq",
        "Metrics"
      ],
      [
        "auth",
        "ority"
      ],
      [
        "EV",
        "T"
      ],
      [
        "Le",
        "vel"
      ],
      [
        "dcmd",
        "sRoot"
      ],
      [
        "mer",
        "ge"
      ],
      [
        "deep",
        "copy"
      ],
      [
        "deplo",
        "y"
      ],
      [
        "Ġrepre",
        "sen"
      ],
      [
        "Ġfaile",
        "d"
      ],
      [
        "Ġinven",
        "io"
      ],
      [
        "Ġboo",
        "lean"
      ],
      [
        "Ġwron",
        "g"
      ],
      [
        "Ġissub",
        "class"
      ],
      [
        "Ġoffici",
        "al"
      ],
      [
        "Ġbeca",
        "use"
      ],
      [
        "GetRa",
        "wP"
      ],
      [
        "Ġoverwr",
        "itten"
      ],
      [
        "Ġresponsi",
        "bilities"
      ],
      [
        "Ġlibr",
        "ary"
      ],
      [
        "creteSte",
        "pLength"
      ],
      [
        "\"",
        "])"
      ],
      [
        "%",
        "%"
      ],
      [
        "(",
        "-"
      ],
      [
        "(",
        "__"
      ],
      [
        "*",
        "("
      ],
      [
        ".",
        "'"
      ],
      [
        "2",
        "5"
      ],
      [
        "3",
        "2"
      ],
      [
        "4",
        "04"
      ],
      [
        ":",
        "-"
      ],
      [
        ">",
        "'"
      ],
      [
        "A",
        "B"
      ],
      [
        "A",
        "D"
      ],
      [
        "A",
        "L"
      ],
      [
        "A",
        "R"
      ],
      [
        "A",
        "s"
      ],
      [
        "A",
        "ttribute"
      ],
      [
        "B",
        "r"
      ],
      [
        "B",
        "uild"
      ],
      [
        "C",
        "E"
      ],
      [
        "C",
        "K"
      ],
      [
        "C",
        "ol"
      ],
      [
        "C",
        "ert"
      ],
      [
        "C",
        "OM"
      ],
      [
        "C",
        "lass"
      ],
      [
        "D",
        "Y"
      ],
      [
        "D",
        "ele"
      ],
      [
        "D",
        "OM"
      ],
      [
        "D",
        "ef"
      ],
      [
        "D",
        "uration"
      ],
      [
        "E",
        "ra"
      ],
      [
        "F",
        "A"
      ],
      [
        "F",
        "I"
      ],
      [
        "F",
        "ilter"
      ],
      [
        "G",
        "B"
      ],
      [
        "H",
        "i"
      ],
      [
        "I",
        "d"
      ],
      [
        "L",
        "O"
      ],
      [
        "L",
        "ayer"
      ],
      [
        "L",
        "IP"
      ],
      [
        "M",
        "M"
      ],
      [
        "M",
        "issing"
      ],
      [
        "M",
        "ain"
      ],
      [
        "N",
        "K"
      ],
      [
        "N",
        "o"
      ],
      [
        "N",
        "ow"
      ],
      [
        "O",
        "P"
      ],
      [
        "O",
        "pen"
      ],
      [
        "O",
        "ID"
      ],
      [
        "P",
        "IL"
      ],
      [
        "P",
        "aint"
      ],
      [
        "Q",
        "ual"
      ],
      [
        "R",
        "end"
      ],
      [
        "R",
        "na"
      ],
      [
        "S",
        "ON"
      ],
      [
        "S",
        "CR"
      ],
      [
        "S",
        "pecifi"
      ],
      [
        "T",
        "R"
      ],
      [
        "T",
        "h"
      ],
      [
        "T",
        "ra"
      ],
      [
        "T",
        "his"
      ],
      [
        "V",
        "IC"
      ],
      [
        "W",
        "indow"
      ],
      [
        "\\",
        "\\"
      ],
      [
        "a",
        "us"
      ],
      [
        "a",
        "ded"
      ],
      [
        "b",
        "al"
      ],
      [
        "b",
        "lo"
      ],
      [
        "b",
        "ert"
      ],
      [
        "c",
        "ar"
      ],
      [
        "c",
        "lo"
      ],
      [
        "c",
        "ast"
      ],
      [
        "c",
        "ating"
      ],
      [
        "d",
        "b"
      ],
      [
        "d",
        "one"
      ],
      [
        "d",
        "rop"
      ],
      [
        "d",
        "own"
      ],
      [
        "e",
        "es"
      ],
      [
        "f",
        "g"
      ],
      [
        "f",
        "ul"
      ],
      [
        "f",
        "oo"
      ],
      [
        "f",
        "ind"
      ],
      [
        "g",
        "or"
      ],
      [
        "g",
        "le"
      ],
      [
        "g",
        "pi"
      ],
      [
        "h",
        "umidity"
      ],
      [
        "h",
        "ref"
      ],
      [
        "i",
        "ct"
      ],
      [
        "k",
        "Context"
      ],
      [
        "l",
        "v"
      ],
      [
        "l",
        "ambda"
      ],
      [
        "m",
        "s"
      ],
      [
        "m",
        "ro"
      ],
      [
        "m",
        "enu"
      ],
      [
        "m",
        "sg"
      ],
      [
        "n",
        "g"
      ],
      [
        "n",
        "ing"
      ],
      [
        "o",
        "ff"
      ],
      [
        "o",
        "ptimizer"
      ],
      [
        "p",
        "s"
      ],
      [
        "p",
        "si"
      ],
      [
        "p",
        "ac"
      ],
      [
        "p",
        "onse"
      ],
      [
        "q",
        "c"
      ],
      [
        "r",
        "at"
      ],
      [
        "r",
        "al"
      ],
      [
        "s",
        "c"
      ],
      [
        "s",
        "ion"
      ],
      [
        "s",
        "ue"
      ],
      [
        "s",
        "cal"
      ],
      [
        "s",
        "ink"
      ],
      [
        "s",
        "pect"
      ],
      [
        "t",
        "ask"
      ],
      [
        "t",
        "ool"
      ],
      [
        "t",
        "ree"
      ],
      [
        "t",
        "rol"
      ],
      [
        "w",
        "idth"
      ],
      [
        "|",
        "."
      ],
      [
        "Ġ",
        "q"
      ],
      [
        "Ġ",
        "\"\""
      ],
      [
        "Ġ",
        "ve"
      ],
      [
        "Ġ",
        "url"
      ],
      [
        "Ġ",
        "until"
      ],
      [
        "Ġ",
        "enrollment"
      ],
      [
        "in",
        "put"
[...]
