{
  "version": "1.0",
  "truncation": null,
  "padding": null,
  "added_tokens": [
    {
      "id": 0,
      "content": "[PAD]",
      "single_word": false,
      "lstrip": false,
      "rstrip": false,
      "normalized": false,
      "special": true
    },
    {
      "id": 1,
      "content": "[MASK]",
      "single_word": false,
      "lstrip": false,
      "rstrip": false,
      "normalized": false,
      "special": true
    },
    {
      "id": 2,
      "content": "[BOS]",
      "single_word": false,
      "lstrip": false,
      "rstrip": false,
      "normalized": false,
      "special": true
    },
    {
      "id": 3,
      "content": "[EOS]",
      "single_word": false,
      "lstrip": false,
      "rstrip": false,
      "normalized": false,
      "special": true
    },
    {
      "id": 4,
      "content": "[UNK]",
      "single_word": false,
      "lstrip": false,
      "rstrip": false,
      "normalized": false,
      "special": true
    }
  ],
  "normalizer": null,
  "pre_tokenizer": {
    "type": "ByteLevel",
    "add_prefix_space": false,
    "trim_offsets": true,
    "use_regex": true
  },
  "post_processor": {
    "type": "ByteLevel",
    "add_prefix_space": true,
    "trim_offsets": false,
    "use_regex": true
  },
  "decoder": {
    "type": "ByteLevel",
    "add_prefix_space": true,
    "trim_offsets": true,
    "use_regex": true
  },
  "model": {
    "type": "BPE",
    "dropout": null,
    "unk_token": "[UNK]",
    "continuing_subword_prefix": null,
    "end_of_word_suffix": null,
    "fuse_unk": false,
    "byte_fallback": false,
    "ignore_merges": false,
    "vocab": {
      "[PAD]": 0,
      "[MASK]": 1,
      "[BOS]": 2,
      "[EOS]": 3,
      "[UNK]": 4,
      "!": 5,
      "\"": 6,
      "#": 7,
      "$": 8,
      "%": 9,
      "&": 10,
      "'": 11,
      "(": 12,
      ")": 13,
      "*": 14,
      "+": 15,
      ",": 16,
      "-": 17,
      ".": 18,
      "/": 19,
      "0": 20,
      "1": 21,
      "2": 22,
      "3": 23,
      "4": 24,
      "5": 25,
      "6": 26,
      "7": 27,
      "8": 28,
      "9": 29,
      ":": 30,
      ";": 31,
      "<": 32,
      "=": 33,
      ">": 34,
      "?": 35,
      "@": 36,
      "A": 37,
      "B": 38,
      "C": 39,
      "D": 40,
      "E": 41,
      "F": 42,
      "G": 43,
      "H": 44,
      "I": 45,
      "J": 46,
      "K": 47,
      "L": 48,
      "M": 49,
      "N": 50,
      "O": 51,
      "P": 52,
      "Q": 53,
      "R": 54,
      "S": 55,
      "T": 56,
      "U": 57,
      "V": 58,
      "W": 59,
      "X": 60,
      "Y": 61,
      "Z": 62,
      "[": 63,
      "\\": 64,
      "]": 65,
      "^": 66,
      "_": 67,
      "`": 68,
      "a": 69,
      "b": 70,
      "c": 71,
      "d": 72,
      "e": 73,
      "f": 74,
      "g": 75,
      "h": 76,
      "i": 77,
      "j": 78,
      "k": 79,
      "l": 80,
      "m": 81,
      "n": 82,
      "o": 83,
      "p": 84,
      "q": 85,
      "r": 86,
      "s": 87,
      "t": 88,
      "u": 89,
      "v": 90,
      "w": 91,
      "x": 92,
      "y": 93,
      "z": 94,
      "{": 95,
      "|": 96,
      "}": 97,
      "~": 98,
      "¡": 99,
      "¢": 100,
      "£": 101,
      "¤": 102,
      "¥": 103,
      "¦": 104,
      "§": 105,
      "¨": 106,
      "©": 107,
      "ª": 108,
      "«": 109,
      "¬": 110,
      "®": 111,
      "¯": 112,
      "°": 113,
      "±": 114,
      "²": 115,
      "³": 116,
      "´": 117,
      "µ": 118,
      "¶": 119,
      "·": 120,
      "¸": 121,
      "¹": 122,
      "º": 123,
      "»": 124,
      "¼": 125,
      "½": 126,
      "¾": 127,
      "¿": 128,
      "Â": 129,
      "Ã": 130,
      "Ä": 131,
      "Å": 132,
      "Æ": 133,
      "Ç": 134,
      "È": 135,
      "É": 136,
      "Ê": 137,
      "Ë": 138,
      "Ì": 139,
      "Í": 140,
      "Î": 141,
      "Ï": 142,
      "Ð": 143,
      "Ñ": 144,
      "Ò": 145,
      "Ô": 146,
      "Õ": 147,
      "Ö": 148,
      "×": 149,
      "Ø": 150,
      "Ù": 151,
      "Ú": 152,
      "Û": 153,
      "ß": 154,
      "à": 155,
      "á": 156,
      "â": 157,
      "ã": 158,
      "ä": 159,
      "å": 160,
      "æ": 161,
      "ç": 162,
      "è": 163,
      "é": 164,
      "ê": 165,
      "ë": 166,
      "ì": 167,
      "í": 168,
      "î": 169,
      "ï": 170,
      "ð": 171,
      "Ą": 172,
      "ĉ": 173,
      "Ċ": 174,
      "ě": 175,
      "Ġ": 176,
      "ġ": 177,
      "Ģ": 178,
      "ģ": 179,
      "Ĥ": 180,
      "ĥ": 181,
      "Ħ": 182,
      "ħ": 183,
      "Ĩ": 184,
      "ĩ": 185,
      "Ī": 186,
      "ī": 187,
      "Ĭ": 188,
      "ĭ": 189,
      "Į": 190,
      "į": 191,
      "İ": 192,
      "ı": 193,
      "Ĳ": 194,
      "ĳ": 195,
      "Ĵ": 196,
      "ĵ": 197,
      "Ķ": 198,
      "ķ": 199,
      "ĸ": 200,
      "Ĺ": 201,
      "ĺ": 202,
      "Ļ": 203,
      "ļ": 204,
      "Ľ": 205,
      "ľ": 206,
      "Ŀ": 207,
      "ŀ": 208,
      "Ł": 209,
      "ł": 210,
      "Ń": 211,
      "ĠĠ": 212,
      "ĠĠĠĠ": 213,
      "ĠĠĠ": 214,
      "ĠĠĠĠĠĠĠ": 215,
      "se": 216,
      "re": 217,
      "in": 218,
      "on": 219,
      "ĠĠĠĠĠĠĠĠ": 220,
      "at": 221,
      "Ġt": 222,
      "st": 223,
      "er": 224,
      "or": 225,
      "\"\"": 226,
      "Ġa": 227,
      "de": 228,
      "en": 229,
      "Ġ=": 230,
      "sel": 231,
      "self": 232,
      "he": 233,
      "al": 234,
      "Ġi": 235,
      "ĠĠĠĠĠĠĠĠĠĠĠ": 236,
      "Ġc": 237,
      "le": 238,
      "me": 239,
      "ar": 240,
      "Ġf": 241,
      "Ġre": 242,
      "ur": 243,
      "ion": 244,
      "it": 245,
      "ct": 246,
      "Ġthe": 247,
      "Ġself": 248,
      "an": 249,
      "Ġp": 250,
      "\"\"\"": 251,
      "Ġn": 252,
      "ce": 253,
      "ge": 254,
      "Ġo": 255,
      "Ġin": 256,
      "Ġs": 257,
      "ro": 258,
      "):": 259,
      "Ġ\"\"\"": 260,
      "ut": 261,
      "ing": 262,
      "ame": 263,
      "ue": 264,
      "Ġe": 265,
      "Ġ'": 266,
      "as": 267,
      "ate": 268,
      "urn": 269,
      "def": 270,
      "Ġb": 271,
      "turn": 272,
      "lo": 273,
      "pe": 274,
      "Ġw": 275,
      "Ġif": 276,
      "ent": 277,
      "Ġd": 278,
      "ĠĠĠĠĠĠĠĠĠĠĠĠĠĠĠĠ": 279,
      "li": 280,
      "Ġm": 281,
      "te": 282,
      "ser": 283,
      "un": 284,
      "id": 285,
      "fi": 286,
      "co": 287,
      "ot": 288,
      "Ġreturn": 289,
      "ra": 290,
      "Ġto": 291,
      "mp": 292,
      "ĠĠĠĠĠĠĠĠĠĠĠĠĠĠĠ": 293,
      "Ġ#": 294,
      "Ġis": 295,
      "Ġfor": 296,
      "ul": 297,
      "ad": 298,
      "()": 299,
      "is": 300,
      "ed": 301,
      "ck": 302,
      "Ġan": 303,
      "il": 304,
      "val": 305,
      "one": 306,
      "get": 307,
      "Ġof": 308,
      "ch": 309,
      "--": 310,
      "Ġ(": 311,
      "ss": 312,
      "name": 313,
      "pt": 314,
      "Ġst": 315,
      "ri": 316,
      "up": 317,
      "ĠT": 318,
      "._": 319,
      "Ġ\"": 320,
      "ab": 321,
      "ype": 322,
      "',": 323,
      "um": 324,
      "None": 325,
      "ter": 326,
      "el": 327,
      "ation": 328,
      "di": 329,
      "ke": 330,
      "ver": 331,
      "ect": 332,
      "Ġth": 333,
      "es": 334,
      "xt": 335,
      "Ġco": 336,
      "Ġcon": 337,
      "ho": 338,
      "set": 339,
      "Ġl": 340,
      "ata": 341,
      "Ġnot": 342,
      "am": 343,
      "value": 344,
      "con": 345,
      "('": 346,
      "age": 347,
      "qu": 348,
      "ult": 349,
      "Ġand": 350,
      "Ġ:": 351,
      "')": 352,
      "ath": 353,
      "ode": 354,
      "ap": 355,
      "par": 356,
      "et": 357,
      "gs": 358,
      "ve": 359,
      "Ġex": 360,
      "Ġu": 361,
      "ror": 362,
      "))": 363,
      "sert": 364,
      "ĠĠĠĠĠ": 365,
      "ol": 366,
      "nt": 367,
      "Ġ[": 368,
      "Ġbe": 369,
      "ith": 370,
      "vi": 371,
      "ction": 372,
      "Ġg": 373,
      "Ġh": 374,
      "est": 375,
      "type": 376,
      "Ġ_": 377,
      "Re": 378,
      "bj": 379,
      "sp": 380,
      "key": 381,
      "ass": 382,
      "']": 383,
      "Ġas": 384,
      "Ġ1": 385,
      "ĠA": 386,
      "list": 387,
      "ĠNone": 388,
      "Ġor": 389,
      "able": 390,
      "Ġ%": 391,
      "Ġde": 392,
      "Ġfi": 393,
      "th": 394,
      "Ġ`": 395,
      "all": 396,
      "and": 397,
      "to": 398,
      "iz": 399,
      "ption": 400,
      "ig": 401,
      "['": 402,
      "end": 403,
      "ment": 404,
      "put": 405,
      "':": 406,
      "for": 407,
      "ĠI": 408,
      "ĠĠĠĠĠĠĠĠĠĠĠĠĠĠĠĠĠĠĠ": 409,
      "ime": 410,
      "rue": 411,
      "la": 412,
      "ort": 413,
      "Ġ+": 414,
      "ĠC": 415,
      "ist": 416,
      "(\"": 417,
      "que": 418,
      "ance": 419,
      "int": 420,
      "ĠS": 421,
      "rom": 422,
      "mo": 423,
      "path": 424,
      "ise": 425,
      "Ġwith": 426,
      "ma": 427,
      "Ġname": 428,
      "po": 429,
      "ew": 430,
      "Ġvalue": 431,
      "),": 432,
      "Ġlo": 433,
      "assert": 434,
      "Ġ0": 435,
      "Ġme": 436,
      "Ġr": 437,
      "Ġ==": 438,
      "ub": 439,
      "cl": 440,
      "ta": 441,
      "eld": 442,
      "rror": 443,
      "Error": 444,
      "ry": 445,
      "Ġ*": 446,
      "mat": 447,
      "ure": 448,
      "str": 449,
      "bject": 450,
      "che": 451,
      "----": 452,
      "Ġ{": 453,
      "\",": 454,
      "param": 455,
      "ine": 456,
      "Ġar": 457,
      "Ġpro": 458,
      "per": 459,
      "Ġres": 460,
      "du": 461,
      "ase": 462,
      "ex": 463,
      "Ġdi": 464,
      "pro": 465,
      "ĠF": 466,
      "Ġel": 467,
      "Ġ-": 468,
      "us": 469,
      "Ġstr": 470,
      "ite": 471,
      "Ġse": 472,
      "text": 473,
      "Ġal": 474,
      "Ġelse": 475,
      "ack": 476,
      "Ġthat": 477,
      "quest": 478,
      "Ġpar": 479,
      "fo": 480,
      "ic": 481,
      "args": 482,
      "ord": 483,
      "ly": 484,
      "stance": 485,
      "alse": 486,
      "Ġtest": 487,
      ">>": 488,
      "ers": 489,
      "file": 490,
      "mple": 491,
      "app": 492,
      "tr": 493,
      "Ġv": 494,
      "data": 495,
      "Ġra": 496,
      "sion": 497,
      "Return": 498,
      "date": 499,
      "res": 500,
      "out": 501,
      "ize": 502,
      "fig": 503,
      "ha": 504,
      "ĠP": 505,
      "\")": 506,
      "Ġfrom": 507,
      "ci": 508,
      "Ġon": 509,
      "reate": 510,
      "ĠThe": 511,
      "Ġdata": 512,
      "ms": 513,
      "our": 514,
      "Ġdef": 515,
      "ht": 516,
      "00": 517,
      "Ġget": 518,
      "ault": 519,
      "onse": 520,
      "qual": 521,
      "op": 522,
      "rent": 523,
      "Ġthis": 524,
      ".\"\"\"": 525,
      "Ġlist": 526,
      "red": 527,
      "__": 528,
      "Ġmo": 529,
      "Ġwh": 530,
      "ow": 531,
      "Ġset": 532,
      "Ġraise": 533,
      "ext": 534,
      "])": 535,
      "ange": 536,
      "ay": 537,
      "art": 538,
      "code": 539,
      "],": 540,
      "pre": 541,
      "Ġfile": 542,
      "Ġ2": 543,
      "unt": 544,
      "ff": 545,
      "url": 546,
      "sed": 547,
      "Ġit": 548,
      "odel": 549,
      "ĠĠĠĠĠĠĠĠĠĠĠĠĠĠĠĠĠĠĠĠĠĠĠĠĠĠĠĠĠĠĠĠ": 550,
      "sc": 551,
      "der": 552,
      "ource": 553,
      "ity": 554,
      "Ġy": 555,
      "ray": 556,
      "ial": 557,
      "dule": 558,
      "cess": 559,
      "sponse": 560,
      "iv": 561,
      "ĠD": 562,
      "Ġx": 563,
      "tri": 564,
      "mm": 565,
      "Ġch": 566,
      "error": 567,
      "ill": 568,
      "ust": 569,
      "Ġkey": 570,
      "Ġdo": 571,
      "Ġout": 572,
      "Equal": 573,
      "Ġresult": 574,
      "roup": 575,
      "Ġat": 576,
      "time": 577,
      "dd": 578,
      "vice": 579,
      "Ġby": 580,
      "add": 581,
      "='": 582,
      "ĠE": 583,
      "Ġare": 584,
      "ip": 585,
      ").": 586,
      "ind": 587,
      "bo": 588,
      "ag": 589,
      "im": 590,
      "user": 591,
      "ĠN": 592,
      "ted": 593,
      "Ġwe": 594,
      "''": 595,
      "kw": 596,
      "ary": 597,
      "ens": 598,
      "Ġobject": 599,
      "ssage": 600,
      "ĠTrue": 601,
      "Ġun": 602,
      "Ġexce": 603,
      "ory": 604,
      "low": 605,
      "dex": 606,
      "act": 607,
      "ile": 608,
      "assertEqual": 609,
      "hape": 610,
      "om": 611,
      "test": 612,
      "True": 613,
      "Ġpo": 614,
      "unction": 615,
      "ute": 616,
      "hod": 617,
      "ive": 618,
      "ĠReturn": 619,
      "ug": 620,
      "ĠM": 621,
      "atch": 622,
      "Ġnew": 623,
      "Ġma": 624,
      "ild": 625,
      "len": 626,
      "..": 627,
      "heck": 628,
      "ĠĠĠĠĠĠĠĠĠ": 629,
      "Ġen": 630,
      "Ġuser": 631,
      "Ġcl": 632,
      "In": 633,
      "ded": 634,
      "jo": 635,
      "ument": 636,
      "version": 637,
      "cation": 638,
      "thod": 639,
      "update": 640,
      "==": 641,
      "Ġstring": 642,
      "ber": 643,
      "ok": 644,
      "head": 645,
      "rect": 646,
      "und": 647,
      "Ġlen": 648,
      "col": 649,
      "uld": 650,
      "instance": 651,
      "py": 652,
      "ition": 653,
      "ave": 654,
      "tent": 655,
      "ask": 656,
      "ample": 657,
      "valid": 658,
      "pla": 659,
      "Ġpre": 660,
      "ans": 661,
      "dir": 662,
      "Ġ)": 663,
      "form": 664,
      "read": 665,
      "append": 666,
      "ĠIf": 667,
      "info": 668,
      "ameter": 669,
      "lient": 670,
      "ĠL": 671,
      "urse": 672,
      "rap": 673,
      "Ġwill": 674,
      "dict": 675,
      "ĠFalse": 676,
      "kwargs": 677,
      "ator": 678,
      "ork": 679,
      "nect": 680,
      "ĠV": 681,
      "state": 682,
      "ces": 683,
      "``": 684,
      "Ġpath": 685,
      "Ġtype": 686,
      "Ġnum": 687,
      "Ġrequest": 688,
      "ated": 689,
      "ant": 690,
      "cal": 691,
      "Ġ>>": 692,
      "ĠU": 693,
      "lock": 694,
      "\":": 695,
      "ĠG": 696,
      "Ġassert": 697,
      "Ġtry": 698,
      "format": 699,
      "Ġ>>>": 700,
      "port": 701,
      "ĠĠĠĠĠĠĠĠĠĠĠĠĠĠĠĠĠĠĠĠĠĠĠ": 702,
      "vent": 703,
      "ign": 704,
      "ml": 705,
      "ĠR": 706,
      "ER": 707,
      "ssion": 708,
      "class": 709,
      "fe": 710,
      "ies": 711,
      "Ġall": 712,
      "Ġro": 713,
      "if": 714,
      "ns": 715,
      "min": 716,
      "Ġ``": 717,
      "Ġ<": 718,
      "log": 719,
      "ĠO": 720,
      "field": 721,
      "ca": 722,
      "host": 723,
      "ery": 724,
      "Ġhas": 725,
      "Ġtime": 726,
      "atus": 727,
      "Ġfield": 728,
      "Ġexcept": 729,
      "ĠReturns": 730,
      "Ġsho": 731,
      "ren": 732,
      "Con": 733,
      "pect": 734,
      "ail": 735,
      "dent": 736,
      "Ġlog": 737,
      "uth": 738,
      "trib": 739,
      "line": 740,
      "():": 741,
      "ther": 742,
      "ON": 743,
      "False": 744,
      "his": 745,
      "Ġcan": 746,
      "Ġap": 747,
      "peci": 748,
      "Ġ**": 749,
      "ĠĠĠĠĠĠ": 750,
      "config": 751,
      "lement": 752,
      "urrent": 753,
      "load": 754,
      "ings": 755,
      "lif": 756,
      "abel": 757,
      "tain": 758,
      "Ġfunction": 759,
      "ĠW": 760,
      "mmand": 761,
      "=\"": 762,
      "ĉĉ": 763,
      "Ġcol": 764,
      "Ġ'''": 765,
      "do": 766,
      "Ġadd": 767,
      "ensor": 768,
      "Ġbo": 769,
      "Ġdefault": 770,
      "ty": 771,
      "count": 772,
      "ace": 773,
      "ptions": 774,
      "Ġmethod": 775,
      "gument": 776,
      "AT": 777,
      "scri": 778,
      ".__": 779,
      "ep": 780,
      "alue": 781,
      "ener": 782,
      "Ġso": 783,
      "Ġresponse": 784,
      "Ġos": 785,
      "Ġelif": 786,
      "yn": 787,
      "Ġ3": 788,
      "iven": 789,
      "son": 790,
      "ac": 791,
      "mpl": 792,
      "Ġnp": 793,
      "Ġser": 794,
      "ari": 795,
      "ĠThis": 796,
      "attr": 797,
      "ature": 798,
      "return": 799,
      "back": 800,
      "ĠĠĠĠĠĠĠĠĠĠĠĠĠĠĠĠĠĠĠĠĠĠĠĠ": 801,
      "([": 802,
      "ll": 803,
      "query": 804,
      "size": 805,
      "ger": 806,
      "object": 807,
      "ir": 808,
      "join": 809,
      "Ġnode": 810,
      "request": 811,
      "ib": 812,
      "IN": 813,
      "Ġshould": 814,
      "group": 815,
      "Ġinstance": 816,
      "Ġuse": 817,
      "Ġcall": 818,
      "ore": 819,
      "Ġfil": 820,
      "Ġk": 821,
      "lin": 822,
      "Ġcheck": 823,
      "ST": 824,
      "init": 825,
      "Ġcomp": 826,
      "arget": 827,
      "Ġsub": 828,
      "Ġerror": 829,
      "ec": 830,
      "lic": 831,
      "ds": 832,
      "word": 833,
      "ameters": 834,
      "qui": 835,
      "Ġ[]": 836,
      "sing": 837,
      "Ġline": 838,
      "mport": 839,
      "tp": 840,
      "ĠH": 841,
      "Ġcontext": 842,
      "Ġno": 843,
      "ĠB": 844,
      "Ġconfig": 845,
      "Ġgiven": 846,
      "ight": 847,
      "Ġoutput": 848,
      "rite": 849,
      "ifi": 850,
      "own": 851,
      "os": 852,
      "Ġspeci": 853,
      "Ġ{}": 854,
      "Ġarray": 855,
      "sub": 856,
      "create": 857,
      "ich": 858,
      "Ġsy": 859,
      "string": 860,
      "Ġisinstance": 861,
      "lib": 862,
      "Ġinput": 863,
      "Ġle": 864,
      "node": 865,
      "json": 866,
      "Ġop": 867,
      "comp": 868,
      "start": 869,
      "Ġstate": 870,
      "lit": 871,
      "ken": 872,
      "ast": 873,
      "num": 874,
      "[\"": 875,
      "Ġint": 876,
      "rint": 877,
      "].": 878,
      "unc": 879,
      "ress": 880,
      "ang": 881,
      "Ġ@": 882,
      "shape": 883,
      "Ġvalues": 884,
      "led": 885,
      "model": 886,
      "Ġmodel": 887,
      "sh": 888,
      "'s": 889,
      "nection": 890,
      "by": 891,
      "view": 892,
      "mplate": 893,
      "module": 894,
      "input": 895,
      ":`": 896,
      "array": 897,
      "so": 898,
      "rst": 899,
      "Ġ__": 900,
      "Ġ}": 901,
      "Ġac": 902,
      "not": 903,
      "Ġwhich": 904,
      "Ġcreate": 905,
      "())": 906,
      "work": 907,
      "fix": 908,
      "Ġne": 909,
      "response": 910,
      "Ġsup": 911,
      "Ġ>": 912,
      "Ġdis": 913,
      "nd": 914,
      "tes": 915,
      "with": 916,
      "default": 917,
      "pected": 918,
      "'t": 919,
      "Ġ+=": 920,
      "arent": 921,
      "Ġmodule": 922,
      "Ġ----": 923,
      "Ġused": 924,
      "RE": 925,
      "loat": 926,
      "ard": 927,
      "obj": 928,
      "context": 929,
      "Ġdict": 930,
      "Ġmessage": 931,
      "ree": 932,
      "index": 933,
      "arn": 934,
      "lat": 935,
      "ses": 936,
      "em": 937,
      "Ġpass": 938,
      "uct": 939,
      "Ġhead": 940,
      "uple": 941,
      "__(": 942,
      "we": 943,
      "ject": 944,
      "ally": 945,
      "Ġent": 946,
      "Test": 947,
      "no": 948,
      "Ġite": 949,
      "cord": 950,
      "select": 951,
      "client": 952,
      "from": 953,
      "Ġcurrent": 954,
      "ume": 955,
      "tern": 956,
      "Ġhave": 957,
      "ations": 958,
      "raph": 959,
      "params": 960,
      "main": 961,
      "bu": 962,
      "ync": 963,
      "ĠIn": 964,
      "result": 965,
      "md": 966,
      "move": 967,
      "alueError": 968,
      "Ġapp": 969,
      "Ġ!": 970,
      "orm": 971,
      "row": 972,
      "Ġnumber": 973,
      "clu": 974,
      "arch": 975,
      "Ġwhen": 976,
      "LE": 977,
      "\"]": 978,
      "course": 979,
      "status": 980,
      "Ġone": 981,
      "ariable": 982,
      "Ġ4": 983,
      "Ġ!=": 984,
      "parse": 985,
      "Ġcontain": 986,
      "run": 987,
      "mb": 988,
      "ĠAr": 989,
      "Ġother": 990,
      "ron": 991,
      "ception": 992,
      "Ġargument": 993,
      "here": 994,
      "Ex": 995,
      "Ġspecifi": 996,
      "ts": 997,
      "ding": 998,
      "Ġext": 999,
      "Ġlin": 1000,
      "Ġparam": 1001,
      "Ġversion": 1002,
      "Ġ/": 1003,
      "cs": 1004,
      "av": 1005,
      "ield": 1006,
      "call": 1007,
      "check": 1008,
      "ĠRe": 1009,
      "mit": 1010,
      "ME": 1011,
      "gth": 1012,
      "Ġimport": 1013,
      "ref": 1014,
      "point": 1015,
      "Ġclass": 1016,
      "Ġte": 1017,
      "Ġurl": 1018,
      "og": 1019,
      "Ġim": 1020,
      "ach": 1021,
      "lete": 1022,
      "Ġtr": 1023,
      "ull": 1024,
      "Ġz": 1025,
      "ptional": 1026,
      "place": 1027,
      "her": 1028,
      "().": 1029,
      "fil": 1030,
      "use": 1031,
      "ĠValueError": 1032,
      "are": 1033,
      "Ġargs": 1034,
      "(),": 1035,
      "map": 1036,
      "pos": 1037,
      "message": 1038,
      "ĠEx": 1039,
      "ait": 1040,
      "cur": 1041,
      "tings": 1042,
      "sent": 1043,
      "`.": 1044,
      "Ġstart": 1045,
      "Ġany": 1046,
      "ound": 1047,
      "gist": 1048,
      "play": 1049,
      "mail": 1050,
      "'.": 1051,
      "Ġbu": 1052,
      "Ġsu": 1053,
      "ld": 1054,
      "iter": 1055,
      "OR": 1056,
      "pi": 1057,
      "sy": 1058,
      "dy": 1059,
      "Ġ\\": 1060,
      "Ġid": 1061,
      "'):": 1062,
      "thon": 1063,
      "split": 1064,
      "tribute": 1065,
      "vel": 1066,
      "Ġrun": 1067,
      "Ġtext": 1068,
      "max": 1069,
      "orted": 1070,
      "umn": 1071,
      "Ġonly": 1072,
      "Ġmust": 1073,
      "ax": 1074,
      "Ġmax": 1075,
      "vert": 1076,
      "write": 1077,
      "bug": 1078,
      "Ġbase": 1079,
      "Ġcourse": 1080,
      "====": 1081,
      "content": 1082,
      "nel": 1083,
      "ension": 1084,
      "ey": 1085,
      "ĠX": 1086,
      "ids": 1087,
      "values": 1088,
      "'),": 1089,
      "its": 1090,
      "'],": 1091,
      "Name": 1092,
      "sg": 1093,
      "util": 1094,
      "dis": 1095,
      "api": 1096,
      "output": 1097,
      "Ġend": 1098,
      "ID": 1099,
      "net": 1100,
      "Ġper": 1101,
      "db": 1102,
      "Ġcont": 1103,
      "ake": 1104,
      "Ġexist": 1105,
      "filter": 1106,
      "ream": 1107,
      "label": 1108,
      "Ġindex": 1109,
      "ible": 1110,
      "lay": 1111,
      "Ġupdate": 1112,
      "Co": 1113,
      "Ġup": 1114,
      "Type": 1115,
      "Pro": 1116,
      "Ġca": 1117,
      "Key": 1118,
      "Ġ..": 1119,
      "De": 1120,
      "new": 1121,
      "Ġ{'": 1122,
      "item": 1123,
      "action": 1124,
      "Ġcontent": 1125,
      "St": 1126,
      "Ġj": 1127,
      "Ġprint": 1128,
      "Ġmat": 1129,
      "**": 1130,
      "Ġformat": 1131,
      "lob": 1132,
      "Ġquery": 1133,
      "auth": 1134,
      "block": 1135,
      "inter": 1136,
      "Ġmatch": 1137,
      "Ġpy": 1138,
      "tra": 1139,
      "itle": 1140,
      "DE": 1141,
      "utes": 1142,
      "Ġbut": 1143,
      "cket": 1144,
      "amples": 1145,
      "cre": 1146,
      "base": 1147,
      "Ġdoes": 1148,
      "Ġvalid": 1149,
      "Ġgroup": 1150,
      "ual": 1151,
      "Ġdate": 1152,
      "lean": 1153,
      "Ġelement": 1154,
      "olume": 1155,
      "ft": 1156,
      "Ġfirst": 1157,
      "TE": 1158,
      "andl": 1159,
      "items": 1160,
      "Ġsp": 1161,
      "den": 1162,
      "andle": 1163,
      "clude": 1164,
      "ename": 1165,
      "ner": 1166,
      "01": 1167,
      "Ġitem": 1168,
      "Ġparams": 1169,
      "Ġshape": 1170,
      "struct": 1171,
      "ops": 1172,
      "gra": 1173,
      "Ġhost": 1174,
      "[:": 1175,
      "Ġevent": 1176,
      "msg": 1177,
      "Ġcommand": 1178,
      "ĠArgs": 1179,
      "Ġimage": 1180,
      "ializ": 1181,
      "rame": 1182,
      "Ġcor": 1183,
      "Ġli": 1184,
      "Res": 1185,
      "Ġexpected": 1186,
      "ĠĠĠĠĠĠĠĠĠĠĠĠĠĠĠĠĠĠĠĠĠĠĠĠĠĠĠ": 1187,
      "'])": 1188,
      "rix": 1189,
      "ou": 1190,
      "ify": 1191,
      "func": 1192,
      "ates": 1193,
      "Ġdirect": 1194,
      "com": 1195,
      "objects": 1196,
      "Ġcode": 1197,
      "Ġtra": 1198,
      "ark": 1199,
      "Ġtarget": 1200,
      "ence": 1201,
      "Ġrange": 1202,
      "ong": 1203,
      "ĠĠĠĠĠĠĠĠĠĠ": 1204,
      "change": 1205,
      "Set": 1206,
      "Ġchange": 1207,
      "lose": 1208,
      "Ġpart": 1209,
      "lename": 1210,
      "Get": 1211,
      "ises": 1212,
      "ak": 1213,
      "ution": 1214,
      "lug": 1215,
      "ght": 1216,
      "((": 1217,
      "Ġsource": 1218,
      "//": 1219,
      "mplement": 1220,
      "ors": 1221,
      "Ġ('": 1222,
      "adata": 1223,
      "ide": 1224,
      "ĠCon": 1225,
      "Ġread": 1226,
      "pec": 1227,
      "Ġmsg": 1228,
      "SE": 1229,
      "feren": 1230,
      "Ġtuple": 1231,
      "pr": 1232,
      "stri": 1233,
      "Ġeach": 1234,
      "Ġ--------": 1235,
      "Ġover": 1236,
      "filename": 1237,
      "Ġoper": 1238,
      "has": 1239,
      "cache": 1240,
      "Ġinter": 1241,
      "be": 1242,
      "alled": 1243,
      "ackage": 1244,
      "Ġ['": 1245,
      "image": 1246,
      "err": 1247,
      "Ġspecified": 1248,
      "Ġtrans": 1249,
      "mpty": 1250,
      "Ġgener": 1251,
      "stem": 1252,
      "ule": 1253,
      "AL": 1254,
      "part": 1255,
      "Ġinto": 1256,
      "rc": 1257,
      "da": 1258,
      "Ġact": 1259,
      "ump": 1260,
      "})": 1261,
      "Ġreturns": 1262,
      "names": 1263,
      "Ġobj": 1264,
      "server": 1265,
      "man": 1266,
      "ĠPar": 1267,
      "andom": 1268,
      "ne": 1269,
      "\".": 1270,
      "Ġfilename": 1271,
      "onent": 1272,
      "inal": 1273,
      "met": 1274,
      "Ġlabel": 1275,
      "Ġback": 1276,
      "Ġ|": 1277,
      "Ġ5": 1278,
      "fter": 1279,
      "Ġinst": 1280,
      "command": 1281,
      "Ġhe": 1282,
      "Ġusing": 1283,
      "Ġorder": 1284,
      "sum": 1285,
      "page": 1286,
      "Ġrow": 1287,
      "arg": 1288,
      "viron": 1289,
      "Ġdtype": 1290,
      "ĠDe": 1291,
      "Ġserver": 1292,
      "Ġax": 1293,
      "source": 1294,
      "TI": 1295,
      "Ġwork": 1296,
      "device": 1297,
      "Ġht": 1298,
      "Ġkwargs": 1299,
      "fore": 1300,
      "space": 1301,
      "MA": 1302,
      "Ġsame": 1303,
      "ctionary": 1304,
      "ix": 1305,
      "Ġresource": 1306,
      "scription": 1307,
      "Par": 1308,
      "Ġinit": 1309,
      "Ġdist": 1310,
      "Ġdevice": 1311,
      "Ġmin": 1312,
      "table": 1313,
      "mis": 1314,
      "Ġfilter": 1315,
      "::": 1316,
      "io": 1317,
      "wait": 1318,
      "Ġvariable": 1319,
      "Ġform": 1320,
      "10": 1321,
      "store": 1322,
      "://": 1323,
      "var": 1324,
      "Ġass": 1325,
      "token": 1326,
      "mode": 1327,
      "Ġrequi": 1328,
      "Ġtable": 1329,
      "su": 1330,
      "event": 1331,
      "ting": 1332,
      "debug": 1333,
      "annel": 1334,
      "pri": 1335,
      "Ġpos": 1336,
      "Ġfe": 1337,
      "Ġblock": 1338,
      "ped": 1339,
      "uto": 1340,
      "ert": 1341,
      "location": 1342,
      "Not": 1343,
      "ĠTest": 1344,
      "Ġsize": 1345,
      "process": 1346,
      "pen": 1347,
      "script": 1348,
      "Ġport": 1349,
      "'))": 1350,
      "Ġab": 1351,
      "tributes": 1352,
      "TT": 1353,
      "async": 1354,
      "Ġwas": 1355,
      "andler": 1356,
      "ical": 1357,
      "uration": 1358,
      "Ġclient": 1359,
      "cate": 1360,
      "lection": 1361,
      "Ġparent": 1362,
      "Ġthen": 1363,
      "keys": 1364,
      "idth": 1365,
      "Ġfound": 1366,
      "ccess": 1367,
      "ments": 1368,
      "Ġfloat": 1369,
      "ager": 1370,
      "indow": 1371,
      "cond": 1372,
      "Ġad": 1373,
      "PI": 1374,
      "cope": 1375,
      "Ġiter": 1376,
      "Ġopen": 1377,
      "link": 1378,
      "Ġver": 1379,
      "EN": 1380,
      "dtype": 1381,
      "Ġdoc": 1382,
      "direct": 1383,
      "Ġpage": 1384,
      "Ġheader": 1385,
      "12": 1386,
      "Ġcase": 1387,
      "np": 1388,
      "iled": 1389,
      "present": 1390,
      "File": 1391,
      "Ġoptions": 1392,
      "ote": 1393,
      "child": 1394,
      "http": 1395,
      "Ġconnection": 1396,
      "ĠQ": 1397,
      "atures": 1398,
      "Ġnet": 1399,
      "ĠSe": 1400,
      "RL": 1401,
      "32": 1402,
      "temp": 1403,
      "Ġcache": 1404,
      "ps": 1405,
      "fields": 1406,
      "AR": 1407,
      "lines": 1408,
      "Ġtask": 1409,
      "][": 1410,
      "options": 1411,
      "target": 1412,
      "uid": 1413,
      "Ġuni": 1414,
      "RO": 1415,
      "Ġfiles": 1416,
      "ous": 1417,
      "task": 1418,
      "Ġstatus": 1419,
      "Ġret": 1420,
      "vo": 1421,
      "core": 1422,
      "Ġaction": 1423,
      "method": 1424,
      "Ġcls": 1425,
      "xml": 1426,
      "face": 1427,
      "cr": 1428,
      "Ġsign": 1429,
      "cy": 1430,
      "Ġpoint": 1431,
      "rid": 1432,
      "aises": 1433,
      "##": 1434,
      "ormal": 1435,
      "order": 1436,
      "Ġresults": 1437,
      "Ġauth": 1438,
      "Ġmake": 1439,
      "cept": 1440,
      "Ġchar": 1441,
      "find": 1442,
      "trans": 1443,
      "ference": 1444,
      "cls": 1445,
      "Ġexp": 1446,
      "duct": 1447,
      "root": 1448,
      "Ġtoken": 1449,
      "Ġreturned": 1450,
      "asses": 1451,
      "lugin": 1452,
      "lot": 1453,
      "vis": 1454,
      "match": 1455,
      "template": 1456,
      "SS": 1457,
      "html": 1458,
      "Ġmode": 1459,
      "ved": 1460,
      "ialize": 1461,
      "Ġfields": 1462,
      "arning": 1463,
      "cor": 1464,
      "Ġindi": 1465,
      "Ġsh": 1466,
      "coding": 1467,
      "amb": 1468,
      "64": 1469,
      "ined": 1470,
      "unk": 1471,
      "of": 1472,
      "verse": 1473,
      "ating": 1474,
      "ches": 1475,
      "Ġho": 1476,
      ".\"": 1477,
      "ice": 1478,
      "lobal": 1479,
      "Ġarguments": 1480,
      "},": 1481,
      "Ġprovi": 1482,
      "Ġmult": 1483,
      "Ġneed": 1484,
      "Ġlast": 1485,
      "session": 1486,
      "ĠĠĠĠĠĠĠĠĠĠĠĠĠ": 1487,
      "float": 1488,
      "fn": 1489,
      "ailable": 1490,
      "Ġdictionary": 1491,
      "tag": 1492,
      "ustom": 1493,
      "job": 1494,
      "Ġyou": 1495,
      "Ġoptional": 1496,
      "Ġlocal": 1497,
      "otal": 1498,
      "Se": 1499,
      "Ġwhile": 1500,
      "Ġman": 1501,
      "lem": 1502,
      "AN": 1503,
      "List": 1504,
      "Returns": 1505,
      "Ġdiff": 1506,
      "ĠĠĠĠĠĠĠĠĠĠĠĠ": 1507,
      "stat": 1508,
      "atab": 1509,
      "service": 1510,
      "pass": 1511,
      "tensor": 1512,
      "rt": 1513,
      "Ġcontin": 1514,
      ")))": 1515,
      "atabase": 1516,
      "quence": 1517,
      "vid": 1518,
      "local": 1519,
      "Ġtemplate": 1520,
      "other": 1521,
      "sta": 1522,
      "exec": 1523,
      "Ġselect": 1524,
      "parent": 1525,
      "DO": 1526,
      "wise": 1527,
      "Ġchild": 1528,
      "Lo": 1529,
      "raw": 1530,
      "ĠJ": 1531,
      "Ġextra": 1532,
      "resource": 1533,
      "reg": 1534,
      "doc": 1535,
      ".,": 1536,
      "Ġnames": 1537,
      "Ġuid": 1538,
      "Ġwhere": 1539,
      "Ġsession": 1540,
      "hass": 1541,
      "ĠGet": 1542,
      "Data": 1543,
      "Un": 1544,
      "ell": 1545,
      "Ġtensor": 1546,
      "ready": 1547,
      "reak": 1548,
      "Ġallow": 1549,
      "settings": 1550,
      "admin": 1551,
      "Ġq": 1552,
      "cent": 1553,
      "exist": 1554,
      "Ġ->": 1555,
      "GE": 1556,
      "lan": 1557,
      ")]": 1558,
      "cri": 1559,
      "right": 1560,
      "ran": 1561,
      "ĠParameters": 1562,
      "title": 1563,
      "CE": 1564,
      "swith": 1565,
      "utils": 1566,
      "</": 1567,
      "Ġrecord": 1568,
      "lication": 1569,
      "pop": 1570,
      "types": 1571,
      "Ġmay": 1572,
      "ambda": 1573,
      "(_": 1574,
      "ailed": 1575,
      "Ġ--": 1576,
      "delete": 1577,
      "Ġafter": 1578,
      "way": 1579,
      "ols": 1580,
      "Ġsys": 1581,
      "Ġthere": 1582,
      "replace": 1583,
      "ternal": 1584,
      "Ġnon": 1585,
      "Ġed": 1586,
      "ick": 1587,
      "project": 1588,
      "Ġ'%": 1589,
      "post": 1590,
      "ain": 1591,
      "formation": 1592,
      "Ġmock": 1593,
      "Ġexception": 1594,
      "pp": 1595,
      "Ġtag": 1596,
      "oo": 1597,
      "Ġval": 1598,
      "Ġcur": 1599,
      "Ġload": 1600,
      "queue": 1601,
      "ie": 1602,
      "ql": 1603,
      "Ġinte": 1604,
      "ĠAn": 1605,
      "Ġparameters": 1606,
      "current": 1607,
      "roll": 1608,
      "Ġqu": 1609,
      "close": 1610,
      "tring": 1611,
      "Ġprocess": 1612,
      "TTP": 1613,
      "length": 1614,
      "kip": 1615,
      "ponse": 1616,
      "Ġproper": 1617,
      "Ġcount": 1618,
      "Ġentry": 1619,
      "LO": 1620,
      "Ġvi": 1621,
      "CO": 1622,
      "Ġsome": 1623,
      "ĠFor": 1624,
      "ython": 1625,
      "xy": 1626,
      "files": 1627,
      "ead": 1628,
      "umpy": 1629,
      "FI": 1630,
      "cmd": 1631,
      "ĠĠĠĠĠĠĠĠĊ": 1632,
      "Ġyield": 1633,
      "nown": 1634,
      "ging": 1635,
      "ĠĠĠĠĠĠĠĠĠĠĠĠĠĠ": 1636,
      "Ġcontinue": 1637,
      "]:": 1638,
      "ATE": 1639,
      "Ġattribute": 1640,
      "Ġobjects": 1641,
      "Ġ----------": 1642,
      "Di": 1643,
      "Ġsuper": 1644,
      "rol": 1645,
      "Ġexec": 1646,
      "Ġdirectory": 1647,
      "ched": 1648,
      "Ġfol": 1649,
      "CON": 1650,
      "wo": 1651,
      "function": 1652,
      "ride": 1653,
      "[-": 1654,
      "licy": 1655,
      "actory": 1656,
      "PE": 1657,
      "igr": 1658,
      "my": 1659,
      "abled": 1660,
      "mission": 1661,
      "air": 1662,
      "copy": 1663,
      "Ġorig": 1664,
      "mary": 1665,
      "rtype": 1666,
      "SI": 1667,
      "env": 1668,
      "ĠĊ": 1669,
      "ML": 1670,
      "top": 1671,
      "').": 1672,
      "stant": 1673,
      "Ġits": 1674,
      "`,": 1675,
      "Ġ.": 1676,
      "off": 1677,
      "Ġservice": 1678,
      "assertTrue": 1679,
      "save": 1680,
      "ative": 1681,
      "ning": 1682,
      "element": 1683,
      "Ġpri": 1684,
      "Ġnext": 1685,
      "comm": 1686,
      "fail": 1687,
      "open": 1688,
      "assed": 1689,
      "Add": 1690,
      "Ġview": 1691,
      "prefix": 1692,
      "Ġbody": 1693,
      "Ġlink": 1694,
      "gn": 1695,
      "lease": 1696,
      "rel": 1697,
      "resp": 1698,
      "UT": 1699,
      "Ġcalled": 1700,
      "Ġrepresent": 1701,
      "lect": 1702,
      "pk": 1703,
      "level": 1704,
      "umns": 1705,
      "like": 1706,
      "uni": 1707,
      "Ġbool": 1708,
      "Ġfind": 1709,
      "Ġag": 1710,
      "hether": 1711,
      "range": 1712,
      "loc": 1713,
      "spec": 1714,
      "(*": 1715,
      "step": 1716,
      "ĠCo": 1717,
      "mension": 1718,
      "ph": 1719,
      "ĠCheck": 1720,
      "Ġjson": 1721,
      "wer": 1722,
      "Ġthan": 1723,
      "ility": 1724,
      "attern": 1725,
      "Ġheaders": 1726,
      "Ġaxis": 1727,
      "Ġtf": 1728,
      "Ġoff": 1729,
      "exp": 1730,
      "ized": 1731,
      "Mo": 1732,
      "sign": 1733,
      "Create": 1734,
      "({": 1735,
      "connection": 1736,
      "ĠSet": 1737,
      "orage": 1738,
      "Ġ...": 1739,
      "ities": 1740,
      "df": 1741,
      "Ġarg": 1742,
      "build": 1743,
      "Ġhttp": 1744,
      "entry": 1745,
      "tail": 1746,
      "Ġlib": 1747,
      "Ġparameter": 1748,
      "ĠĠĠĠĠĠĠĠĠĠĠĠĠĠĠĠĠĠĠĠĠ": 1749,
      "uage": 1750,
      "search": 1751,
      "Ġav": 1752,
      "Ġmore": 1753,
      "ĠWe": 1754,
      "ingle": 1755,
      "Ġremo": 1756,
      "anguage": 1757,
      "lag": 1758,
      "Ġbefore": 1759,
      "Ġattr": 1760,
      "Ġroot": 1761,
      "email": 1762,
      "Ġbreak": 1763,
      "Field": 1764,
      "Ġinfo": 1765,
      "ĠĠĠĠĠĠĠĠĠĠĠĠĠĠĠĠĠ": 1766,
      "foo": 1767,
      "idget": 1768,
      "Ġproject": 1769,
      "AC": 1770,
      "org": 1771,
      "ffer": 1772,
      "Ġcmd": 1773,
      "Ġpassed": 1774,
      "={": 1775,
      "Ġgra": 1776,
      "Ġlength": 1777,
      "Ġold": 1778,
      "ular": 1779,
      "Value": 1780,
      "ported": 1781,
      "headers": 1782,
      "Ġmap": 1783,
      "Ġlines": 1784,
      "body": 1785,
      "ĠNot": 1786,
      "connect": 1787,
      "mplemented": 1788,
      "ĠĠĠĠĠĠĠĠĠĠĠĠĠĠĠĠĠĠĠĠĠĠĠĠĠĠĠĠĠĠĠ": 1789,
      "ton": 1790,
      "ĠCreate": 1791,
      "Ġgraph": 1792,
      "weight": 1793,
      "Ġalready": 1794,
      "ifier": 1795,
      "Ġtimeout": 1796,
      "pression": 1797,
      "regist": 1798,
      "number": 1799,
      "Ġsettings": 1800,
      "Response": 1801,
      "graph": 1802,
      "Ġawait": 1803,
      "chema": 1804,
      "Ġdb": 1805,
      "ero": 1806,
      "Ġdel": 1807,
      "strip": 1808,
      "box": 1809,
      "Ġbeen": 1810,
      "UL": 1811,
      "ful": 1812,
      "Ġ10": 1813,
      "uster": 1814,
      "address": 1815,
      "flow": 1816,
      "Ġcolumn": 1817,
      "ĠType": 1818,
      "Ġoperation": 1819,
      "ĠY": 1820,
      "ĠĠĠĠĠĠĠĠĠĠĠĠĠĠĠĠĠĠĠĠĠĠĠĠĠ": 1821,
      "Ġhass": 1822,
      "make": 1823,
      "header": 1824,
      "RI": 1825,
      "Ġ]": 1826,
      "uri": 1827,
      "Ġcopy": 1828,
      "ugh": 1829,
      "sor": 1830,
      "ayer": 1831,
      "Ġbet": 1832,
      "Ġfail": 1833,
      "req": 1834,
      "pts": 1835,
      "very": 1836,
      "=[": 1837,
      "last": 1838,
      "Ġprob": 1839,
      "Ġ6": 1840,
      "---": 1841,
      "username": 1842,
      ")):": 1843,
      "remove": 1844,
      "igh": 1845,
      "meta": 1846,
      "lower": 1847,
      "ten": 1848,
      "To": 1849,
      "Ġregist": 1850,
      "pub": 1851,
      "Ġinformation": 1852,
      "dout": 1853,
      "tocol": 1854,
      "stream": 1855,
      "Ġsingle": 1856,
      "Ġlocation": 1857,
      "Ġempty": 1858,
      "AME": 1859,
      "Ser": 1860,
      "Ġparse": 1861,
      "les": 1862,
      "0000": 1863,
      "rit": 1864,
      "Ġcreated": 1865,
      "Ġprovided": 1866,
      "fer": 1867,
      "Ġerr": 1868,
      "access": 1869,
      "Ġerrors": 1870,
      "ries": 1871,
      "Ġmatrix": 1872,
      "Ch": 1873,
      "stamp": 1874,
      "CT": 1875,
      "fault": 1876,
      "apping": 1877,
      "Ġrel": 1878,
      "Ġscal": 1879,
      "ĠID": 1880,
      "DI": 1881,
      "ector": 1882,
      "okup": 1883,
      "ĠException": 1884,
      ".')": 1885,
      "volume": 1886,
      "actor": 1887,
      "ĠĠĠĠĠĠĠĠĠĠĠĠĠĠĠĠĠĠĠĠ": 1888,
      "column": 1889,
      "lp": 1890,
      "domain": 1891,
      "Tensor": 1892,
      "Ġlogger": 1893,
      "ĠK": 1894,
      "fy": 1895,
      "etch": 1896,
      "record": 1897,
      "encode": 1898,
      "lags": 1899,
      "Ġgetattr": 1900,
      "ash": 1901,
      "bar": 1902,
      "mask": 1903,
      "Ġkeys": 1904,
      "ĠSee": 1905,
      "Ġbot": 1906,
      "requi": 1907,
      "send": 1908,
      "sa": 1909,
      "parameters": 1910,
      "gr": 1911,
      "latform": 1912,
      "bin": 1913,
      "Ġaddress": 1914,
      "--------": 1915,
      "Ġident": 1916,
      "Ġweight": 1917,
      "Ġcorrect": 1918,
      "Ġ'/": 1919,
      "Request": 1920,
      "En": 1921,
      "ateg": 1922,
      "Ġtwo": 1923,
      "Po": 1924,
      "day": 1925,
      "Ġ\"\"": 1926,
      "Ġprefix": 1927,
      "char": 1928,
      "ĠPython": 1929,
      "ties": 1930,
      "hed": 1931,
      "{}": 1932,
      "extra": 1933,
      ".\")": 1934,
      "network": 1935,
      "Ġnetwork": 1936,
      "cript": 1937,
      "mt": 1938,
      "Ġfunc": 1939,
      "Exception": 1940,
      "ĠURL": 1941,
      "TY": 1942,
      "imum": 1943,
      "ization": 1944,
      "Ġcomm": 1945,
      "batch": 1946,
      "The": 1947,
      "Ġhasattr": 1948,
      "Path": 1949,
      "Ġcontaining": 1950,
      "metadata": 1951,
      "Ġdiffe": 1952,
      "gener": 1953,
      "Ġstat": 1954,
      "Ġpackage": 1955,
      "nap": 1956,
      "oll": 1957,
      "Ġinclude": 1958,
      "wit": 1959,
      "Check": 1960,
      "hen": 1961,
      "down": 1962,
      "river": 1963,
      "Ġcre": 1964,
      "results": 1965,
      "bytes": 1966,
      "tect": 1967,
      "Ġbuild": 1968,
      "mult": 1969,
      "itions": 1970,
      "conf": 1971,
      "Ġvolume": 1972,
      "ification": 1973,
      "ud": 1974,
      "Ġavailable": 1975,
      "99": 1976,
      "ias": 1977,
      "Ar": 1978,
      "password": 1979,
      "ĠKey": 1980,
      "String": 1981,
      "Ġsee": 1982,
      "Ġrequired": 1983,
      "Ġoption": 1984,
      "Ġ'.": 1985,
      "ĠĠĠĠĠĠĠĠĠĠĠĠĠĠĠĠĠĠ": 1986,
      "Ġdatetime": 1987,
      "section": 1988,
      "Ġdomain": 1989,
      "Ġremove": 1990,
      "scal": 1991,
      "Ġ-------": 1992,
      "Ġstream": 1993,
      "Ġstep": 1994,
      "iple": 1995,
      "itor": 1996,
      "udent": 1997,
      "Ġdatabase": 1998,
      "Ġreg": 1999,
      "OST": 2000,
      "'''": 2001,
      "Ġdisplay": 2002,
      "CH": 2003,
      "Ġparser": 2004,
      "Ġsum": 2005,
      "mark": 2006,
      "startswith": 2007,
      "rary": 2008,
      "Ġ>=": 2009,
      "can": 2010,
      "Id": 2011,
      "ĠAdd": 2012,
      "rapper": 2013,
      "print": 2014,
      "lear": 2015,
      "Element": 2016,
      "now": 2017,
      "first": 2018,
      "dia": 2019,
      "ither": 2020,
      "yle": 2021,
      "side": 2022,
      "layer": 2023,
      "Ġmet": 2024,
      "next": 2025,
      "duce": 2026,
      "Ġaccess": 2027,
      "ĠĠĠĠĠĠĠĠĠĠĠĠĠĠĠĠĠĠĠĠĠĠ": 2028,
      "round": 2029,
      "lass": 2030,
      "Ġdest": 2031,
      "how": 2032,
      "AD": 2033,
      "classes": 2034,
      "Ġbytes": 2035,
      "ango": 2036,
      "samples": 2037,
      "Ġref": 2038,
      "Ġalso": 2039,
      "For": 2040,
      "erge": 2041,
      "scope": 2042,
      "ĠTypeError": 2043,
      "features": 2044,
      "pool": 2045,
      "itional": 2046,
      "Ġsearch": 2047,
      "Ġwhether": 2048,
      "jango": 2049,
      "Ġtemp": 2050,
      "vironment": 2051,
      "Ġ\"%": 2052,
      "vider": 2053,
      "Ġpassword": 2054,
      "11": 2055,
      "No": 2056,
      "limit": 2057,
      "active": 2058,
      "expected": 2059,
      "Up": 2060,
      "cont": 2061,
      "Ġitems": 2062,
      "mock": 2063,
      "LA": 2064,
      "('/": 2065,
      "si": 2066,
      "oc": 2067,
      "mem": 2068,
      "assertR": 2069,
      "width": 2070,
      "axis": 2071,
      "Ġresp": 2072,
      "Ġdelete": 2073,
      "hout": 2074,
      ")),": 2075,
      "oly": 2076,
      "cul": 2077,
      "]]": 2078,
      "Model": 2079,
      "LI": 2080,
      "old": 2081,
      "difi": 2082,
      "25": 2083,
      "04": 2084,
      "ĠSt": 2085,
      "Ġrandom": 2086,
      "component": 2087,
      "gex": 2088,
      "Ġhandle": 2089,
      "Ġwant": 2090,
      "bution": 2091,
      "Ġ8": 2092,
      "datetime": 2093,
      "Ġ''": 2094,
      "Ġsupport": 2095,
      "Ġmem": 2096,
      "stra": 2097,
      "Ġinteger": 2098,
      "NAME": 2099,
      "vious": 2100,
      "Ġlevel": 2101,
      "Ġfollow": 2102,
      "sup": 2103,
      "Col": 2104,
      "inst": 2105,
      "geo": 2106,
      "Ġcomple": 2107,
      "Ġmetadata": 2108,
      "tuple": 2109,
      "ĠĠĠĠĠĠĠĠĠĠĠĠĠĠĠĠĠĠĠĠĠĠĠĠĠĠĠĠ": 2110,
      "MP": 2111,
      "Ġren": 2112,
      "only": 2113,
      "timeout": 2114,
      "ween": 2115,
      "Ġpost": 2116,
      "exists": 2117,
      "'].": 2118,
      "argument": 2119,
      "ĠIt": 2120,
      "Ġ<=": 2121,
      "Ġfull": 2122,
      "Ġtop": 2123,
      "callback": 2124,
      "conds": 2125,
      "ear": 2126,
      "Ġnodes": 2127,
      "\"),": 2128,
      "ose": 2129,
      "Ġcallback": 2130,
      "ING": 2131,
      "Ġcr": 2132,
      "gin": 2133,
      "Ġwrite": 2134,
      "sol": 2135,
      "Ġcharact": 2136,
      "========": 2137,
      "Ġattributes": 2138,
      "oci": 2139,
      "Ġrule": 2140,
      "equal": 2141,
      "cause": 2142,
      "Ġdimension": 2143,
      "Ġfin": 2144,
      "UN": 2145,
      "system": 2146,
      "Ġdon": 2147,
      "cli": 2148,
      "prob": 2149,
      "dential": 2150,
      "frame": 2151,
      "Ġnumpy": 2152,
      "the": 2153,
      "oper": 2154,
      "handle": 2155,
      "utf": 2156,
      "Config": 2157,
      "ĠUn": 2158,
      "Ġraw": 2159,
      "Ġcom": 2160,
      "\"):": 2161,
      "tree": 2162,
      "sets": 2163,
      "Ġemail": 2164,
      "ĠĠĠĠĠĠĠĠĠĠĠĠĠĠĠĠĠĠĠĠĠĠĠĠĠĠ": 2165,
      "SER": 2166,
      "shot": 2167,
      "Ġsequence": 2168,
      "ics": 2169,
      "thing": 2170,
      "Ġali": 2171,
      "zone": 2172,
      "alid": 2173,
      "000": 2174,
      "Node": 2175,
      "Ġlike": 2176,
      "variable": 2177,
      "cp": 2178,
      "Ġdocument": 2179,
      "uuid": 2180,
      "Ġtri": 2181,
      "ink": 2182,
      "ves": 2183,
      "Ġglobal": 2184,
      "Ġenv": 2185,
      "Ġlimit": 2186,
      "changed": 2187,
      "Implemented": 2188,
      "Ġthread": 2189,
      "Ġjust": 2190,
      "package": 2191,
      "site": 2192,
      "Ġbatch": 2193,
      "TR": 2194,
      "respon": 2195,
      "mod": 2196,
      "ctions": 2197,
      "Ġhere": 2198,
      "gment": 2199,
      "ayload": 2200,
      "Ġmark": 2201,
      "ater": 2202,
      "Ġlogging": 2203,
      "Ġxml": 2204,
      "User": 2205,
      "Ġreq": 2206,
      "assertRaises": 2207,
      "random": 2208,
      "pack": 2209,
      "dist": 2210,
      "nodes": 2211,
      "Time": 2212,
      "Ġlabels": 2213,
      "ush": 2214,
      "Ġdir": 2215,
      "exception": 2216,
      "Ġthey": 2217,
      "Ġ&": 2218,
      "']:": 2219,
      "Ġenum": 2220,
      "FA": 2221,
      "setup": 2222,
      "ince": 2223,
      "derr": 2224,
      "channel": 2225,
      "napshot": 2226,
      "okie": 2227,
      "Ġexample": 2228,
      "exc": 2229,
      "indi": 2230,
      "execute": 2231,
      "Ġencoding": 2232,
      "Ġdoesn": 2233,
      "ttribute": 2234,
      "Ġstruct": 2235,
      "prec": 2236,
      "del": 2237,
      "ĠPro": 2238,
      "cho": 2239,
      "\\\\": 2240,
      "Ġsample": 2241,
      "Ġchannel": 2242,
      "idx": 2243,
      "Ġbetween": 2244,
      "ĠAl": 2245,
      "diff": 2246,
      "valu": 2247,
      "rule": 2248,
      "Ġconfiguration": 2249,
      "ĠĠĠĠĊ": 2250,
      "Ġauto": 2251,
      "any": 2252,
      "display": 2253,
      "Ġvariables": 2254,
      "option": 2255,
      "Ġelements": 2256,
      "ĠAPI": 2257,
      "Ġunicode": 2258,
      "aces": 2259,
      "Ġthem": 2260,
      "sql": 2261,
      "ret": 2262,
      "Ġbin": 2263,
      "unit": 2264,
      "]))": 2265,
      "dim": 2266,
      "ww": 2267,
      "ialized": 2268,
      "patch": 2269,
      "pth": 2270,
      "fs": 2271,
      "Ġsorted": 2272,
      "Ġsuccess": 2273,
      "Ġpub": 2274,
      "Ġexists": 2275,
      "ĠNotImplemented": 2276,
      "gest": 2277,
      "Ġnormal": 2278,
      "tails": 2279,
      "Ġframe": 2280,
      "Dict": 2281,
      "Qu": 2282,
      "Ġtotal": 2283,
      "Ġexisting": 2284,
      "ĠNote": 2285,
      "ason": 2286,
      "Ġta": 2287,
      "ordin": 2288,
      "Ġcustom": 2289,
      "Ġsure": 2290,
      "eded": 2291,
      "ĠNo": 2292,
      "color": 2293,
      "Ġinstead": 2294,
      "rough": 2295,
      "models": 2296,
      "extend": 2297,
      "Ġshow": 2298,
      "Ġcollection": 2299,
      "metry": 2300,
      "Ġjob": 2301,
      "account": 2302,
      "Ġdifferent": 2303,
      "dered": 2304,
      "proper": 2305,
      "Ġadded": 2306,
      "Ġoriginal": 2307,
      "product": 2308,
      "20": 2309,
      "Ġvar": 2310,
      "labels": 2311,
      "ĉĉĉ": 2312,
      "hash": 2313,
      "contain": 2314,
      "tx": 2315,
      "Ġkeyword": 2316,
      "cat": 2317,
      "Ġeither": 2318,
      "Ġunit": 2319,
      "Ġtitle": 2320,
      "Ġstrings": 2321,
      "Ġtree": 2322,
      "entic": 2323,
      "bose": 2324,
      "ware": 2325,
      "``.": 2326,
      "Ġsystem": 2327,
      "ont": 2328,
      "deo": 2329,
      "Ġops": 2330,
      ":]": 2331,
      "Ġcomponent": 2332,
      "essage": 2333,
      "Ġotherwise": 2334,
      "Ġcorrespon": 2335,
      "Ġbecause": 2336,
      "inputs": 2337,
      "aded": 2338,
      "Ġdisable": 2339,
      "Ġtrue": 2340,
      "Ġnow": 2341,
      "Ġmask": 2342,
      "ithout": 2343,
      "ored": 2344,
      "Ġsave": 2345,
      "rep": 2346,
      "lied": 2347,
      "ending": 2348,
      "ven": 2349,
      "full": 2350,
      "Ġapi": 2351,
      "alcul": 2352,
      "groups": 2353,
      "Ġids": 2354,
      "python": 2355,
      "keep": 2356,
      "over": 2357,
      "mbol": 2358,
      "Ġsend": 2359,
      "ertifi": 2360,
      "ffect": 2361,
      "ĠNotImplementedError": 2362,
      "Ġdefined": 2363,
      "']['": 2364,
      "arnings": 2365,
      "Ġoffset": 2366,
      "Ġmis": 2367,
      "ions": 2368,
      "\"))": 2369,
      "profile": 2370,
      "Is": 2371,
      "Ġright": 2372,
      "Run": 2373,
      ")[": 2374,
      "comple": 2375,
      "points": 2376,
      "ures": 2377,
      "Ġ7": 2378,
      "offset": 2379,
      "ĠHTTP": 2380,
      "Ġter": 2381,
      "train": 2382,
      "OG": 2383,
      "Ġlayer": 2384,
      "dump": 2385,
      "ived": 2386,
      "Ġtests": 2387,
      "matrix": 2388,
      "Ġdescription": 2389,
      "Ġdown": 2390,
      "Ġmath": 2391,
      "Ġaccount": 2392,
      "dev": 2393,
      "Ġsi": 2394,
      "rop": 2395,
      "Ġus": 2396,
      "Ġreal": 2397,
      "penden": 2398,
      "cies": 2399,
      "known": 2400,
      "fin": 2401,
      "Ġreplace": 2402,
      "metri": 2403,
      "Ġpla": 2404,
      "stack": 2405,
      "ock": 2406,
      "Ġ{\"": 2407,
      "16": 2408,
      "vars": 2409,
      "ices": 2410,
      "Ġentity": 2411,
      "itive": 2412,
      "Out": 2413,
      "stop": 2414,
      "pha": 2415,
      "ob": 2416,
      "ident": 2417,
      "book": 2418,
      "Ġsa": 2419,
      "NO": 2420,
      "Ġbeing": 2421,
      "ĠRaises": 2422,
      "example": 2423,
      "ĠĠĠĠĠĠĠĠĠĠĠĠĠĠĠĠĠĠĠĠĠĠĠĠĠĠĠĠĠ": 2424,
      "Ġchanged": 2425,
      "Ġip": 2426,
      "FF": 2427,
      "Comp": 2428,
      "used": 2429,
      "ssible": 2430,
      "rans": 2431,
      "lice": 2432,
      "mal": 2433,
      "true": 2434,
      "Ġcolor": 2435,
      "Met": 2436,
      "Ġexc": 2437,
      "Ġtrain": 2438,
      "ination": 2439,
      "bit": 2440,
      "Object": 2441,
      "mon": 2442,
      "errors": 2443,
      "ĠĠĠĠĠĠĠĠĠĠĠĠĠĠĠĠĠĠĠĠĠĠĠĠĠĠĠĠĠĠ": 2444,
      "Ġcontains": 2445,
      "vm": 2446,
      "Ġconnect": 2447,
      "ribution": 2448,
      "ializer": 2449,
      "manager": 2450,
      "Ġwithout": 2451,
      "clo": 2452,
      "Ġcho": 2453,
      "handler": 2454,
      "Ġinvalid": 2455,
      "Ġopt": 2456,
      "SON": 2457,
      "description": 2458,
      "Ġsecond": 2459,
      "Ġ(\"": 2460,
      "untime": 2461,
      "dest": 2462,
      "kens": 2463,
      "attributes": 2464,
      "Ġplugin": 2465,
      "Ġexpression": 2466,
      "returns": 2467,
      "Ġtypes": 2468,
      "Ġhash": 2469,
      "ically": 2470,
      "lambda": 2471,
      "fg": 2472,
      "ansp": 2473,
      "NT": 2474,
      "AB": 2475,
      "children": 2476,
      "Invalid": 2477,
      "ward": 2478,
      "scriptor": 2479,
      "...": 2480,
      "orig": 2481,
      "IT": 2482,
      "dentials": 2483,
      "Ġfeature": 2484,
      "let": 2485,
      "term": 2486,
      "tach": 2487,
      "author": 2488,
      "ways": 2489,
      "cc": 2490,
      "lint": 2491,
      "entity": 2492,
      "ster": 2493,
      "ULT": 2494,
      "andard": 2495,
      "Ġconvert": 2496,
      "tf": 2497,
      "tmp": 2498,
      "med": 2499,
      "decode": 2500,
      "Ġ'-": 2501,
      "Ġclean": 2502,
      "Ġsplit": 2503,
      "cast": 2504,
      "txt": 2505,
      "ĠDefault": 2506,
      "sys": 2507,
      "ĠUser": 2508,
      "erate": 2509,
      "login": 2510,
      "src": 2511,
      "gine": 2512,
      "Ġimplement": 2513,
      "=%": 2514,
      "Ġlambda": 2515,
      "UP": 2516,
      "Ġsupported": 2517,
      "show": 2518,
      "Ġasync": 2519,
      "cheme": 2520,
      "az": 2521,
      "ourse": 2522,
      "environ": 2523,
      "ffix": 2524,
      "vision": 2525,
      "dient": 2526,
      "ffi": 2527,
      "collection": 2528,
      "Ġbased": 2529,
      "sha": 2530,
      "Ġforce": 2531,
      "uted": 2532,
      "Ġskip": 2533,
      "indices": 2534,
      "KE": 2535,
      "ĠIP": 2536,
      "ĠTO": 2537,
      "Auth": 2538,
      "Ġmodels": 2539,
      "Ġscope": 2540,
      "TION": 2541,
      "Ġassoci": 2542,
      "import": 2543,
      "Ġpair": 2544,
      "umber": 2545,
      "tags": 2546,
      "Ġcond": 2547,
      "ges": 2548,
      "lt": 2549,
      "structor": 2550,
      "bot": 2551,
      "Ġfailed": 2552,
      "Ġusername": 2553,
      "eros": 2554,
      "TYPE": 2555,
      "ĠĠĠĠĠĠĠĠĠĠĠĠĠĠĠĠĠĠĠĠĠĠĠĠĠĠĠĠĠĠĠĠĠĠĠ": 2556,
      "Ġ%(": 2557,
      "go": 2558,
      "case": 2559,
      "tem": 2560,
      "Ġinputs": 2561,
      "gnore": 2562,
      "Ġword": 2563,
      "02": 2564,
      "Ġ[\"": 2565,
      "Ġconf": 2566,
      "Ġunique": 2567,
      "Ġmultiple": 2568,
      "ĠLo": 2569,
      "nsor": 2570,
      "ered": 2571,
      ":`.": 2572,
      "gen": 2573,
      "less": 2574,
      "Ġwindow": 2575,
      "non": 2576,
      "Ġstop": 2577,
      "empty": 2578,
      "serialize": 2579,
      "####": 2580,
      "rows": 2581,
      "gor": 2582,
      "states": 2583,
      "Bu": 2584,
      "olean": 2585,
      "Ġwait": 2586,
      "ernel": 2587,
      "SC": 2588,
      "auto": 2589,
      "cret": 2590,
      "hel": 2591,
      "\"],": 2592,
      "200": 2593,
      "Ġwidth": 2594,
      "ged": 2595,
      "Ġposition": 2596,
      "Text": 2597,
      "ttp": 2598,
      "izer": 2599,
      "witch": 2600,
      "ost": 2601,
      "aml": 2602,
      "Ġcell": 2603,
      "Ġproduct": 2604,
      "ators": 2605,
      "alias": 2606,
      "hort": 2607,
      "Ġhandler": 2608,
      "wh": 2609,
      "rm": 2610,
      "VER": 2611,
      "IO": 2612,
      "Ġreference": 2613,
      "ually": 2614,
      "Ġcli": 2615,
      "Ġdep": 2616,
      "unter": 2617,
      "pc": 2618,
      "Group": 2619,
      "Ġboth": 2620,
      "leted": 2621,
      "annot": 2622,
      "Ġbound": 2623,
      "cell": 2624,
      "vate": 2625,
      "ĠList": 2626,
      "aw": 2627,
      "plugin": 2628,
      "parser": 2629,
      "Ġrece": 2630,
      "resh": 2631,
      "Ġindices": 2632,
      "position": 2633,
      "Ġprevious": 2634,
      "Client": 2635,
      "logger": 2636,
      "]['": 2637,
      "By": 2638,
      "HTTP": 2639,
      "required": 2640,
      "Ġenumerate": 2641,
      "thread": 2642,
      "gress": 2643,
      "Ġpattern": 2644,
      "bool": 2645,
      "Ġtake": 2646,
      "ek": 2647,
      "termin": 2648,
      "Log": 2649,
      "gram": 2650,
      "Factory": 2651,
      "ĠLOG": 2652,
      "sample": 2653,
      "ĠExamples": 2654,
      "policy": 2655,
      "CONF": 2656,
      "allow": 2657,
      "Ġpylint": 2658,
      "Ġspecific": 2659,
      "Ġactual": 2660,
      "ranch": 2661,
      "late": 2662,
      "ome": 2663,
      "=(": 2664,
      "eo": 2665,
      "speci": 2666,
      "ards": 2667,
      "Ġreverse": 2668,
      "Index": 2669,
      "Message": 2670,
      "State": 2671,
      "abs": 2672,
      "\">": 2673,
      "cry": 2674,
      "Ġconver": 2675,
      "gg": 2676,
      "Ġnd": 2677,
      "total": 2678,
      "Ġabout": 2679,
      "Ġchunk": 2680,
      "pn": 2681,
      "Ġinitial": 2682,
      "34": 2683,
      "ured": 2684,
      "verage": 2685,
      "remo": 2686,
      "mean": 2687,
      "sort": 2688,
      "imat": 2689,
      "Ġextension": 2690,
      "columns": 2691,
      "HE": 2692,
      "licit": 2693,
      "Ġ200": 2694,
      "stdout": 2695,
      "Content": 2696,
      "des": 2697,
      "ank": 2698,
      "Class": 2699,
      "Ġhelp": 2700,
      "Ġretri": 2701,
      "Ġcolumns": 2702,
      "cer": 2703,
      "ĠĠĠĠĠĠĠĠĠĠĠĠĠĠĠĠĠĠĠĠĠĠĠĠĠĠĠĠĠĠĠĠĠ": 2704,
      "ability": 2705,
      "ensure": 2706,
      "gre": 2707,
      "Ġmon": 2708,
      "MAIN": 2709,
      "utton": 2710,
      "Ġqueue": 2711,
      "ĠRes": 2712,
      "Ġleft": 2713,
      "Ġdefin": 2714,
      "201": 2715,
      "dified": 2716,
      "Ġstack": 2717,
      "Ġgo": 2718,
      "Info": 2719,
      "100": 2720,
      "ĠKeyError": 2721,
      "raise": 2722,
      "ertificate": 2723,
      "plot": 2724,
      "ily": 2725,
      "edit": 2726,
      "Ġcallable": 2727,
      "ĠAs": 2728,
      "Ġpi": 2729,
      "opt": 2730,
      "ys": 2731,
      "Connection": 2732,
      "Ġpoints": 2733,
      "Ġassign": 2734,
      "lish": 2735,
      "Ġcontainer": 2736,
      "sue": 2737,
      "ency": 2738,
      "GET": 2739,
      "itu": 2740,
      "optional": 2741,
      "Ġdebug": 2742,
      "Ġthrough": 2743,
      "FAULT": 2744,
      "addr": 2745,
      "Ġpresent": 2746,
      "ĠWhen": 2747,
      "Ġhtml": 2748,
      "Found": 2749,
      "Ġtmp": 2750,
      "Ġsrc": 2751,
      "Ġindic": 2752,
      "Ġ'_": 2753,
      "ĠDi": 2754,
      "OK": 2755,
      "Ġvis": 2756,
      "ux": 2757,
      "Ġmain": 2758,
      "Ġequal": 2759,
      "Ġstore": 2760,
      "warning": 2761,
      "ION": 2762,
      "uter": 2763,
      "50": 2764,
      "bers": 2765,
      "\"])": 2766,
      "brow": 2767,
      "Ġob": 2768,
      "Ġweights": 2769,
      "Result": 2770,
      "wd": 2771,
      "ision": 2772,
      "Ġcursor": 2773,
      "Ġagain": 2774,
      "[:,": 2775,
      "Ġtheir": 2776,
      "Ġcorresponding": 2777,
      "sen": 2778,
      "straint": 2779,
      "precated": 2780,
      "Ġunder": 2781,
      "IP": 2782,
      "Ġappro": 2783,
      "ĠTODO": 2784,
      "Ġpossible": 2785,
      "ely": 2786,
      "cimal": 2787,
      "scale": 2788,
      "lative": 2789,
      "]),": 2790,
      "dims": 2791,
      "normal": 2792,
      "convert": 2793,
      "buffer": 2794,
      "ends": 2795,
      "(**": 2796,
      "enu": 2797,
      "Ġgenerate": 2798,
      "left": 2799,
      "Ġmove": 2800,
      ":%": 2801,
      "Ġwithin": 2802,
      "MO": 2803,
      "Ġ):": 2804,
      "Ġsetup": 2805,
      "loads": 2806,
      "alog": 2807,
      "migr": 2808,
      "paths": 2809,
      "ilt": 2810,
      "constant": 2811,
      "Ġph": 2812,
      "Ġignore": 2813,
      "ended": 2814,
      "rf": 2815,
      "Ġdistribution": 2816,
      "delta": 2817,
      "Ġcannot": 2818,
      "fol": 2819,
      "done": 2820,
      "language": 2821,
      "Ġlanguage": 2822,
      "Ġzip": 2823,
      "peline": 2824,
      "Ġrender": 2825,
      "desc": 2826,
      "Ġsuch": 2827,
      "Ġmatches": 2828,
      "Ġconstant": 2829,
      "Sub": 2830,
      "EX": 2831,
      "Ġ'\\": 2832,
      "Ġclo": 2833,
      "global": 2834,
      "istory": 2835,
      "ving": 2836,
      "rection": 2837,
      "clean": 2838,
      "Ġsha": 2839,
      "unicode": 2840,
      "Ġcluster": 2841,
      "Ġmessages": 2842,
      "Ġsection": 2843,
      "Ġflag": 2844,
      "URL": 2845,
      "ĠUse": 2846,
      "QL": 2847,
      "ET": 2848,
      "eve": 2849,
      "ogle": 2850,
      "Ġest": 2851,
      "Ġpaths": 2852,
      "cap": 2853,
      "Ġinterface": 2854,
      "24": 2855,
      "ould": 2856,
      "Ġbyte": 2857,
      "validate": 2858,
      "Ġimp": 2859,
      "storage": 2860,
      "asic": 2861,
      "Ġsort": 2862,
      ".'": 2863,
      "UR": 2864,
      "gate": 2865,
      "ava": 2866,
      "Ġtags": 2867,
      "mage": 2868,
      "Ġevery": 2869,
      "Ġ},": 2870,
      "Read": 2871,
      "Ġcontents": 2872,
      "Ġcons": 2873,
      "Ġenvironment": 2874,
      "Ġwho": 2875,
      "Ġsince": 2876,
      "Call": 2877,
      "ites": 2878,
      "Ġassociated": 2879,
      "rate": 2880,
      "bound": 2881,
      "Context": 2882,
      "ummy": 2883,
      "Ġrows": 2884,
      "ĠOn": 2885,
      "ift": 2886,
      "UE": 2887,
      "Ġmean": 2888,
      "curs": 2889,
      "Ġcontrol": 2890,
      "ration": 2891,
      "Ġsc": 2892,
      "Ġcateg": 2893,
      "vals": 2894,
      "pter": 2895,
      "real": 2896,
      "Ġvalidate": 2897,
      "Ġchanges": 2898,
      "stats": 2899,
      "hold": 2900,
      "Ġmigr": 2901,
      "()[": 2902,
      "platform": 2903,
      "Ġ9": 2904,
      "Ġnamespace": 2905,
      "Init": 2906,
      "safe": 2907,
      "window": 2908,
      "Ġkeep": 2909,
      "Ġmy": 2910,
      "Oper": 2911,
      "install": 2912,
      "she": 2913,
      "Ġ((": 2914,
      "Ġ12": 2915,
      "Ġwould": 2916,
      "fl": 2917,
      "idden": 2918,
      "App": 2919,
      "Bo": 2920,
      "Ġ'--": 2921,
      "Ġrep": 2922,
      "olve": 2923,
      "Ġoverride": 2924,
      "({'": 2925,
      "Ġmapping": 2926,
      "Ġlook": 2927,
      "emplate": 2928,
      "Ġsocket": 2929,
      "style": 2930,
      "OT": 2931,
      "usage": 2932,
      "missions": 2933,
      "Ġpython": 2934,
      "Ġfeatures": 2935,
      "Do": 2936,
      "dot": 2937,
      "Ġndarray": 2938,
      "render": 2939,
      "math": 2940,
      "coder": 2941,
      "pattern": 2942,
      "Al": 2943,
      "/%": 2944,
      "Query": 2945,
      "posit": 2946,
      "ĠOptional": 2947,
      "Ġlong": 2948,
      "fit": 2949,
      "ĠZ": 2950,
      "ĠComp": 2951,
      "rec": 2952,
      "Ġmetri": 2953,
      "Ġsent": 2954,
      "Ġencode": 2955,
      "custom": 2956,
      "wrap": 2957,
      "vl": 2958,
      "Ġstri": 2959,
      "ins": 2960,
      "zip": 2961,
      "Ġsetting": 2962,
      "uring": 2963,
      "ube": 2964,
      "ttributeError": 2965,
      "Le": 2966,
      "schema": 2967,
      "aries": 2968,
      "mul": 2969,
      "greg": 2970,
      "PAT": 2971,
      "commit": 2972,
      "assertEquals": 2973,
      "exit": 2974,
      "fetch": 2975,
      "encoding": 2976,
      "Ġpk": 2977,
      "Ġparsed": 2978,
      "ersion": 2979,
      "Ġplace": 2980,
      "register": 2981,
      "sparse": 2982,
      "Ġrequire": 2983,
      "Ġconn": 2984,
      "proxy": 2985,
      "added": 2986,
      "ik": 2987,
      "Ġmissing": 2988,
      "Ġrunning": 2989,
      "ĠJSON": 2990,
      "height": 2991,
      "ĠMake": 2992,
      "Or": 2993,
      "Sy": 2994,
      "sv": 2995,
      "Ġ100": 2996,
      "assertIn": 2997,
      "assertFalse": 2998,
      "33": 2999,
      "Ġdecor": 3000,
      "Ġremote": 3001,
      "dio": 3002,
      "Ġwarnings": 3003,
      "Ġreport": 3004,
      "als": 3005,
      "light": 3006,
      "conn": 3007,
      "Ġcompute": 3008,
      "Ġrequests": 3009,
      "raises": 3010,
      "Ġalways": 3011,
      "ĠName": 3012,
      "ĠĠĠĠĠĠĠĠĠĠĠĠĠĠĠĠĠĠĠĠĠĠĠĠĠĠĠĠĠĠĠĠĠĠ": 3013,
      "From": 3014,
      "Ġsignature": 3015,
      "Ġclose": 3016,
      "Ġwrap": 3017,
      "As": 3018,
      "Valid": 3019,
      "(['": 3020,
      "``,": 3021,
      "Ġnamed": 3022,
      "Ġneeded": 3023,
      "Ġzero": 3024,
      "gorith": 3025,
      "insert": 3026,
      "Ġsparse": 3027,
      "Ġow": 3028,
      "hook": 3029,
      "Ġinstances": 3030,
      "ams": 3031,
      "Ġfollowing": 3032,
      "expr": 3033,
      "seq": 3034,
      "15": 3035,
      "until": 3036,
      "opts": 3037,
      "Ġredirect": 3038,
      "git": 3039,
      "ui": 3040,
      "Ġaccept": 3041,
      "flags": 3042,
      "VI": 3043,
      "TER": 3044,
      "Ġdataset": 3045,
      "Ġmatching": 3046,
      "Ent": 3047,
      "itude": 3048,
      "rs": 3049,
      "uplic": 3050,
      "loss": 3051,
      "LOG": 3052,
      "ibility": 3053,
      "Base": 3054,
      "most": 3055,
      "Ġupdated": 3056,
      "Ġcoordin": 3057,
      "erson": 3058,
      "directory": 3059,
      "Ġday": 3060,
      "BU": 3061,
      "Ġdone": 3062,
      "Ġproperty": 3063,
      "Ġscript": 3064,
      "Ġspec": 3065,
      "Ġjoin": 3066,
      "ire": 3067,
      "Ġfilters": 3068,
      "FOR": 3069,
      "meth": 3070,
      "Ġlookup": 3071,
      "poch": 3072,
      "ĠTensor": 3073,
      "Ġfix": 3074,
      "Ġans": 3075,
      "Ġpool": 3076,
      "application": 3077,
      "Ġboolean": 3078,
      "void": 3079,
      "feature": 3080,
      "spe": 3081,
      "Event": 3082,
      "ĠData": 3083,
      "Ġinclu": 3084,
      "Output": 3085,
      "invalid": 3086,
      "Ġloop": 3087,
      "GER": 3088,
      "Ġloc": 3089,
      "OP": 3090,
      "vs": 3091,
      "curity": 3092,
      "Ġ',": 3093,
      "Frame": 3094,
      "solute": 3095,
      "ceback": 3096,
      "aved": 3097,
      "Gener": 3098,
      "lis": 3099,
      "Ġproperties": 3100,
      "Ġ})": 3101,
      "55": 3102,
      "Ġour": 3103,
      "Ġdefaults": 3104,
      "Man": 3105,
      "Ġsepar": 3106,
      "ND": 3107,
      "long": 3108,
      "success": 3109,
      "Ġspecify": 3110,
      "Ġoc": 3111,
      "TH": 3112,
      "adding": 3113,
      "Ġdetails": 3114,
      "score": 3115,
      "Ġpick": 3116,
      "Ġpolicy": 3117,
      "Ġ'<": 3118,
      "Ġrepresenting": 3119,
      "fd": 3120,
      "Module": 3121,
      "namespace": 3122,
      "hol": 3123,
      "ross": 3124,
      "unique": 3125,
      "Ġallowed": 3126,
      "'}": 3127,
      "home": 3128,
      "Ġhref": 3129,
      "riter": 3130,
      "year": 3131,
      "Ġstdout": 3132,
      "TML": 3133,
      "Ġflat": 3134,
      "attrs": 3135,
      "ED": 3136,
      "Ġrepresentation": 3137,
      "ls": 3138,
      "Ġschema": 3139,
      "This": 3140,
      "users": 3141,
      "forms": 3142,
      "chedule": 3143,
      "Ġauthor": 3144,
      "Ġthese": 3145,
      "track": 3146,
      "SH": 3147,
      "timestamp": 3148,
      "(-": 3149,
      "18": 3150,
      "clear": 3151,
      "POST": 3152,
      "Ġdf": 3153,
      "ases": 3154,
      "Des": 3155,
      "Exist": 3156,
      "Ġwrit": 3157,
      "mpy": 3158,
      "hould": 3159,
      "af": 3160,
      "ffici": 3161,
      "gative": 3162,
      "modules": 3163,
      "medi": 3164,
      "Ġfra": 3165,
      "interface": 3166,
      "Ġtrack": 3167,
      "Ġcould": 3168,
      "'][": 3169,
      "Ġextract": 3170,
      "zeros": 3171,
      "Ġcalls": 3172,
      "tt": 3173,
      "weights": 3174,
      "icle": 3175,
      "ferences": 3176,
      "Ġyour": 3177,
      "attribute": 3178,
      "warn": 3179,
      "Ġcommands": 3180,
      "Ġctx": 3181,
      "role": 3182,
      "pat": 3183,
      "Ġcomment": 3184,
      "Ġpredi": 3185,
      "ian": 3186,
      "ives": 3187,
      "uture": 3188,
      "Instance": 3189,
      "mount": 3190,
      "Line": 3191,
      "ntax": 3192,
      "Ġarch": 3193,
      "driver": 3194,
      "30": 3195,
      "categ": 3196,
      "LECT": 3197,
      "Item": 3198,
      "Ġverify": 3199,
      "rtual": 3200,
      "Ġwidget": 3201,
      "pa": 3202,
      "report": 3203,
      "Ġbuffer": 3204,
      "socket": 3205,
      "iod": 3206,
      "board": 3207,
      "member": 3208,
      "Ġcalcul": 3209,
      "Ġ[(": 3210,
      "Ġbinary": 3211,
      "]])": 3212,
      "edi": 3213,
      "include": 3214,
      "SO": 3215,
      "ified": 3216,
      "API": 3217,
      "erify": 3218,
      "loy": 3219,
      "Ġevents": 3220,
      "Ġfinally": 3221,
      "olling": 3222,
      "At": 3223,
      "KEY": 3224,
      "pository": 3225,
      "ilter": 3226,
      "Ġapplication": 3227,
      "bed": 3228,
      "14": 3229,
      "IL": 3230,
      "ancel": 3231,
      "vari": 3232,
      "Ġgen": 3233,
      "]):": 3234,
      "Ġwhat": 3235,
      "using": 3236,
      "compute": 3237,
      "('%": 3238,
      "Dis": 3239,
      "fra": 3240,
      "requ": 3241,
      "activ": 3242,
      "ather": 3243,
      "Ġsix": 3244,
      "Size": 3245,
      "sl": 3246,
      "Ġinstall": 3247,
      "imator": 3248,
      "AP": 3249,
      "ested": 3250,
      "Ġflags": 3251,
      "video": 3252,
      "19": 3253,
      "Ġcompat": 3254,
      "sq": 3255,
      "stderr": 3256,
      "Graph": 3257,
      "pl": 3258,
      "olution": 3259,
      "ferred": 3260,
      "pid": 3261,
      "Ġscale": 3262,
      "tected": 3263,
      "Ġparts": 3264,
      "Form": 3265,
      "tests": 3266,
      "cores": 3267,
      "container": 3268,
      "Ġactive": 3269,
      "teger": 3270,
      "cle": 3271,
      "('\\": 3272,
      "quote": 3273,
      "ĠĠĠĠĠĠĠĠĠĠĠĠĠĠĠĠĠĠĠĠĠĠĠĠĠĠĠĠĠĠĠĠĠĠĠĠ": 3274,
      "Ġcharacters": 3275,
      "parts": 3276,
      "Ġclasses": 3277,
      "Ġpatch": 3278,
      "iew": 3279,
      "Table": 3280,
      "ĠĠĠĠĠĠĠĠĠĠĠĠĠĠĠĠĠĠĠĠĠĠĠĠĠĠĠĠĠĠĠĠĠĠĠĠĠĠĠ": 3281,
      "DOMAIN": 3282,
      "ories": 3283,
      "ĠDE": 3284,
      "yp": 3285,
      "bind": 3286,
      "web": 3287,
      "ĠCourse": 3288,
      "partner": 3289,
      "gorithm": 3290,
      "ĠEn": 3291,
      "filters": 3292,
      ").__": 3293,
      "Ġproblem": 3294,
      "Ġremoved": 3295,
      "Ġstudent": 3296,
      "tab": 3297,
      "Ġraised": 3298,
      "reverse": 3299,
      "Ġway": 3300,
      "lookup": 3301,
      "ĠAttributeError": 3302,
      "factory": 3303,
      "Ġseconds": 3304,
      "Ġcommon": 3305,
      "remote": 3306,
      "ĠCh": 3307,
      "guments": 3308,
      "PO": 3309,
      "available": 3310,
      "student": 3311,
      "compile": 3312,
      "Ġmeta": 3313,
      "Ġprofile": 3314,
      "comment": 3315,
      "Ġvector": 3316,
      "Ġusers": 3317,
      "fficient": 3318,
      "rer": 3319,
      "properties": 3320,
      "}.": 3321,
      "Ġpop": 3322,
      "Ġentries": 3323,
      "Ġalias": 3324,
      "pendencies": 3325,
      "roller": 3326,
      "interval": 3327,
      "media": 3328,
      "MS": 3329,
      "ze": 3330,
      "Ġloss": 3331,
      "Ġtimestamp": 3332,
      "utable": 3333,
      "Per": 3334,
      "Ġevalu": 3335,
      "gger": 3336,
      "zero": 3337,
      "Ġmethods": 3338,
      "category": 3339,
      "CK": 3340,
      "repo": 3341,
      "Ġdt": 3342,
      "Ġmerge": 3343,
      "cluster": 3344,
      "dt": 3345,
      "([[": 3346,
      "vers": 3347,
      "ĠĠĠĠĠĠĠĠĠĠĠĠĠĠĠĠĠĠĠĠĠĠĠĠĠĠĠĠĠĠĠĠĠĠĠĠĠ": 3348,
      "Ġbackend": 3349,
      "mbers": 3350,
      "Ġstructure": 3351,
      "Map": 3352,
      "release": 3353,
      "multi": 3354,
      "\").": 3355,
      "(\"%": 3356,
      "Ġgeo": 3357,
      "ilder": 3358,
      "Inter": 3359,
      "Update": 3360,
      "eta": 3361,
      "PA": 3362,
      "etwork": 3363,
      "pair": 3364,
      "hing": 3365,
      "chunk": 3366,
      "Ġ[])": 3367,
      "Ġrelative": 3368,
      "Ġstandard": 3369,
      "Input": 3370,
      "enabled": 3371,
      "Ġapply": 3372,
      "au": 3373,
      "Ġattemp": 3374,
      "secret": 3375,
      "flat": 3376,
      "tc": 3377,
      "ABLE": 3378,
      "Ġvm": 3379,
      "Ġselected": 3380,
      "Format": 3381,
      "ĠTo": 3382,
      "cessed": 3383,
      "Ġcharacter": 3384,
      "-%": 3385,
      "Ġscalar": 3386,
      "ĉĉĉĉ": 3387,
      "ĠUp": 3388,
      "endswith": 3389,
      "Ġmedia": 3390,
      "Ġvia": 3391,
      "dumps": 3392,
      "tered": 3393,
      "FO": 3394,
      "Ġlock": 3395,
      "__,": 3396,
      "US": 3397,
      "Ġrole": 3398,
      "Ġdistance": 3399,
      "Ġrest": 3400,
      "rest": 3401,
      "Ġstorage": 3402,
      "56": 3403,
      "messages": 3404,
      "assertIs": 3405,
      "Ġfunctions": 3406,
      "public": 3407,
      "EL": 3408,
      "Ġanother": 3409,
      "Ġvari": 3410,
      "contents": 3411,
      "ache": 3412,
      "Point": 3413,
      "termine": 3414,
      "ĠHttp": 3415,
      ")])": 3416,
      "dirname": 3417,
      "sec": 3418,
      "grade": 3419,
      "Ġchildren": 3420,
      "Ġidx": 3421,
      "ground": 3422,
      "Ġcent": 3423,
      "()))": 3424,
      "An": 3425,
      "NotFound": 3426,
      "PATH": 3427,
      "mpt": 3428,
      "bucket": 3429,
      "css": 3430,
      "Version": 3431,
      "Trans": 3432,
      "mi": 3433,
      "actions": 3434,
      "Date": 3435,
      "Ġpayload": 3436,
      "Ġgroups": 3437,
      "control": 3438,
      "norm": 3439,
      "Ġmulti": 3440,
      "Ġsim": 3441,
      "reshold": 3442,
      "force": 3443,
      "Ġwrapper": 3444,
      "esca": 3445,
      "Ġsympy": 3446,
      "Ġprotocol": 3447,
      "win": 3448,
      "related": 3449,
      "rank": 3450,
      "Ġ[[": 3451,
      "assign": 3452,
      "Ġgenerated": 3453,
      "Ġsupp": 3454,
      "correct": 3455,
      "ĠAlso": 3456,
      "cessary": 3457,
      "Parse": 3458,
      "skip": 3459,
      "Ġmaximum": 3460,
      "sep": 3461,
      "Ġactiv": 3462,
      "Ġbeha": 3463,
      "topic": 3464,
      "Ġattrs": 3465,
      "cla": 3466,
      "sca": 3467,
      "GS": 3468,
      "tk": 3469,
      "Ġplatform": 3470,
      "80": 3471,
      "cursor": 3472,
      "Ġgot": 3473,
      "Contain": 3474,
      "outputs": 3475,
      "DEFAULT": 3476,
      "andid": 3477,
      "Ġsm": 3478,
      "}'.": 3479,
      "raft": 3480,
      "verify": 3481,
      ":`~": 3482,
      "Ġtransform": 3483,
      "Ġwere": 3484,
      "idd": 3485,
      "Ġheight": 3486,
      "where": 3487,
      "Ġusage": 3488,
      "Ġsignal": 3489,
      "Ġbegin": 3490,
      "Tests": 3491,
      "dify": 3492,
      "Failed": 3493,
      "Ġopts": 3494,
      "Ġfetch": 3495,
      "Ext": 3496,
      "components": 3497,
      "[:-": 3498,
      "Ġstyle": 3499,
      "Ġensure": 3500,
      "changes": 3501,
      "Ġexpect": 3502,
      "Ġutils": 3503,
      "Ġcap": 3504,
      "ATION": 3505,
      "grid": 3506,
      "provider": 3507,
      "Ġadmin": 3508,
      "13": 3509,
      "Ġiterable": 3510,
      "seconds": 3511,
      "Process": 3512,
      "Ġfeed": 3513,
      "keyword": 3514,
      "Ġscore": 3515,
      ".)": 3516,
      "eno": 3517,
      "enum": 3518,
      "geom": 3519,
      "ness": 3520,
      "lished": 3521,
      "Ġsamples": 3522,
      "fill": 3523,
      "Ġmod": 3524,
      "Ġsuccessful": 3525,
      "Ġstored": 3526,
      "bad": 3527,
      "reset": 3528,
      "Ġ\"/": 3529,
      "bl": 3530,
      "Ġinternal": 3531,
      "UM": 3532,
      "metric": 3533,
      "pace": 3534,
      "ĠPo": 3535,
      "Ġcategory": 3536,
      "All": 3537,
      "leep": 3538,
      "acy": 3539,
      "defined": 3540,
      "ansport": 3541,
      "ping": 3542,
      "Ġfinal": 3543,
      "Ġspace": 3544,
      "Parser": 3545,
      "PRO": 3546,
      "protocol": 3547,
      "ĠOther": 3548,
      "ctx": 3549,
      "ĠDo": 3550,
      "sequence": 3551,
      "Ġdisk": 3552,
      "Session": 3553,
      "Ġuntil": 3554,
      "button": 3555,
      "loop": 3556,
      "Ġoutputs": 3557,
      "gno": 3558,
      "operation": 3559,
      "Ġkw": 3560,
      "https": 3561,
      "Th": 3562,
      "={'": 3563,
      "DB": 3564,
      "come": 3565,
      "ĠGener": 3566,
      "park": 3567,
      "ority": 3568,
      "Ġsite": 3569,
      "Ġweb": 3570,
      "Ġreason": 3571,
      "Ġmemory": 3572,
      "'re": 3573,
      "View": 3574,
      "mbols": 3575,
      "Ġfn": 3576,
      "Fe": 3577,
      "Pre": 3578,
      "Ġcoe": 3579,
      "formed": 3580,
      "poly": 3581,
      "extension": 3582,
      "ATA": 3583,
      "FILE": 3584,
      "transform": 3585,
      "Ġsql": 3586,
      "Ġarrays": 3587,
      "center": 3588,
      "ports": 3589,
      "Ġadditional": 3590,
      "Array": 3591,
      ",)": 3592,
      "Ġverbose": 3593,
      "pare": 3594,
      "nsure": 3595,
      "Page": 3596,
      "Ġmost": 3597,
      "serv": 3598,
      "\",\"": 3599,
      "voice": 3600,
      "nsible": 3601,
      "hes": 3602,
      "dep": 3603,
      "eval": 3604,
      "03": 3605,
      "Ġrelated": 3606,
      "numpy": 3607,
      "redirect": 3608,
      "Ġ'')": 3609,
      "entries": 3610,
      "Ġsnapshot": 3611,
      "zz": 3612,
      "widget": 3613,
      "Ġexclude": 3614,
      "Ġmeans": 3615,
      "chain": 3616,
      "Ġpack": 3617,
      "Ġdesc": 3618,
      "izes": 3619,
      "tz": 3620,
      "'\\": 3621,
      "Ġassume": 3622,
      "document": 3623,
      "TO": 3624,
      "ony": 3625,
      "iddle": 3626,
      "repr": 3627,
      "Ġedge": 3628,
      "regex": 3629,
      "ĠArguments": 3630,
      "Handler": 3631,
      "Ġenabled": 3632,
      "Ġgenerator": 3633,
      "loader": 3634,
      "Ġsimple": 3635,
      "alt": 3636,
      "Ġtokens": 3637,
      "amily": 3638,
      "%(": 3639,
      "coord": 3640,
      "rence": 3641,
      "_,": 3642,
      "strict": 3643,
      "initial": 3644,
      "Ġimplementation": 3645,
      "oken": 3646,
      "reshape": 3647,
      "eries": 3648,
      "xture": 3649,
      "Ġ\".": 3650,
      "Ġenable": 3651,
      "Ġfp": 3652,
      "Ġchecks": 3653,
      "ish": 3654,
      "Ġinv": 3655,
      "generate": 3656,
      "upper": 3657,
      "Ġbutton": 3658,
      "Ġrank": 3659,
      "iler": 3660,
      "Ġiterator": 3661,
      "Ġauthentic": 3662,
      "Command": 3663,
      "USER": 3664,
      "uble": 3665,
      "Ġrequested": 3666,
      "dius": 3667,
      "holder": 3668,
      "hs": 3669,
      "loaded": 3670,
      "Ġlibrary": 3671,
      "null": 3672,
      "Head": 3673,
      "ynam": 3674,
      "summary": 3675,
      "hex": 3676,
      "ĠĠĠĠĠĠĠĠĠĠĠĠĠĠĠĠĠĠĠĠĠĠĠĠĠĠĠĠĠĠĠĠĠĠĠĠĠĠĠĠĠĠĠ": 3677,
      "called": 3678,
      "payload": 3679,
      "Ġcha": 3680,
      "specifi": 3681,
      "','": 3682,
      "With": 3683,
      "Ġtimes": 3684,
      "ĠXML": 3685,
      "ĠST": 3686,
      "tools": 3687,
      "22": 3688,
      "----------------": 3689,
      "Ġuses": 3690,
      "binary": 3691,
      "Ġlogin": 3692,
      "ORT": 3693,
      "etri": 3694,
      "Ġidentifier": 3695,
      "atrix": 3696,
      "Server": 3697,
      "ROM": 3698,
      "quival": 3699,
      "ones": 3700,
      "distance": 3701,
      "Ġmember": 3702,
      "ship": 3703,
      "Ġperform": 3704,
      "Ġdescriptor": 3705,
      "ĠAny": 3706,
      "Ġfit": 3707,
      "AS": 3708,
      "priate": 3709,
      "Ġonce": 3710,
      "problem": 3711,
      "Operation": 3712,
      "Ġdimensions": 3713,
      "Ġlower": 3714,
      "alle": 3715,
      "ws": 3716,
      "uff": 3717,
      "ithub": 3718,
      "Ġrepo": 3719,
      "confi": 3720,
      "Ġbad": 3721,
      "cu": 3722,
      "Params": 3723,
      "Ġthose": 3724,
      "Hel": 3725,
      "Ġexit": 3726,
      "}\".": 3727,
      "aly": 3728,
      "partition": 3729,
      "ENT": 3730,
      "www": 3731,
      "On": 3732,
      "dimension": 3733,
      "PC": 3734,
      "Ġseed": 3735,
      "Ġbit": 3736,
      "Ġtab": 3737,
      "ilities": 3738,
      "ĠĠĠĠĠĠĠĠĠĠĠĠĠĠĠĠĠĠĠĠĠĠĠĠĠĠĠĠĠĠĠĠĠĠĠĠĠĠ": 3739,
      ".*": 3740,
      "road": 3741,
      "Status": 3742,
      "yaml": 3743,
      "Ġcookie": 3744,
      "Ġdeleted": 3745,
      "Ġdepth": 3746,
      "Ġmanager": 3747,
      "Ġfl": 3748,
      "folder": 3749,
      "rollment": 3750,
      "div": 3751,
      "Ġdriver": 3752,
      "ĠOS": 3753,
      "ĠString": 3754,
      "Ġtransl": 3755,
      "Ġkernel": 3756,
      "Ġregister": 3757,
      "IG": 3758,
      "rand": 3759,
      "Str": 3760,
      "Ġnecessary": 3761,
      "agent": 3762,
      "Service": 3763,
      "herit": 3764,
      "Manager": 3765,
      "Load": 3766,
      "merge": 3767,
      "django": 3768,
      "after": 3769,
      "ood": 3770,
      "Ġcurrently": 3771,
      "mac": 3772,
      "events": 3773,
      "Ġcomb": 3774,
      "Ġproxy": 3775,
      "Ġstderr": 3776,
      "Ġprovider": 3777,
      "Ġalpha": 3778,
      "Ġeven": 3779,
      "variables": 3780,
      "tact": 3781,
      "ulate": 3782,
      "ptr": 3783,
      "Number": 3784,
      "Ġquant": 3785,
      "Ġpartition": 3786,
      "Ġnote": 3787,
      "Ġcredentials": 3788,
      "Ġbehavi": 3789,
      "Ġappropriate": 3790,
      "Ġsafe": 3791,
      "Ġlay": 3792,
      "ĠExample": 3793,
      "Ġ16": 3794,
      "Image": 3795,
      "VAL": 3796,
      "just": 3797,
      "nn": 3798,
      "some": 3799,
      "Ġgradient": 3800,
      "Ġcorrectly": 3801,
      "Ġduring": 3802,
      "ceptions": 3803,
      "served": 3804,
      "cfg": 3805,
      "Ġ'{": 3806,
      "Ġprop": 3807,
      "alpha": 3808,
      "unch": 3809,
      "Ġleast": 3810,
      "Ġreset": 3811,
      "ĠOr": 3812,
      "Ġworks": 3813,
      "uting": 3814,
      "Ġimages": 3815,
      "helper": 3816,
      "static": 3817,
      "ES": 3818,
      "iki": 3819,
      "OS": 3820,
      "Ġplot": 3821,
      "Ġalong": 3822,
      "utc": 3823,
      "Ġcomplete": 3824,
      "Ġstill": 3825,
      "ERR": 3826,
      "Ġoperator": 3827,
      "verbose": 3828,
      "icro": 3829,
      "Ġpublic": 3830,
      "escape": 3831,
      "units": 3832,
      "Ġcalling": 3833,
      "_(": 3834,
      "ĠFile": 3835,
      "Ġrec": 3836,
      "dataset": 3837,
      "prop": 3838,
      "05": 3839,
      "ĠHTML": 3840,
      "Ġhook": 3841,
      "Ġpe": 3842,
      "flag": 3843,
      "gp": 3844,
      "ĠSy": 3845,
      "Ġoptim": 3846,
      "Ġlists": 3847,
      "grad": 3848,
      "cii": 3849,
      "Ġ_,": 3850,
      "Ġbucket": 3851,
      "Ġdescri": 3852,
      "ĠCON": 3853,
      "Ġigno": 3854,
      ")\"": 3855,
      "Ġden": 3856,
      "orter": 3857,
      "gregate": 3858,
      "Ġindent": 3859,
      "gb": 3860,
      "Mock": 3861,
      "86": 3862,
      "Ġrv": 3863,
      "AGE": 3864,
      "help": 3865,
      "untimeError": 3866,
      "Ac": 3867,
      "Ġremain": 3868,
      "Ġplay": 3869,
      "edge": 3870,
      "dirs": 3871,
      "NS": 3872,
      "tom": 3873,
      "second": 3874,
      "Su": 3875,
      "Ġ),": 3876,
      "ĠQgs": 3877,
      "Ġ-=": 3878,
      "omial": 3879,
      "rece": 3880,
      "proto": 3881,
      "manage": 3882,
      "mapping": 3883,
      "ively": 3884,
      "Ġissue": 3885,
      "Ad": 3886,
      "Ġ'',": 3887,
      "eric": 3888,
      "Mode": 3889,
      "ĠValid": 3890,
      "Ġbox": 3891,
      "Ġbar": 3892,
      "Ġspecial": 3893,
      "Address": 3894,
      "XX": 3895,
      "reduce": 3896,
      "CP": 3897,
      "Ġavoid": 3898,
      "Ġput": 3899,
      "mitted": 3900,
      "none": 3901,
      "orld": 3902,
      "Ġ$": 3903,
      "Ġbits": 3904,
      "ĠOtherwise": 3905,
      "Len": 3906,
      "ATTR": 3907,
      "Ġkind": 3908,
      "Ġnumbers": 3909,
      "=['": 3910,
      "Ġshe": 3911,
      "Ġendpoint": 3912,
      "Ġregex": 3913,
      "pkg": 3914,
      "Ġunknown": 3915,
      "Ġisn": 3916,
      "ons": 3917,
      "Action": 3918,
      "istent": 3919,
      "std": 3920,
      "disk": 3921,
      "sired": 3922,
      "cision": 3923,
      "cols": 3924,
      "asure": 3925,
      "gments": 3926,
      "Warning": 3927,
      "wards": 3928,
      "Ġdecode": 3929,
      "ĠPer": 3930,
      "orary": 3931,
      "Ġexplicit": 3932,
      "()):": 3933,
      "angle": 3934,
      "Ġcommit": 3935,
      "assertNot": 3936,
      "vlc": 3937,
      "OL": 3938,
      "times": 3939,
      "Ġlocale": 3940,
      "Ġmany": 3941,
      "images": 3942,
      "cert": 3943,
      ">'": 3944,
      "depth": 3945,
      "Ġinsert": 3946,
      "ract": 3947,
      "arted": 3948,
      "Ġexecute": 3949,
      "crypt": 3950,
      "serialized": 3951,
      "Ġconstruct": 3952,
      "Ġbind": 3953,
      "running": 3954,
      "Ġsuffix": 3955,
      "Block": 3956,
      "23": 3957,
      "xx": 3958,
      "Ġuri": 3959,
      "LOGGER": 3960,
      "alk": 3961,
      "ale": 3962,
      "lang": 3963,
      "Ġ(%": 3964,
      "ValueError": 3965,
      "CS": 3966,
      "ression": 3967,
      "ĠCall": 3968,
      "Ġtoo": 3969,
      "Ġ\"\\": 3970,
      "Ġ%}": 3971,
      "database": 3972,
      "sd": 3973,
      "feed": 3974,
      "Ġpat": 3975,
      "buf": 3976,
      "covery": 3977,
      "ĠBy": 3978,
      "quivalent": 3979,
      "Default": 3980,
      "sur": 3981,
      "spath": 3982,
      "ĠGeo": 3983,
      "complete": 3984,
      "Ġdownload": 3985,
      "Ġcondition": 3986,
      "Method": 3987,
      "Ġpartic": 3988,
      "Ġ{})": 3989,
      "Ġshort": 3990,
      "lank": 3991,
      "steps": 3992,
      "ines": 3993,
      "Ġsensor": 3994,
      "='',": 3995,
      "Ġgrad": 3996,
      "okies": 3997,
      "Ġrecords": 3998,
      "Ġneeds": 3999,
      "arr": 4000,
      "Ġpairs": 4001,
      "defaults": 4002,
      "quant": 4003,
      "pted": 4004,
      "js": 4005,
      "writ": 4006,
      "Ġhow": 4007,
      "cohort": 4008,
      "ulti": 4009,
      "RA": 4010,
      "ĠConstruct": 4011,
      "card": 4012,
      "aving": 4013,
      "common": 4014,
      "Start": 4015,
      "resses": 4016,
      "arguments": 4017,
      "rency": 4018,
      "Ġdecorator": 4019,
      "reference": 4020,
      "Ġinterval": 4021,
      "17": 4022,
      "ared": 4023,
      "duction": 4024,
      "Ġtraining": 4025,
      "Ġfalse": 4026,
      "tegr": 4027,
      "Ġconverted": 4028,
      "br": 4029,
      "emp": 4030,
      "ĠNotes": 4031,
      "snapshot": 4032,
      "ilar": 4033,
      "Ġautomat": 4034,
      "scheme": 4035,
      "Ġagainst": 4036,
      "hosts": 4037,
      "rong": 4038,
      "Ġedit": 4039,
      "DIR": 4040,
      "ĠRE": 4041,
      "month": 4042,
      "Ġfill": 4043,
      "ĠUpdate": 4044,
      "ssl": 4045,
      "Ġtuples": 4046,
      "before": 4047,
      "sole": 4048,
      "Ġzone": 4049,
      "acts": 4050,
      "devices": 4051,
      "GI": 4052,
      "ier": 4053,
      "ĠĠĠĠĠĠĠĠĠĠĠĠĊ": 4054,
      "ĠOnly": 4055,
      "ished": 4056,
      "('.": 4057,
      "descriptor": 4058,
      "Ġetc": 4059,
      "sensor": 4060,
      "Ġseries": 4061,
      "coe": 4062,
      "Ġhandl": 4063,
      "choice": 4064,
      "Ġexecution": 4065,
      "stru": 4066,
      "Ġclear": 4067,
      "ignore": 4068,
      "backend": 4069,
      "Function": 4070,
      "iteritems": 4071,
      "dat": 4072,
      "Ġlar": 4073,
      "tore": 4074,
      "engine": 4075,
      "Ġdirectly": 4076,
      "abilities": 4077,
      "registry": 4078,
      "erature": 4079,
      "tokens": 4080,
      "ĠFROM": 4081,
      "Ġcached": 4082,
      "~~": 4083,
      "Ġwarning": 4084,
      "ĠMo": 4085,
      "cookie": 4086,
      "Ġknown": 4087,
      "collect": 4088,
      "selector": 4089,
      "uses": 4090,
      "DF": 4091,
      "Ġactually": 4092,
      "require": 4093,
      "Ġ\",": 4094,
      ")*": 4095
    },
    "merges": [
      [
        "Ġ",
        "Ġ"
      ],
      [
        "ĠĠ",
        "ĠĠ"
      ],
      [
        "ĠĠ",
        "Ġ"
      ],
      [
        "ĠĠĠĠ",
        "ĠĠĠ"
      ],
      [
        "s",
        "e"
      ],
      [
        "r",
        "e"
      ],
      [
        "i",
        "n"
      ],
      [
        "o",
        "n"
      ],
      [
        "ĠĠĠĠ",
        "ĠĠĠĠ"
      ],
      [
        "a",
        "t"
      ],
      [
        "Ġ",
        "t"
      ],
      [
        "s",
        "t"
      ],
      [
        "e",
        "r"
      ],
      [
        "o",
        "r"
      ],
      [
        "\"",
        "\""
      ],
      [
        "Ġ",
        "a"
      ],
      [
        "d",
        "e"
      ],
      [
        "e",
        "n"
      ],
      [
        "Ġ",
        "="
      ],
      [
        "se",
        "l"
      ],
      [
        "sel",
        "f"
      ],
      [
        "h",
        "e"
      ],
      [
        "a",
        "l"
      ],
      [
        "Ġ",
        "i"
      ],
      [
        "ĠĠĠĠ",
        "ĠĠĠĠĠĠĠ"
      ],
      [
        "Ġ",
        "c"
      ],
      [
        "l",
        "e"
      ],
      [
        "m",
        "e"
      ],
      [
        "a",
        "r"
      ],
      [
        "Ġ",
        "f"
      ],
      [
        "Ġ",
        "re"
      ],
      [
        "u",
        "r"
      ],
      [
        "i",
        "on"
      ],
      [
        "i",
        "t"
      ],
      [
        "c",
        "t"
      ],
      [
        "Ġt",
        "he"
      ],
      [
        "Ġ",
        "self"
      ],
      [
        "a",
        "n"
      ],
      [
        "Ġ",
        "p"
      ],
      [
        "\"\"",
        "\""
      ],
      [
        "Ġ",
        "n"
      ],
      [
        "c",
        "e"
      ],
      [
        "g",
        "e"
      ],
      [
        "Ġ",
        "o"
      ],
      [
        "Ġ",
        "in"
      ],
      [
        "Ġ",
        "s"
      ],
      [
        "r",
        "o"
      ],
      [
        ")",
        ":"
      ],
      [
        "Ġ",
        "\"\"\""
      ],
      [
        "u",
        "t"
      ],
      [
        "in",
        "g"
      ],
      [
        "a",
        "me"
      ],
      [
        "u",
        "e"
      ],
      [
        "Ġ",
        "e"
      ],
      [
        "Ġ",
        "'"
      ],
      [
        "a",
        "s"
      ],
      [
        "at",
        "e"
      ],
      [
        "ur",
        "n"
      ],
      [
        "de",
        "f"
      ],
      [
        "Ġ",
        "b"
      ],
      [
        "t",
        "urn"
      ],
      [
        "l",
        "o"
      ],
      [
        "p",
        "e"
      ],
      [
        "Ġ",
        "w"
      ],
      [
        "Ġi",
        "f"
      ],
      [
        "en",
        "t"
      ],
      [
        "Ġ",
        "d"
      ],
      [
        "ĠĠĠĠĠĠĠĠ",
        "ĠĠĠĠĠĠĠĠ"
      ],
      [
        "l",
        "i"
      ],
      [
        "Ġ",
        "m"
      ],
      [
        "t",
        "e"
      ],
      [
        "se",
        "r"
      ],
      [
        "u",
        "n"
      ],
      [
        "i",
        "d"
      ],
      [
        "f",
        "i"
      ],
      [
        "c",
        "o"
      ],
      [
        "o",
        "t"
      ],
      [
        "Ġre",
        "turn"
      ],
      [
        "r",
        "a"
      ],
      [
        "Ġt",
        "o"
      ],
      [
        "m",
        "p"
      ],
      [
        "ĠĠĠĠĠĠĠĠ",
        "ĠĠĠĠĠĠĠ"
      ],
      [
        "Ġ",
        "#"
      ],
      [
        "Ġi",
        "s"
      ],
      [
        "Ġf",
        "or"
      ],
      [
        "u",
        "l"
      ],
      [
        "a",
        "d"
      ],
      [
        "(",
        ")"
      ],
      [
        "i",
        "s"
      ],
      [
        "e",
        "d"
      ],
      [
        "c",
        "k"
      ],
      [
        "Ġa",
        "n"
      ],
      [
        "i",
        "l"
      ],
      [
        "v",
        "al"
      ],
      [
        "on",
        "e"
      ],
      [
        "ge",
        "t"
      ],
      [
        "Ġo",
        "f"
      ],
      [
        "c",
        "h"
      ],
      [
        "-",
        "-"
      ],
      [
        "Ġ",
        "("
      ],
      [
        "s",
        "s"
      ],
      [
        "n",
        "ame"
      ],
      [
        "p",
        "t"
      ],
      [
        "Ġ",
        "st"
      ],
      [
        "r",
        "i"
      ],
      [
        "u",
        "p"
      ],
      [
        "Ġ",
        "T"
      ],
      [
        ".",
        "_"
      ],
      [
        "Ġ",
        "\""
      ],
      [
        "a",
        "b"
      ],
      [
        "y",
        "pe"
      ],
      [
        "'",
        ","
      ],
      [
        "u",
        "m"
      ],
      [
        "N",
        "one"
      ],
      [
        "t",
        "er"
      ],
      [
        "e",
        "l"
      ],
      [
        "at",
        "ion"
      ],
      [
        "d",
        "i"
      ],
      [
        "k",
        "e"
      ],
      [
        "v",
        "er"
      ],
      [
        "e",
        "ct"
      ],
      [
        "Ġt",
        "h"
      ],
      [
        "e",
        "s"
      ],
      [
        "x",
        "t"
      ],
      [
        "Ġc",
        "o"
      ],
      [
        "Ġc",
        "on"
      ],
      [
        "h",
        "o"
      ],
      [
        "se",
        "t"
      ],
      [
        "Ġ",
        "l"
      ],
      [
        "at",
        "a"
      ],
      [
        "Ġn",
        "ot"
      ],
      [
        "a",
        "m"
      ],
      [
        "val",
        "ue"
      ],
      [
        "c",
        "on"
      ],
      [
        "(",
        "'"
      ],
      [
        "a",
        "ge"
      ],
      [
        "q",
        "u"
      ],
      [
        "ul",
        "t"
      ],
      [
        "Ġan",
        "d"
      ],
      [
        "Ġ",
        ":"
      ],
      [
        "'",
        ")"
      ],
      [
        "at",
        "h"
      ],
      [
        "o",
        "de"
      ],
      [
        "a",
        "p"
      ],
      [
        "p",
        "ar"
      ],
      [
        "e",
        "t"
      ],
      [
        "g",
        "s"
      ],
      [
        "v",
        "e"
      ],
      [
        "Ġe",
        "x"
      ],
      [
        "Ġ",
        "u"
      ],
      [
        "r",
        "or"
      ],
      [
        ")",
        ")"
      ],
      [
        "ser",
        "t"
      ],
      [
        "ĠĠĠĠ",
        "Ġ"
      ],
      [
        "o",
        "l"
      ],
      [
        "n",
        "t"
      ],
      [
        "Ġ",
        "["
      ],
      [
        "Ġb",
        "e"
      ],
      [
        "it",
        "h"
      ],
      [
        "v",
        "i"
      ],
      [
        "ct",
        "ion"
      ],
      [
        "Ġ",
        "g"
      ],
      [
        "Ġ",
        "h"
      ],
      [
        "e",
        "st"
      ],
      [
        "t",
        "ype"
      ],
      [
        "Ġ",
        "_"
      ],
      [
        "R",
        "e"
      ],
      [
        "b",
        "j"
      ],
      [
        "s",
        "p"
      ],
      [
        "ke",
        "y"
      ],
      [
        "as",
        "s"
      ],
      [
        "'",
        "]"
      ],
      [
        "Ġa",
        "s"
      ],
      [
        "Ġ",
        "1"
      ],
      [
        "Ġ",
        "A"
      ],
      [
        "li",
        "st"
      ],
      [
        "Ġ",
        "None"
      ],
      [
        "Ġ",
        "or"
      ],
      [
        "ab",
        "le"
      ],
      [
        "Ġ",
        "%"
      ],
      [
        "Ġ",
        "de"
      ],
      [
        "Ġf",
        "i"
      ],
      [
        "t",
        "h"
      ],
      [
        "Ġ",
        "`"
      ],
      [
        "al",
        "l"
      ],
      [
        "an",
        "d"
      ],
      [
        "t",
        "o"
      ],
      [
        "i",
        "z"
      ],
      [
        "pt",
        "ion"
      ],
      [
        "i",
        "g"
      ],
      [
        "[",
        "'"
      ],
      [
        "en",
        "d"
      ],
      [
        "m",
        "ent"
      ],
      [
        "p",
        "ut"
      ],
      [
        "'",
        ":"
      ],
      [
        "f",
        "or"
      ],
      [
        "Ġ",
        "I"
      ],
      [
        "ĠĠĠĠĠĠĠĠ",
        "ĠĠĠĠĠĠĠĠĠĠĠ"
      ],
      [
        "i",
        "me"
      ],
      [
        "r",
        "ue"
      ],
      [
        "l",
        "a"
      ],
      [
        "or",
        "t"
      ],
      [
        "Ġ",
        "+"
      ],
      [
        "Ġ",
        "C"
      ],
      [
        "i",
        "st"
      ],
      [
        "(",
        "\""
      ],
      [
        "q",
        "ue"
      ],
      [
        "an",
        "ce"
      ],
      [
        "in",
        "t"
      ],
      [
        "Ġ",
        "S"
      ],
      [
        "ro",
        "m"
      ],
      [
        "m",
        "o"
      ],
      [
        "p",
        "ath"
      ],
      [
        "i",
        "se"
      ],
      [
        "Ġw",
        "ith"
      ],
      [
        "m",
        "a"
      ],
      [
        "Ġn",
        "ame"
      ],
      [
        "p",
        "o"
      ],
      [
        "e",
        "w"
      ],
      [
        "Ġ",
        "value"
      ],
      [
        ")",
        ","
      ],
      [
        "Ġ",
        "lo"
      ],
      [
        "as",
        "sert"
      ],
      [
        "Ġ",
        "0"
      ],
      [
        "Ġ",
        "me"
      ],
      [
        "Ġ",
        "r"
      ],
      [
        "Ġ=",
        "="
      ],
      [
        "u",
        "b"
      ],
      [
        "c",
        "l"
      ],
      [
        "t",
        "a"
      ],
      [
        "el",
        "d"
      ],
      [
        "r",
        "ror"
      ],
      [
        "E",
        "rror"
      ],
      [
        "r",
        "y"
      ],
      [
        "Ġ",
        "*"
      ],
      [
        "m",
        "at"
      ],
      [
        "u",
        "re"
      ],
      [
        "st",
        "r"
      ],
      [
        "bj",
        "ect"
      ],
      [
        "c",
        "he"
      ],
      [
        "--",
        "--"
      ],
      [
        "Ġ",
        "{"
      ],
      [
        "\"",
        ","
      ],
      [
        "par",
        "am"
      ],
      [
        "in",
        "e"
      ],
      [
        "Ġa",
        "r"
      ],
      [
        "Ġp",
        "ro"
      ],
      [
        "p",
        "er"
      ],
      [
        "Ġre",
        "s"
      ],
      [
        "d",
        "u"
      ],
      [
        "a",
        "se"
      ],
      [
        "e",
        "x"
      ],
      [
        "Ġd",
        "i"
      ],
      [
        "p",
        "ro"
      ],
      [
        "Ġ",
        "F"
      ],
      [
        "Ġe",
        "l"
      ],
      [
        "Ġ",
        "-"
      ],
      [
        "u",
        "s"
      ],
      [
        "Ġst",
        "r"
      ],
      [
        "it",
        "e"
      ],
      [
        "Ġ",
        "se"
      ],
      [
        "te",
        "xt"
      ],
      [
        "Ġa",
        "l"
      ],
      [
        "Ġel",
        "se"
      ],
      [
        "a",
        "ck"
      ],
      [
        "Ġth",
        "at"
      ],
      [
        "que",
        "st"
      ],
      [
        "Ġp",
        "ar"
      ],
      [
        "f",
        "o"
      ],
      [
        "i",
        "c"
      ],
      [
        "ar",
        "gs"
      ],
      [
        "or",
        "d"
      ],
      [
        "l",
        "y"
      ],
      [
        "st",
        "ance"
      ],
      [
        "al",
        "se"
      ],
      [
        "Ġt",
        "est"
      ],
      [
        ">",
        ">"
      ],
      [
        "er",
        "s"
      ],
      [
        "fi",
        "le"
      ],
      [
        "mp",
        "le"
      ],
      [
        "ap",
        "p"
      ],
      [
        "t",
        "r"
      ],
      [
        "Ġ",
        "v"
      ],
      [
        "d",
        "ata"
      ],
      [
        "Ġ",
        "ra"
      ],
      [
        "s",
        "ion"
      ],
      [
        "Re",
        "turn"
      ],
      [
        "d",
        "ate"
      ],
      [
        "re",
        "s"
      ],
      [
        "o",
        "ut"
      ],
      [
        "iz",
        "e"
      ],
      [
        "fi",
        "g"
      ],
      [
        "h",
        "a"
      ],
      [
        "Ġ",
        "P"
      ],
      [
        "\"",
        ")"
      ],
      [
        "Ġf",
        "rom"
      ],
      [
        "c",
        "i"
      ],
      [
        "Ġ",
        "on"
      ],
      [
        "re",
        "ate"
      ],
      [
        "ĠT",
        "he"
      ],
      [
        "Ġd",
        "ata"
      ],
      [
        "m",
        "s"
      ],
      [
        "o",
        "ur"
      ],
      [
        "Ġ",
        "def"
      ],
      [
        "h",
        "t"
      ],
      [
        "0",
        "0"
      ],
      [
        "Ġ",
        "get"
      ],
      [
        "a",
        "ult"
      ],
      [
        "on",
        "se"
      ],
      [
        "qu",
        "al"
      ],
      [
        "o",
        "p"
      ],
      [
        "re",
        "nt"
      ],
      [
        "Ġth",
        "is"
      ],
      [
        ".",
        "\"\"\""
      ],
      [
        "Ġ",
        "list"
      ],
      [
        "re",
        "d"
      ],
      [
        "_",
        "_"
      ],
      [
        "Ġm",
        "o"
      ],
      [
        "Ġw",
        "h"
      ],
      [
        "o",
        "w"
      ],
      [
        "Ġ",
        "set"
      ],
      [
        "Ġra",
        "ise"
      ],
      [
        "e",
        "xt"
      ],
      [
        "]",
        ")"
      ],
      [
        "an",
        "ge"
      ],
      [
        "a",
        "y"
      ],
      [
        "ar",
        "t"
      ],
      [
        "co",
        "de"
      ],
      [
        "]",
        ","
      ],
      [
        "p",
        "re"
      ],
      [
        "Ġfi",
        "le"
      ],
      [
        "Ġ",
        "2"
      ],
      [
        "un",
        "t"
      ],
      [
        "f",
        "f"
      ],
      [
        "ur",
        "l"
      ],
      [
        "se",
        "d"
      ],
      [
        "Ġi",
        "t"
      ],
      [
        "ode",
        "l"
      ],
      [
        "ĠĠĠĠĠĠĠĠĠĠĠĠĠĠĠĠ",
        "ĠĠĠĠĠĠĠĠĠĠĠĠĠĠĠĠ"
      ],
      [
        "s",
        "c"
      ],
      [
        "d",
        "er"
      ],
      [
        "our",
        "ce"
      ],
      [
        "it",
        "y"
      ],
      [
        "Ġ",
        "y"
      ],
      [
        "ra",
        "y"
      ],
      [
        "i",
        "al"
      ],
      [
        "du",
        "le"
      ],
      [
        "ce",
        "ss"
      ],
      [
        "sp",
        "onse"
      ],
      [
        "i",
        "v"
      ],
      [
        "Ġ",
        "D"
      ],
      [
        "Ġ",
        "x"
      ],
      [
        "t",
        "ri"
      ],
      [
        "m",
        "m"
      ],
      [
        "Ġc",
        "h"
      ],
      [
        "er",
        "ror"
      ],
      [
        "il",
        "l"
      ],
      [
        "u",
        "st"
      ],
      [
        "Ġ",
        "key"
      ],
      [
        "Ġd",
        "o"
      ],
      [
        "Ġo",
        "ut"
      ],
      [
        "E",
        "qual"
      ],
      [
        "Ġres",
        "ult"
      ],
      [
        "ro",
        "up"
      ],
      [
        "Ġ",
        "at"
      ],
      [
        "t",
        "ime"
      ],
      [
        "d",
        "d"
      ],
      [
        "vi",
        "ce"
      ],
      [
        "Ġb",
        "y"
      ],
      [
        "ad",
        "d"
      ],
      [
        "=",
        "'"
      ],
      [
        "Ġ",
        "E"
      ],
      [
        "Ġa",
        "re"
      ],
      [
        "i",
        "p"
      ],
      [
        ")",
        "."
      ],
      [
        "in",
        "d"
      ],
      [
        "b",
        "o"
      ],
      [
        "a",
        "g"
      ],
      [
        "i",
        "m"
      ],
      [
        "u",
        "ser"
      ],
      [
        "Ġ",
        "N"
      ],
      [
        "te",
        "d"
      ],
      [
        "Ġw",
        "e"
      ],
      [
        "'",
        "'"
      ],
      [
        "k",
        "w"
      ],
      [
        "ar",
        "y"
      ],
      [
        "en",
        "s"
      ],
      [
        "Ġo",
        "bject"
      ],
      [
        "ss",
        "age"
      ],
      [
        "ĠT",
        "rue"
      ],
      [
        "Ġ",
        "un"
      ],
      [
        "Ġex",
        "ce"
      ],
      [
        "or",
        "y"
      ],
      [
        "lo",
        "w"
      ],
      [
        "de",
        "x"
      ],
      [
        "a",
        "ct"
      ],
      [
        "i",
        "le"
      ],
      [
        "assert",
        "Equal"
      ],
      [
        "ha",
        "pe"
      ],
      [
        "o",
        "m"
      ],
      [
        "te",
        "st"
      ],
      [
        "T",
        "rue"
      ],
      [
        "Ġp",
        "o"
      ],
      [
        "un",
        "ction"
      ],
      [
        "ut",
        "e"
      ],
      [
        "ho",
        "d"
      ],
      [
        "i",
        "ve"
      ],
      [
        "Ġ",
        "Return"
      ],
      [
        "u",
        "g"
      ],
      [
        "Ġ",
        "M"
      ],
      [
        "at",
        "ch"
      ],
      [
        "Ġn",
        "ew"
      ],
      [
        "Ġm",
        "a"
      ],
      [
        "il",
        "d"
      ],
      [
        "l",
        "en"
      ],
      [
        ".",
        "."
      ],
      [
        "he",
        "ck"
      ],
      [
        "ĠĠĠĠĠĠĠĠ",
        "Ġ"
      ],
      [
        "Ġ",
        "en"
      ],
      [
        "Ġu",
        "ser"
      ],
      [
        "Ġc",
        "l"
      ],
      [
        "I",
        "n"
      ],
      [
        "de",
        "d"
      ],
      [
        "j",
        "o"
      ],
      [
        "um",
        "ent"
      ],
      [
        "ver",
        "sion"
      ],
      [
        "c",
        "ation"
      ],
      [
        "t",
        "hod"
      ],
      [
        "up",
        "date"
      ],
      [
        "=",
        "="
      ],
      [
        "Ġstr",
        "ing"
      ],
      [
        "b",
        "er"
      ],
      [
        "o",
        "k"
      ],
      [
        "he",
        "ad"
      ],
      [
        "re",
        "ct"
      ],
      [
        "un",
        "d"
      ],
      [
        "Ġl",
        "en"
      ],
      [
        "co",
        "l"
      ],
      [
        "ul",
        "d"
      ],
      [
        "in",
        "stance"
      ],
      [
        "p",
        "y"
      ],
      [
        "it",
        "ion"
      ],
      [
        "a",
        "ve"
      ],
      [
        "t",
        "ent"
      ],
      [
        "as",
        "k"
      ],
      [
        "a",
        "mple"
      ],
      [
        "val",
        "id"
      ],
      [
        "p",
        "la"
      ],
      [
        "Ġp",
        "re"
      ],
      [
        "an",
        "s"
      ],
      [
        "di",
        "r"
      ],
      [
        "Ġ",
        ")"
      ],
      [
        "for",
        "m"
      ],
      [
        "re",
        "ad"
      ],
      [
        "app",
        "end"
      ],
      [
        "ĠI",
        "f"
      ],
      [
        "in",
        "fo"
      ],
      [
        "ame",
        "ter"
      ],
      [
        "li",
        "ent"
      ],
      [
        "Ġ",
        "L"
      ],
      [
        "ur",
        "se"
      ],
      [
        "ra",
        "p"
      ],
      [
        "Ġw",
        "ill"
      ],
      [
        "di",
        "ct"
      ],
      [
        "ĠF",
        "alse"
      ],
      [
        "kw",
        "args"
      ],
      [
        "at",
        "or"
      ],
      [
        "or",
        "k"
      ],
      [
        "n",
        "ect"
      ],
      [
        "Ġ",
        "V"
      ],
      [
        "st",
        "ate"
      ],
      [
        "ce",
        "s"
      ],
      [
        "`",
        "`"
      ],
      [
        "Ġp",
        "ath"
      ],
      [
        "Ġt",
        "ype"
      ],
      [
        "Ġn",
        "um"
      ],
      [
        "Ġre",
        "quest"
      ],
      [
        "ate",
        "d"
      ],
      [
        "an",
        "t"
      ],
      [
        "c",
        "al"
      ],
      [
        "Ġ",
        ">>"
      ],
      [
        "Ġ",
        "U"
      ],
      [
        "lo",
        "ck"
      ],
      [
        "\"",
        ":"
      ],
      [
        "Ġ",
        "G"
      ],
      [
        "Ġas",
        "sert"
      ],
      [
        "Ġt",
        "ry"
      ],
      [
        "for",
        "mat"
      ],
      [
        "Ġ>>",
        ">"
      ],
      [
        "p",
        "ort"
      ],
      [
        "ĠĠĠĠĠĠĠĠĠĠĠĠĠĠĠĠ",
        "ĠĠĠĠĠĠĠ"
      ],
      [
        "v",
        "ent"
      ],
      [
        "ig",
        "n"
      ],
      [
        "m",
        "l"
      ],
      [
        "Ġ",
        "R"
      ],
      [
        "E",
        "R"
      ],
      [
        "ss",
        "ion"
      ],
      [
        "cl",
        "ass"
      ],
      [
        "f",
        "e"
      ],
      [
        "i",
        "es"
      ],
      [
        "Ġal",
        "l"
      ],
      [
        "Ġ",
        "ro"
      ],
      [
        "i",
        "f"
      ],
      [
        "n",
        "s"
      ],
      [
        "m",
        "in"
      ],
      [
        "Ġ`",
        "`"
      ],
      [
        "Ġ",
        "<"
      ],
      [
        "lo",
        "g"
      ],
      [
        "Ġ",
        "O"
      ],
      [
        "fi",
        "eld"
      ],
      [
        "c",
        "a"
      ],
      [
        "ho",
        "st"
      ],
      [
        "er",
        "y"
      ],
      [
        "Ġh",
        "as"
      ],
      [
        "Ġt",
        "ime"
      ],
      [
        "at",
        "us"
      ],
      [
        "Ġfi",
        "eld"
      ],
      [
        "Ġexce",
        "pt"
      ],
      [
        "ĠReturn",
        "s"
      ],
      [
        "Ġs",
        "ho"
      ],
      [
        "re",
        "n"
      ],
      [
        "C",
        "on"
      ],
      [
        "pe",
        "ct"
      ],
      [
        "a",
        "il"
      ],
      [
        "de",
        "nt"
      ],
      [
        "Ġlo",
        "g"
      ],
      [
        "ut",
        "h"
      ],
      [
        "tri",
        "b"
      ],
      [
        "l",
        "ine"
      ],
      [
        "(",
        "):"
      ],
      [
        "th",
        "er"
      ],
      [
        "O",
        "N"
      ],
      [
        "F",
        "alse"
      ],
      [
        "h",
        "is"
      ],
      [
        "Ġc",
        "an"
      ],
      [
        "Ġa",
        "p"
      ],
      [
        "pe",
        "ci"
      ],
      [
        "Ġ*",
        "*"
      ],
      [
        "ĠĠĠĠ",
        "ĠĠ"
      ],
      [
        "con",
        "fig"
      ],
      [
        "le",
        "ment"
      ],
      [
        "ur",
        "rent"
      ],
      [
        "lo",
        "ad"
      ],
      [
        "ing",
        "s"
      ],
      [
        "li",
        "f"
      ],
      [
        "ab",
        "el"
      ],
      [
        "ta",
        "in"
      ],
      [
        "Ġf",
        "unction"
      ],
      [
        "Ġ",
        "W"
      ],
      [
        "mm",
        "and"
      ],
      [
        "=",
        "\""
      ],
      [
        "ĉ",
        "ĉ"
      ],
      [
        "Ġco",
        "l"
      ],
      [
        "Ġ'",
        "''"
      ],
      [
        "d",
        "o"
      ],
      [
        "Ġa",
        "dd"
      ],
      [
        "ens",
        "or"
      ],
      [
        "Ġb",
        "o"
      ],
      [
        "Ġdef",
        "ault"
      ],
      [
        "t",
        "y"
      ],
      [
        "co",
        "unt"
      ],
      [
        "a",
        "ce"
      ],
      [
        "ption",
        "s"
      ],
      [
        "Ġme",
        "thod"
      ],
      [
        "g",
        "ument"
      ],
      [
        "A",
        "T"
      ],
      [
        "sc",
        "ri"
      ],
      [
        "._",
        "_"
      ],
      [
        "e",
        "p"
      ],
      [
        "al",
        "ue"
      ],
      [
        "en",
        "er"
      ],
      [
        "Ġs",
        "o"
      ],
      [
        "Ġre",
        "sponse"
      ],
      [
        "Ġo",
        "s"
      ],
      [
        "Ġe",
        "lif"
      ],
      [
        "y",
        "n"
      ],
      [
        "Ġ",
        "3"
      ],
      [
        "iv",
        "en"
      ],
      [
        "s",
        "on"
      ],
      [
        "a",
        "c"
      ],
      [
        "mp",
        "l"
      ],
      [
        "Ġn",
        "p"
      ],
      [
        "Ġ",
        "ser"
      ],
      [
        "ar",
        "i"
      ],
      [
        "ĠT",
        "his"
      ],
      [
        "at",
        "tr"
      ],
      [
        "at",
        "ure"
      ],
      [
        "re",
        "turn"
      ],
      [
        "b",
        "ack"
      ],
      [
        "ĠĠĠĠĠĠĠĠĠĠĠĠĠĠĠĠ",
        "ĠĠĠĠĠĠĠĠ"
      ],
      [
        "(",
        "["
      ],
      [
        "l",
        "l"
      ],
      [
        "qu",
        "ery"
      ],
      [
        "s",
        "ize"
      ],
      [
        "g",
        "er"
      ],
      [
        "o",
        "bject"
      ],
      [
        "i",
        "r"
      ],
      [
        "jo",
        "in"
      ],
      [
        "Ġn",
        "ode"
      ],
      [
        "re",
        "quest"
      ],
      [
        "i",
        "b"
      ],
      [
        "I",
        "N"
      ],
      [
        "Ġsho",
        "uld"
      ],
      [
        "g",
        "roup"
      ],
      [
        "Ġin",
        "stance"
      ],
      [
        "Ġu",
        "se"
      ],
      [
        "Ġc",
        "all"
      ],
      [
        "o",
        "re"
      ],
      [
        "Ġf",
        "il"
      ],
      [
        "Ġ",
        "k"
      ],
      [
        "l",
        "in"
      ],
      [
        "Ġc",
        "heck"
      ],
      [
        "S",
        "T"
      ],
      [
        "in",
        "it"
      ],
      [
        "Ġco",
        "mp"
      ],
      [
        "ar",
        "get"
      ],
      [
        "Ġs",
        "ub"
      ],
      [
        "Ġ",
        "error"
      ],
      [
        "e",
        "c"
      ],
      [
        "li",
        "c"
      ],
      [
        "d",
        "s"
      ],
      [
        "w",
        "ord"
      ],
      [
        "ameter",
        "s"
      ],
      [
        "qu",
        "i"
      ],
      [
        "Ġ[",
        "]"
      ],
      [
        "s",
        "ing"
      ],
      [
        "Ġl",
        "ine"
      ],
      [
        "mp",
        "ort"
      ],
      [
        "t",
        "p"
      ],
      [
        "Ġ",
        "H"
      ],
      [
        "Ġcon",
        "text"
      ],
      [
        "Ġn",
        "o"
      ],
      [
        "Ġ",
        "B"
      ],
      [
        "Ġcon",
        "fig"
      ],
      [
        "Ġg",
        "iven"
      ],
      [
        "ig",
        "ht"
      ],
      [
        "Ġout",
        "put"
      ],
      [
        "r",
        "ite"
      ],
      [
        "i",
        "fi"
      ],
      [
        "ow",
        "n"
      ],
      [
        "o",
        "s"
      ],
      [
        "Ġs",
        "peci"
      ],
      [
        "Ġ{",
        "}"
      ],
      [
        "Ġar",
        "ray"
      ],
      [
        "s",
        "ub"
      ],
      [
        "c",
        "reate"
      ],
      [
        "i",
        "ch"
      ],
      [
        "Ġs",
        "y"
      ],
      [
        "str",
        "ing"
      ],
      [
        "Ġis",
        "instance"
      ],
      [
        "li",
        "b"
      ],
      [
        "Ġin",
        "put"
      ],
      [
        "Ġ",
        "le"
      ],
      [
        "n",
        "ode"
      ],
      [
        "j",
        "son"
      ],
      [
        "Ġo",
        "p"
      ],
      [
        "co",
        "mp"
      ],
      [
        "st",
        "art"
      ],
      [
        "Ġst",
        "ate"
      ],
      [
        "l",
        "it"
      ],
      [
        "k",
        "en"
      ],
      [
        "a",
        "st"
      ],
      [
        "n",
        "um"
      ],
      [
        "[",
        "\""
      ],
      [
        "Ġin",
        "t"
      ],
      [
        "r",
        "int"
      ],
      [
        "]",
        "."
      ],
      [
        "un",
        "c"
      ],
      [
        "re",
        "ss"
      ],
      [
        "an",
        "g"
      ],
      [
        "Ġ",
        "@"
      ],
      [
        "s",
        "hape"
      ],
      [
        "Ġvalue",
        "s"
      ],
      [
        "le",
        "d"
      ],
      [
        "m",
        "odel"
      ],
      [
        "Ġm",
        "odel"
      ],
      [
        "s",
        "h"
      ],
      [
        "'",
        "s"
      ],
      [
        "nect",
        "ion"
      ],
      [
        "b",
        "y"
      ],
      [
        "vi",
        "ew"
      ],
      [
        "mpl",
        "ate"
      ],
      [
        "mo",
        "dule"
      ],
      [
        "in",
        "put"
      ],
      [
        ":",
        "`"
      ],
      [
        "ar",
        "ray"
      ],
      [
        "s",
        "o"
      ],
      [
        "r",
        "st"
      ],
      [
        "Ġ_",
        "_"
      ],
      [
        "Ġ",
        "}"
      ],
      [
        "Ġa",
        "c"
      ],
      [
        "n",
        "ot"
      ],
      [
        "Ġwh",
        "ich"
      ],
      [
        "Ġc",
        "reate"
      ],
      [
        "()",
        ")"
      ],
      [
        "w",
        "ork"
      ],
      [
        "fi",
        "x"
      ],
      [
        "Ġn",
        "e"
      ],
      [
        "re",
        "sponse"
      ],
      [
        "Ġs",
        "up"
      ],
      [
        "Ġ",
        ">"
      ],
      [
        "Ġd",
        "is"
      ],
      [
        "n",
        "d"
      ],
      [
        "te",
        "s"
      ],
      [
        "w",
        "ith"
      ],
      [
        "def",
        "ault"
      ],
      [
        "pect",
        "ed"
      ],
      [
        "'",
        "t"
      ],
      [
        "Ġ+",
        "="
      ],
      [
        "a",
        "rent"
      ],
      [
        "Ġmo",
        "dule"
      ],
      [
        "Ġ",
        "----"
      ],
      [
        "Ġu",
        "sed"
      ],
      [
        "R",
        "E"
      ],
      [
        "lo",
        "at"
      ],
      [
        "ar",
        "d"
      ],
      [
        "o",
        "bj"
      ],
      [
        "con",
        "text"
      ],
      [
        "Ġdi",
        "ct"
      ],
      [
        "Ġme",
        "ssage"
      ],
      [
        "re",
        "e"
      ],
      [
        "in",
        "dex"
      ],
      [
        "ar",
        "n"
      ],
      [
        "l",
        "at"
      ],
      [
        "se",
        "s"
      ],
      [
        "e",
        "m"
      ],
      [
        "Ġp",
        "ass"
      ],
      [
        "u",
        "ct"
      ],
      [
        "Ġ",
        "head"
      ],
      [
        "up",
        "le"
      ],
      [
        "__",
        "("
      ],
      [
        "w",
        "e"
      ],
      [
        "j",
        "ect"
      ],
      [
        "all",
        "y"
      ],
      [
        "Ġ",
        "ent"
      ],
      [
        "T",
        "est"
      ],
      [
        "n",
        "o"
      ],
      [
        "Ġi",
        "te"
      ],
      [
        "c",
        "ord"
      ],
      [
        "sel",
        "ect"
      ],
      [
        "c",
        "lient"
      ],
      [
        "f",
        "rom"
      ],
      [
        "Ġc",
        "urrent"
      ],
      [
        "u",
        "me"
      ],
      [
        "ter",
        "n"
      ],
      [
        "Ġh",
        "ave"
      ],
      [
        "ation",
        "s"
      ],
      [
        "rap",
        "h"
      ],
      [
        "param",
        "s"
      ],
      [
        "ma",
        "in"
      ],
      [
        "b",
        "u"
      ],
      [
        "yn",
        "c"
      ],
      [
        "ĠI",
        "n"
      ],
      [
        "res",
        "ult"
      ],
      [
        "m",
        "d"
      ],
      [
        "mo",
        "ve"
      ],
      [
        "alue",
        "Error"
      ],
      [
        "Ġap",
        "p"
      ],
      [
        "Ġ",
        "!"
      ],
      [
        "or",
        "m"
      ],
      [
        "ro",
        "w"
      ],
      [
        "Ġnum",
        "ber"
      ],
      [
        "cl",
        "u"
      ],
      [
        "ar",
        "ch"
      ],
      [
        "Ġwh",
        "en"
      ],
      [
        "L",
        "E"
      ],
      [
        "\"",
        "]"
      ],
      [
        "co",
        "urse"
      ],
      [
        "st",
        "atus"
      ],
      [
        "Ġ",
        "one"
      ],
      [
        "ari",
        "able"
      ],
      [
        "Ġ",
        "4"
      ],
      [
        "Ġ!",
        "="
      ],
      [
        "par",
        "se"
      ],
      [
        "Ġcon",
        "tain"
      ],
      [
        "r",
        "un"
      ],
      [
        "m",
        "b"
      ],
      [
        "ĠA",
        "r"
      ],
      [
        "Ġo",
        "ther"
      ],
      [
        "r",
        "on"
      ],
      [
        "ce",
        "ption"
      ],
      [
        "Ġar",
        "gument"
      ],
      [
        "he",
        "re"
      ],
      [
        "E",
        "x"
      ],
      [
        "Ġspeci",
        "fi"
      ],
      [
        "t",
        "s"
      ],
      [
        "d",
        "ing"
      ],
      [
        "Ġe",
        "xt"
      ],
      [
        "Ġl",
        "in"
      ],
      [
        "Ġpar",
        "am"
      ],
      [
        "Ġ",
        "version"
      ],
      [
        "Ġ",
        "/"
      ],
      [
        "c",
        "s"
      ],
      [
        "a",
        "v"
      ],
      [
        "i",
        "eld"
      ],
      [
        "c",
        "all"
      ],
      [
        "che",
        "ck"
      ],
      [
        "Ġ",
        "Re"
      ],
      [
        "m",
        "it"
      ],
      [
        "M",
        "E"
      ],
      [
        "g",
        "th"
      ],
      [
        "Ġi",
        "mport"
      ],
      [
        "re",
        "f"
      ],
      [
        "po",
        "int"
      ],
      [
        "Ġcl",
        "ass"
      ],
      [
        "Ġt",
        "e"
      ],
      [
        "Ġ",
        "url"
      ],
      [
        "o",
        "g"
      ],
      [
        "Ġi",
        "m"
      ],
      [
        "a",
        "ch"
      ],
      [
        "le",
        "te"
      ],
      [
        "Ġt",
        "r"
      ],
      [
        "ul",
        "l"
      ],
      [
        "Ġ",
        "z"
      ],
      [
        "ption",
        "al"
      ],
      [
        "pla",
        "ce"
      ],
      [
        "h",
        "er"
      ],
      [
        "()",
        "."
      ],
      [
        "fi",
        "l"
      ],
      [
        "u",
        "se"
      ],
      [
        "ĠV",
        "alueError"
      ],
      [
        "a",
        "re"
      ],
      [
        "Ġar",
        "gs"
      ],
      [
        "()",
        ","
      ],
      [
        "m",
        "ap"
      ],
      [
        "po",
        "s"
      ],
      [
        "me",
        "ssage"
      ],
      [
        "ĠE",
        "x"
      ],
      [
        "a",
        "it"
      ],
      [
        "c",
        "ur"
      ],
      [
        "t",
        "ings"
      ],
      [
        "se",
        "nt"
      ],
      [
        "`",
        "."
      ],
      [
        "Ġst",
        "art"
      ],
      [
        "Ġan",
        "y"
      ],
      [
        "o",
        "und"
      ],
      [
        "g",
        "ist"
      ],
      [
        "pla",
        "y"
      ],
      [
        "ma",
        "il"
      ],
      [
        "'",
        "."
      ],
      [
        "Ġb",
        "u"
      ],
      [
        "Ġs",
        "u"
      ],
      [
        "l",
        "d"
      ],
      [
        "it",
        "er"
      ],
      [
        "O",
        "R"
      ],
      [
        "p",
        "i"
      ],
      [
        "s",
        "y"
      ],
      [
        "d",
        "y"
      ],
      [
        "Ġ",
        "\\"
      ],
      [
        "Ġi",
        "d"
      ],
      [
        "'",
        "):"
      ],
      [
        "th",
        "on"
      ],
      [
        "sp",
        "lit"
      ],
      [
        "trib",
        "ute"
      ],
      [
        "v",
        "el"
      ],
      [
        "Ġr",
        "un"
      ],
      [
        "Ġt",
        "ext"
      ],
      [
        "ma",
        "x"
      ],
      [
        "or",
        "ted"
      ],
      [
        "um",
        "n"
      ],
      [
        "Ġon",
        "ly"
      ],
      [
        "Ġm",
        "ust"
      ],
      [
        "a",
        "x"
      ],
      [
        "Ġma",
        "x"
      ],
      [
        "ver",
        "t"
      ],
      [
        "w",
        "rite"
      ],
      [
        "b",
        "ug"
      ],
      [
        "Ġb",
        "ase"
      ],
      [
        "Ġco",
        "urse"
      ],
      [
        "==",
        "=="
      ],
      [
        "con",
        "tent"
      ],
      [
        "n",
        "el"
      ],
      [
        "en",
        "sion"
      ],
      [
        "e",
        "y"
      ],
      [
        "Ġ",
        "X"
      ],
      [
        "id",
        "s"
      ],
      [
        "value",
        "s"
      ],
      [
        "')",
        ","
      ],
      [
        "it",
        "s"
      ],
      [
        "']",
        ","
      ],
      [
        "N",
        "ame"
      ],
      [
        "s",
        "g"
      ],
      [
        "ut",
        "il"
      ],
      [
        "d",
        "is"
      ],
      [
        "ap",
        "i"
      ],
      [
        "out",
        "put"
      ],
      [
        "Ġ",
        "end"
      ],
      [
        "I",
        "D"
      ],
      [
        "n",
        "et"
      ],
      [
        "Ġp",
        "er"
      ],
      [
        "d",
        "b"
      ],
      [
        "Ġcon",
        "t"
      ],
      [
        "a",
        "ke"
      ],
      [
        "Ġex",
        "ist"
      ],
      [
        "fil",
        "ter"
      ],
      [
        "re",
        "am"
      ],
      [
        "l",
        "abel"
      ],
      [
        "Ġin",
        "dex"
      ],
      [
        "ib",
        "le"
      ],
      [
        "la",
        "y"
      ],
      [
        "Ġ",
        "update"
      ],
      [
        "C",
        "o"
      ],
      [
        "Ġ",
        "up"
      ],
      [
        "T",
        "ype"
      ],
      [
        "P",
        "ro"
      ],
      [
        "Ġc",
        "a"
      ],
      [
        "K",
        "ey"
      ],
      [
        "Ġ",
        ".."
      ],
      [
        "D",
        "e"
      ],
      [
        "n",
        "ew"
      ],
      [
        "Ġ{",
        "'"
      ],
      [
        "ite",
        "m"
      ],
      [
        "a",
        "ction"
      ],
      [
        "Ġcon",
        "tent"
      ],
      [
        "S",
        "t"
      ],
      [
        "Ġ",
        "j"
      ],
      [
        "Ġp",
        "rint"
      ],
      [
        "Ġm",
        "at"
      ],
      [
        "*",
        "*"
      ],
      [
        "Ġfor",
        "mat"
      ],
      [
        "lo",
        "b"
      ],
      [
        "Ġ",
        "query"
      ],
      [
        "a",
        "uth"
      ],
      [
        "b",
        "lock"
      ],
      [
        "in",
        "ter"
      ],
      [
        "Ġm",
        "atch"
      ],
      [
        "Ġp",
        "y"
      ],
      [
        "t",
        "ra"
      ],
      [
        "it",
        "le"
      ],
      [
        "D",
        "E"
      ],
      [
        "ut",
        "es"
      ],
      [
        "Ġb",
        "ut"
      ],
      [
        "ck",
        "et"
      ],
      [
        "ample",
        "s"
      ],
      [
        "c",
        "re"
      ],
      [
        "b",
        "ase"
      ],
      [
        "Ġdo",
        "es"
      ],
      [
        "Ġ",
        "valid"
      ],
      [
        "Ġg",
        "roup"
      ],
      [
        "u",
        "al"
      ],
      [
        "Ġd",
        "ate"
      ],
      [
        "le",
        "an"
      ],
      [
        "Ġe",
        "lement"
      ],
      [
        "ol",
        "ume"
      ],
      [
        "f",
        "t"
      ],
      [
        "Ġfi",
        "rst"
      ],
      [
        "T",
        "E"
      ],
      [
        "and",
        "l"
      ],
      [
        "ite",
        "ms"
      ],
      [
        "Ġs",
        "p"
      ],
      [
        "de",
        "n"
      ],
      [
        "and",
        "le"
      ],
      [
        "clu",
        "de"
      ],
      [
        "en",
        "ame"
      ],
      [
        "n",
        "er"
      ],
      [
        "0",
        "1"
      ],
      [
        "Ġite",
        "m"
      ],
      [
        "Ġparam",
        "s"
      ],
      [
        "Ġs",
        "hape"
      ],
      [
        "str",
        "uct"
      ],
      [
        "op",
        "s"
      ],
      [
        "g",
        "ra"
      ],
      [
        "Ġ",
        "host"
      ],
      [
        "[",
        ":"
      ],
      [
        "Ġe",
        "vent"
      ],
      [
        "ms",
        "g"
      ],
      [
        "Ġco",
        "mmand"
      ],
      [
        "ĠAr",
        "gs"
      ],
      [
        "Ġim",
        "age"
      ],
      [
        "ial",
        "iz"
      ],
      [
        "r",
        "ame"
      ],
      [
        "Ġc",
        "or"
      ],
      [
        "Ġ",
        "li"
      ],
      [
        "R",
        "es"
      ],
      [
        "Ġex",
        "pected"
      ],
      [
        "ĠĠĠĠĠĠĠĠĠĠĠĠĠĠĠĠ",
        "ĠĠĠĠĠĠĠĠĠĠĠ"
      ],
      [
        "']",
        ")"
      ],
      [
        "ri",
        "x"
      ],
      [
        "o",
        "u"
      ],
      [
        "if",
        "y"
      ],
      [
        "f",
        "unc"
      ],
      [
        "ate",
        "s"
      ],
      [
        "Ġdi",
        "rect"
      ],
      [
        "co",
        "m"
      ],
      [
        "object",
        "s"
      ],
      [
        "Ġco",
        "de"
      ],
      [
        "Ġt",
        "ra"
      ],
      [
        "ar",
        "k"
      ],
      [
        "Ġt",
        "arget"
      ],
      [
        "en",
        "ce"
      ],
      [
        "Ġr",
        "ange"
      ],
      [
        "on",
        "g"
      ],
      [
        "ĠĠĠĠĠĠĠĠ",
        "ĠĠ"
      ],
      [
        "ch",
        "ange"
      ],
      [
        "S",
        "et"
      ],
      [
        "Ġch",
        "ange"
      ],
      [
        "lo",
        "se"
      ],
      [
        "Ġpar",
        "t"
      ],
      [
        "len",
        "ame"
      ],
      [
        "G",
        "et"
      ],
      [
        "ise",
        "s"
      ],
      [
        "a",
        "k"
      ],
      [
        "ut",
        "ion"
      ],
      [
        "l",
        "ug"
      ],
      [
        "g",
        "ht"
      ],
      [
        "(",
        "("
      ],
      [
        "Ġs",
        "ource"
      ],
      [
        "/",
        "/"
      ],
      [
        "mple",
        "ment"
      ],
      [
        "or",
        "s"
      ],
      [
        "Ġ(",
        "'"
      ],
      [
        "ad",
        "ata"
      ],
      [
        "i",
        "de"
      ],
      [
        "ĠC",
        "on"
      ],
      [
        "Ġre",
        "ad"
      ],
      [
        "pe",
        "c"
      ],
      [
        "Ġm",
        "sg"
      ],
      [
        "S",
        "E"
      ],
      [
        "fe",
        "ren"
      ],
      [
        "Ġt",
        "uple"
      ],
      [
        "p",
        "r"
      ],
      [
        "st",
        "ri"
      ],
      [
        "Ġe",
        "ach"
      ],
      [
        "Ġ----",
        "----"
      ],
      [
        "Ġo",
        "ver"
      ],
      [
        "fi",
        "lename"
      ],
      [
        "Ġo",
        "per"
      ],
      [
        "h",
        "as"
      ],
      [
        "ca",
        "che"
      ],
      [
        "Ġin",
        "ter"
      ],
      [
        "b",
        "e"
      ],
      [
        "al",
        "led"
      ],
      [
        "ack",
        "age"
      ],
      [
        "Ġ[",
        "'"
      ],
      [
        "im",
        "age"
      ],
      [
        "er",
        "r"
      ],
      [
        "Ġspecifi",
        "ed"
      ],
      [
        "Ġtr",
        "ans"
      ],
      [
        "mp",
        "ty"
      ],
      [
        "Ġg",
        "ener"
      ],
      [
        "st",
        "em"
      ],
      [
        "u",
        "le"
      ],
      [
        "A",
        "L"
      ],
      [
        "par",
        "t"
      ],
      [
        "Ġin",
        "to"
      ],
      [
        "r",
        "c"
      ],
      [
        "d",
        "a"
      ],
      [
        "Ġa",
        "ct"
      ],
      [
        "u",
        "mp"
      ],
      [
        "}",
        ")"
      ],
      [
        "Ġreturn",
        "s"
      ],
      [
        "name",
        "s"
      ],
      [
        "Ġo",
        "bj"
      ],
      [
        "ser",
        "ver"
      ],
      [
        "m",
        "an"
      ],
      [
        "ĠP",
        "ar"
      ],
      [
        "and",
        "om"
      ],
      [
        "n",
        "e"
      ],
      [
        "\"",
        "."
      ],
      [
        "Ġfil",
        "ename"
      ],
      [
        "on",
        "ent"
      ],
      [
        "in",
        "al"
      ],
      [
        "me",
        "t"
      ],
      [
        "Ġl",
        "abel"
      ],
      [
        "Ġb",
        "ack"
      ],
      [
        "Ġ",
        "|"
      ],
      [
        "Ġ",
        "5"
      ],
      [
        "f",
        "ter"
      ],
      [
        "Ġin",
        "st"
      ],
      [
        "co",
        "mmand"
      ],
      [
        "Ġ",
        "he"
      ],
      [
        "Ġu",
        "sing"
      ],
      [
        "Ġor",
        "der"
      ],
      [
        "s",
        "um"
      ],
      [
        "p",
        "age"
      ],
      [
        "Ġro",
        "w"
      ],
      [
        "ar",
        "g"
      ],
      [
        "vi",
        "ron"
      ],
      [
        "Ġd",
        "type"
      ],
      [
        "ĠD",
        "e"
      ],
      [
        "Ġser",
        "ver"
      ],
      [
        "Ġa",
        "x"
      ],
      [
        "s",
        "ource"
      ],
      [
        "T",
        "I"
      ],
      [
        "Ġw",
        "ork"
      ],
      [
        "de",
        "vice"
      ],
      [
        "Ġh",
        "t"
      ],
      [
        "Ġ",
        "kwargs"
      ],
      [
        "fo",
        "re"
      ],
      [
        "sp",
        "ace"
      ],
      [
        "M",
        "A"
      ],
      [
        "Ġs",
        "ame"
      ],
      [
        "ction",
        "ary"
      ],
      [
        "i",
        "x"
      ],
      [
        "Ġres",
        "ource"
      ],
      [
        "scri",
        "ption"
      ],
      [
        "P",
        "ar"
      ],
      [
        "Ġin",
        "it"
      ],
      [
        "Ġd",
        "ist"
      ],
      [
        "Ġde",
        "vice"
      ],
      [
        "Ġm",
        "in"
      ],
      [
        "t",
        "able"
      ],
      [
        "m",
        "is"
      ],
      [
        "Ġfil",
        "ter"
      ],
      [
        ":",
        ":"
      ],
      [
        "i",
        "o"
      ],
      [
        "w",
        "ait"
      ],
      [
        "Ġv",
        "ariable"
      ],
      [
        "Ġfor",
        "m"
      ],
      [
        "1",
        "0"
      ],
      [
        "st",
        "ore"
      ],
      [
        ":",
        "//"
      ],
      [
        "v",
        "ar"
      ],
      [
        "Ġa",
        "ss"
      ],
      [
        "to",
        "ken"
      ],
      [
        "m",
        "ode"
      ],
      [
        "Ġre",
        "qui"
      ],
      [
        "Ġt",
        "able"
      ],
      [
        "s",
        "u"
      ],
      [
        "e",
        "vent"
      ],
      [
        "t",
        "ing"
      ],
      [
        "de",
        "bug"
      ],
      [
        "an",
        "nel"
      ],
      [
        "p",
        "ri"
      ],
      [
        "Ġpo",
        "s"
      ],
      [
        "Ġf",
        "e"
      ],
      [
        "Ġb",
        "lock"
      ],
      [
        "pe",
        "d"
      ],
      [
        "ut",
        "o"
      ],
      [
        "er",
        "t"
      ],
      [
        "lo",
        "cation"
      ],
      [
        "N",
        "ot"
      ],
      [
        "ĠT",
        "est"
      ],
      [
        "Ġs",
        "ize"
      ],
      [
        "pro",
        "cess"
      ],
      [
        "p",
        "en"
      ],
      [
        "scri",
        "pt"
      ],
      [
        "Ġp",
        "ort"
      ],
      [
        "')",
        ")"
      ],
      [
        "Ġa",
        "b"
      ],
      [
        "trib",
        "utes"
      ],
      [
        "T",
        "T"
      ],
      [
        "as",
        "ync"
      ],
      [
        "Ġw",
        "as"
      ],
      [
        "andl",
        "er"
      ],
      [
        "ic",
        "al"
      ],
      [
        "ur",
        "ation"
      ],
      [
        "Ġc",
        "lient"
      ],
      [
        "c",
        "ate"
      ],
      [
        "le",
        "ction"
      ],
      [
        "Ġp",
        "arent"
      ],
      [
        "Ġth",
        "en"
      ],
      [
        "key",
        "s"
      ],
      [
        "id",
        "th"
      ],
      [
        "Ġf",
        "ound"
      ],
      [
        "c",
        "cess"
      ],
      [
        "ment",
        "s"
      ],
      [
        "Ġf",
        "loat"
      ],
      [
        "ag",
        "er"
      ],
      [
        "ind",
        "ow"
      ],
      [
        "con",
        "d"
      ],
      [
        "Ġa",
        "d"
      ],
      [
        "P",
        "I"
      ],
      [
        "co",
        "pe"
      ],
      [
        "Ġi",
        "ter"
      ],
      [
        "Ġop",
        "en"
      ],
      [
        "lin",
        "k"
      ],
      [
        "Ġ",
        "ver"
      ],
      [
        "E",
        "N"
      ],
      [
        "d",
        "type"
      ],
      [
        "Ġdo",
        "c"
      ],
      [
        "di",
        "rect"
      ],
      [
        "Ġp",
        "age"
      ],
      [
        "Ġhead",
        "er"
      ],
      [
        "1",
        "2"
      ],
      [
        "Ġc",
        "ase"
      ],
      [
        "n",
        "p"
      ],
      [
        "ile",
        "d"
      ],
      [
        "pre",
        "sent"
      ],
      [
        "F",
        "ile"
      ],
      [
        "Ġo",
        "ptions"
      ],
      [
        "o",
        "te"
      ],
      [
        "ch",
        "ild"
      ],
      [
        "ht",
        "tp"
      ],
      [
        "Ġcon",
        "nection"
      ],
      [
        "Ġ",
        "Q"
      ],
      [
        "ature",
        "s"
      ],
      [
        "Ġn",
        "et"
      ],
      [
        "ĠS",
        "e"
      ],
      [
        "R",
        "L"
      ],
      [
        "3",
        "2"
      ],
      [
        "te",
        "mp"
      ],
      [
        "Ġca",
        "che"
      ],
      [
        "p",
        "s"
      ],
      [
        "field",
        "s"
      ],
      [
        "A",
        "R"
      ],
      [
        "lin",
        "es"
      ],
      [
        "Ġt",
        "ask"
      ],
      [
        "]",
        "["
      ],
      [
        "o",
        "ptions"
      ],
      [
        "t",
        "arget"
      ],
      [
        "u",
        "id"
      ],
      [
        "Ġun",
        "i"
      ],
      [
        "R",
        "O"
      ],
      [
        "Ġfile",
        "s"
      ],
      [
        "o",
        "us"
      ],
      [
        "t",
        "ask"
      ],
      [
        "Ġst",
        "atus"
      ],
      [
        "Ġre",
        "t"
      ],
      [
        "v",
        "o"
      ],
      [
        "co",
        "re"
      ],
      [
        "Ġa",
        "ction"
      ],
      [
        "me",
        "thod"
      ],
      [
        "Ġcl",
        "s"
      ],
      [
        "x",
        "ml"
      ],
      [
        "f",
        "ace"
      ],
      [
        "c",
        "r"
      ],
      [
        "Ġs",
        "ign"
      ],
      [
        "c",
        "y"
      ],
      [
        "Ġpo",
        "int"
      ],
      [
        "r",
        "id"
      ],
      [
        "a",
        "ises"
      ],
      [
        "#",
        "#"
      ],
      [
        "orm",
        "al"
      ],
      [
        "ord",
        "er"
      ],
      [
        "Ġresult",
        "s"
      ],
      [
        "Ġa",
        "uth"
      ],
      [
        "Ġma",
        "ke"
      ],
      [
        "ce",
        "pt"
      ],
      [
        "Ġch",
        "ar"
      ],
      [
        "f",
        "ind"
      ],
      [
        "tr",
        "ans"
      ],
      [
        "feren",
        "ce"
      ],
      [
        "cl",
        "s"
      ],
      [
        "Ġex",
        "p"
      ],
      [
        "du",
        "ct"
      ],
      [
        "ro",
        "ot"
      ],
      [
        "Ġto",
        "ken"
      ],
      [
        "Ġreturn",
        "ed"
      ],
      [
        "as",
        "ses"
      ],
      [
        "lug",
        "in"
      ],
      [
        "lo",
        "t"
      ],
      [
        "v",
        "is"
      ],
      [
        "mat",
        "ch"
      ],
      [
        "te",
        "mplate"
      ],
      [
        "S",
        "S"
      ],
      [
        "ht",
        "ml"
      ],
      [
        "Ġm",
        "ode"
      ],
      [
        "v",
        "ed"
      ],
      [
        "ial",
        "ize"
      ],
      [
        "Ġfield",
        "s"
      ],
      [
        "arn",
        "ing"
      ],
      [
        "c",
        "or"
      ],
      [
        "Ġin",
        "di"
      ],
      [
        "Ġs",
        "h"
      ],
      [
        "co",
        "ding"
      ],
      [
        "am",
        "b"
      ],
      [
        "6",
        "4"
      ],
      [
        "in",
        "ed"
      ],
      [
        "un",
        "k"
      ],
      [
        "o",
        "f"
      ],
      [
        "ver",
        "se"
      ],
      [
        "at",
        "ing"
      ],
      [
        "che",
        "s"
      ],
      [
        "Ġ",
        "ho"
      ],
      [
        ".",
        "\""
      ],
      [
        "i",
        "ce"
      ],
      [
        "lob",
        "al"
      ],
      [
        "Ġargument",
        "s"
      ],
      [
        "}",
        ","
      ],
      [
        "Ġpro",
        "vi"
      ],
      [
        "Ġm",
        "ult"
      ],
      [
        "Ġne",
        "ed"
      ],
      [
        "Ġl",
        "ast"
      ],
      [
        "se",
        "ssion"
      ],
      [
        "ĠĠĠĠĠĠĠĠ",
        "ĠĠĠĠĠ"
      ],
      [
        "f",
        "loat"
      ],
      [
        "f",
        "n"
      ],
      [
        "ail",
        "able"
      ],
      [
        "Ġdi",
        "ctionary"
      ],
      [
        "ta",
        "g"
      ],
      [
        "ust",
        "om"
      ],
      [
        "jo",
        "b"
      ],
      [
        "Ġy",
        "ou"
      ],
      [
        "Ġo",
        "ptional"
      ],
      [
        "Ġlo",
        "cal"
      ],
      [
        "ot",
        "al"
      ],
      [
        "S",
        "e"
      ],
      [
        "Ġwh",
        "ile"
      ],
      [
        "Ġm",
        "an"
      ],
      [
        "le",
        "m"
      ],
      [
        "A",
        "N"
      ],
      [
        "L",
        "ist"
      ],
      [
        "Return",
        "s"
      ],
      [
        "Ġdi",
        "ff"
      ],
      [
        "ĠĠĠĠĠĠĠĠ",
        "ĠĠĠĠ"
      ],
      [
        "st",
        "at"
      ],
      [
        "at",
        "ab"
      ],
      [
        "ser",
        "vice"
      ],
      [
        "p",
        "ass"
      ],
      [
        "t",
        "ensor"
      ],
      [
        "r",
        "t"
      ],
      [
        "Ġcont",
        "in"
      ],
      [
        "))",
        ")"
      ],
      [
        "atab",
        "ase"
      ],
      [
        "qu",
        "ence"
      ],
      [
        "v",
        "id"
      ],
      [
        "lo",
        "cal"
      ],
      [
        "Ġte",
        "mplate"
      ],
      [
        "ot",
        "her"
      ],
      [
        "st",
        "a"
      ],
      [
        "ex",
        "ec"
      ],
      [
        "Ġ",
        "select"
      ],
      [
        "p",
        "arent"
      ],
      [
        "D",
        "O"
      ],
      [
        "w",
        "ise"
      ],
      [
        "Ġch",
        "ild"
      ],
      [
        "L",
        "o"
      ],
      [
        "ra",
        "w"
      ],
      [
        "Ġ",
        "J"
      ],
      [
        "Ġext",
        "ra"
      ],
      [
        "res",
        "ource"
      ],
      [
        "re",
        "g"
      ],
      [
        "do",
        "c"
      ],
      [
        ".",
        ","
      ],
      [
        "Ġname",
        "s"
      ],
      [
        "Ġu",
        "id"
      ],
      [
        "Ġw",
        "here"
      ],
      [
        "Ġse",
        "ssion"
      ],
      [
        "h",
        "ass"
      ],
      [
        "ĠG",
        "et"
      ],
      [
        "D",
        "ata"
      ],
      [
        "U",
        "n"
      ],
      [
        "el",
        "l"
      ],
      [
        "Ġt",
        "ensor"
      ],
      [
        "read",
        "y"
      ],
      [
        "re",
        "ak"
      ],
      [
        "Ġal",
        "low"
      ],
      [
        "set",
        "tings"
      ],
      [
        "ad",
        "min"
      ],
      [
        "Ġ",
        "q"
      ],
      [
        "c",
        "ent"
      ],
      [
        "ex",
        "ist"
      ],
      [
        "Ġ-",
        ">"
      ],
      [
        "G",
        "E"
      ],
      [
        "l",
        "an"
      ],
      [
        ")",
        "]"
      ],
      [
        "c",
        "ri"
      ],
      [
        "ri",
        "ght"
      ],
      [
        "r",
        "an"
      ],
      [
        "ĠPar",
        "ameters"
      ],
      [
        "t",
        "itle"
      ],
      [
        "C",
        "E"
      ],
      [
        "s",
        "with"
      ],
      [
        "util",
        "s"
      ],
      [
        "<",
        "/"
      ],
      [
        "Ġre",
        "cord"
      ],
      [
        "li",
        "cation"
      ],
      [
        "po",
        "p"
      ],
      [
        "type",
        "s"
      ],
      [
        "Ġm",
        "ay"
      ],
      [
        "amb",
        "da"
      ],
      [
        "(",
        "_"
      ],
      [
        "a",
        "iled"
      ],
      [
        "Ġ",
        "--"
      ],
      [
        "de",
        "lete"
      ],
      [
        "Ġa",
        "fter"
      ],
      [
        "w",
        "ay"
      ],
      [
        "ol",
        "s"
      ],
      [
        "Ġsy",
        "s"
      ],
      [
        "Ġthe",
        "re"
      ],
      [
        "re",
        "place"
      ],
      [
        "tern",
        "al"
      ],
      [
        "Ġn",
        "on"
      ],
      [
        "Ġe",
        "d"
      ],
      [
        "i",
        "ck"
      ],
      [
        "pro",
        "ject"
      ],
      [
        "Ġ'",
        "%"
      ],
      [
        "po",
        "st"
      ],
      [
        "a",
        "in"
      ],
      [
        "form",
        "ation"
      ],
      [
        "Ġmo",
        "ck"
      ],
      [
        "Ġexce",
        "ption"
      ],
      [
        "p",
        "p"
      ],
      [
        "Ġt",
        "ag"
      ],
      [
        "o",
        "o"
      ],
      [
        "Ġ",
        "val"
      ],
      [
        "Ġc",
        "ur"
      ],
      [
        "Ġlo",
        "ad"
      ],
      [
        "que",
        "ue"
      ],
      [
        "i",
        "e"
      ],
      [
        "q",
        "l"
      ],
      [
        "Ġin",
        "te"
      ],
      [
        "ĠA",
        "n"
      ],
      [
        "Ġpar",
        "ameters"
      ],
      [
        "c",
        "urrent"
      ],
      [
        "ro",
        "ll"
      ],
      [
        "Ġ",
        "qu"
      ],
      [
        "c",
        "lose"
      ],
      [
        "tr",
        "ing"
      ],
      [
        "Ġpro",
        "cess"
      ],
      [
        "TT",
        "P"
      ],
      [
        "len",
        "gth"
      ],
      [
        "k",
        "ip"
      ],
      [
        "p",
        "onse"
      ],
      [
        "Ġpro",
        "per"
      ],
      [
        "Ġco",
        "unt"
      ],
      [
        "Ġent",
        "ry"
      ],
      [
        "L",
        "O"
      ],
      [
        "Ġ",
        "vi"
      ],
      [
        "C",
        "O"
      ],
      [
        "Ġso",
        "me"
      ],
      [
        "ĠF",
        "or"
      ],
      [
        "y",
        "thon"
      ],
      [
        "x",
        "y"
      ],
      [
        "file",
        "s"
      ],
      [
        "e",
        "ad"
      ],
      [
        "ump",
        "y"
      ],
      [
        "F",
        "I"
      ],
      [
        "c",
        "md"
      ],
      [
        "ĠĠĠĠĠĠĠĠ",
        "Ċ"
      ],
      [
        "Ġy",
        "ield"
      ],
      [
        "n",
        "own"
      ],
      [
        "g",
        "ing"
      ],
      [
        "ĠĠĠĠĠĠĠĠ",
        "ĠĠĠĠĠĠ"
      ],
      [
        "Ġcontin",
        "ue"
      ],
      [
        "]",
        ":"
      ],
      [
        "AT",
        "E"
      ],
      [
        "Ġat",
        "tribute"
      ],
      [
        "Ġobject",
        "s"
      ],
      [
        "Ġ--------",
        "--"
      ],
      [
        "D",
        "i"
      ],
      [
        "Ġsup",
        "er"
      ],
      [
        "ro",
        "l"
      ],
      [
        "Ġex",
        "ec"
      ],
      [
        "Ġdirect",
        "ory"
      ],
      [
        "che",
        "d"
      ],
      [
        "Ġf",
        "ol"
      ],
      [
        "C",
        "ON"
      ],
      [
        "w",
        "o"
      ],
      [
        "f",
        "unction"
      ],
      [
        "ri",
        "de"
      ],
      [
        "[",
        "-"
      ],
      [
        "lic",
        "y"
      ],
      [
        "act",
        "ory"
      ],
      [
        "P",
        "E"
      ],
      [
        "ig",
        "r"
      ],
      [
        "m",
        "y"
      ],
      [
        "able",
        "d"
      ],
      [
        "mis",
        "sion"
      ],
      [
        "a",
        "ir"
      ],
      [
        "co",
        "py"
      ],
      [
        "Ġor",
        "ig"
      ],
      [
        "m",
        "ary"
      ],
      [
        "r",
        "type"
      ],
      [
        "S",
        "I"
      ],
      [
        "en",
        "v"
      ],
      [
        "Ġ",
        "Ċ"
      ],
      [
        "M",
        "L"
      ],
      [
        "to",
        "p"
      ],
      [
        "')",
        "."
      ],
      [
        "st",
        "ant"
      ],
      [
        "Ġit",
        "s"
      ],
      [
        "`",
        ","
      ],
      [
        "Ġ",
        "."
      ],
      [
        "o",
        "ff"
      ],
      [
        "Ġser",
        "vice"
      ],
      [
        "assert",
        "True"
      ],
      [
        "s",
        "ave"
      ],
      [
        "at",
        "ive"
      ],
      [
        "n",
        "ing"
      ],
      [
        "e",
        "lement"
      ],
      [
        "Ġp",
        "ri"
      ],
      [
        "Ġn",
        "ext"
      ],
      [
        "co",
        "mm"
      ],
      [
        "f",
        "ail"
      ],
      [
        "op",
        "en"
      ],
      [
        "as",
        "sed"
      ],
      [
        "A",
        "dd"
      ],
      [
        "Ġ",
        "view"
      ],
      [
        "pre",
        "fix"
      ],
      [
        "Ġbo",
        "dy"
      ],
      [
        "Ġlin",
        "k"
      ],
      [
        "g",
        "n"
      ],
      [
        "le",
        "ase"
      ],
      [
        "re",
        "l"
      ],
      [
        "re",
        "sp"
      ],
      [
        "U",
        "T"
      ],
      [
        "Ġc",
        "alled"
      ],
      [
        "Ġre",
        "present"
      ],
      [
        "le",
        "ct"
      ],
      [
        "p",
        "k"
      ],
      [
        "le",
        "vel"
      ],
      [
        "um",
        "ns"
      ],
      [
        "li",
        "ke"
      ],
      [
        "un",
        "i"
      ],
      [
        "Ġbo",
        "ol"
      ],
      [
        "Ġf",
        "ind"
      ],
      [
        "Ġa",
        "g"
      ],
      [
        "he",
        "ther"
      ],
      [
        "r",
        "ange"
      ],
      [
        "lo",
        "c"
      ],
      [
        "s",
        "pec"
      ],
      [
        "(",
        "*"
      ],
      [
        "st",
        "ep"
      ],
      [
        "ĠC",
        "o"
      ],
      [
        "m",
        "ension"
      ],
      [
        "p",
        "h"
      ],
      [
        "ĠC",
        "heck"
      ],
      [
        "Ġ",
        "json"
      ],
      [
        "w",
        "er"
      ],
      [
        "Ġth",
        "an"
      ],
      [
        "il",
        "ity"
      ],
      [
        "at",
        "tern"
      ],
      [
        "Ġhead",
        "ers"
      ],
      [
        "Ġax",
        "is"
      ],
      [
        "Ġt",
        "f"
      ],
      [
        "Ġof",
        "f"
      ],
      [
        "ex",
        "p"
      ],
      [
        "iz",
        "ed"
      ],
      [
        "M",
        "o"
      ],
      [
        "s",
        "ign"
      ],
      [
        "C",
        "reate"
      ],
      [
        "(",
        "{"
      ],
      [
        "con",
        "nection"
      ],
      [
        "ĠS",
        "et"
      ],
      [
        "or",
        "age"
      ],
      [
        "Ġ..",
        "."
      ],
      [
        "it",
        "ies"
      ],
      [
        "d",
        "f"
      ],
      [
        "Ġar",
        "g"
      ],
      [
        "bu",
        "ild"
      ],
      [
        "Ġht",
        "tp"
      ],
      [
        "ent",
        "ry"
      ],
      [
        "ta",
        "il"
      ],
      [
        "Ġ",
        "lib"
      ],
      [
        "Ġpar",
        "ameter"
      ],
      [
        "ĠĠĠĠĠĠĠĠĠĠĠĠĠĠĠĠ",
        "ĠĠĠĠĠ"
      ],
      [
        "u",
        "age"
      ],
      [
        "se",
        "arch"
      ],
      [
        "Ġa",
        "v"
      ],
      [
        "Ġmo",
        "re"
      ],
      [
        "ĠW",
        "e"
      ],
      [
        "ing",
        "le"
      ],
      [
        "Ġre",
        "mo"
      ],
      [
        "ang",
        "uage"
      ],
      [
        "la",
        "g"
      ],
      [
        "Ġbe",
        "fore"
      ],
      [
        "Ġat",
        "tr"
      ],
      [
        "Ġro",
        "ot"
      ],
      [
        "e",
        "mail"
      ],
      [
        "Ġb",
        "reak"
      ],
      [
        "F",
        "ield"
      ],
      [
        "Ġin",
        "fo"
      ],
      [
        "ĠĠĠĠĠĠĠĠĠĠĠĠĠĠĠĠ",
        "Ġ"
      ],
      [
        "fo",
        "o"
      ],
      [
        "id",
        "get"
      ],
      [
        "Ġpro",
        "ject"
      ],
      [
        "A",
        "C"
      ],
      [
        "or",
        "g"
      ],
      [
        "ff",
        "er"
      ],
      [
        "Ġc",
        "md"
      ],
      [
        "Ġp",
        "assed"
      ],
      [
        "=",
        "{"
      ],
      [
        "Ġg",
        "ra"
      ],
      [
        "Ġlen",
        "gth"
      ],
      [
        "Ġo",
        "ld"
      ],
      [
        "ul",
        "ar"
      ],
      [
        "V",
        "alue"
      ],
      [
        "p",
        "orted"
      ],
      [
        "head",
        "ers"
      ],
      [
        "Ġm",
        "ap"
      ],
      [
        "Ġlin",
        "es"
      ],
      [
        "bo",
        "dy"
      ],
      [
        "ĠN",
        "ot"
      ],
      [
        "con",
        "nect"
      ],
      [
        "mplement",
        "ed"
      ],
      [
        "ĠĠĠĠĠĠĠĠĠĠĠĠĠĠĠĠ",
        "ĠĠĠĠĠĠĠĠĠĠĠĠĠĠĠ"
      ],
      [
        "t",
        "on"
      ],
      [
        "ĠC",
        "reate"
      ],
      [
        "Ġg",
        "raph"
      ],
      [
        "we",
        "ight"
      ],
      [
        "Ġal",
        "ready"
      ],
      [
        "ifi",
        "er"
      ],
      [
        "Ġtime",
        "out"
      ],
      [
        "pre",
        "ssion"
      ],
      [
        "re",
        "gist"
      ],
      [
        "num",
        "ber"
      ],
      [
        "Ġset",
        "tings"
      ],
      [
        "Res",
        "ponse"
      ],
      [
        "g",
        "raph"
      ],
      [
        "Ġa",
        "wait"
      ],
      [
        "che",
        "ma"
      ],
      [
        "Ġd",
        "b"
      ],
      [
        "er",
        "o"
      ],
      [
        "Ġde",
        "l"
      ],
      [
        "stri",
        "p"
      ],
      [
        "bo",
        "x"
      ],
      [
        "Ġbe",
        "en"
      ],
      [
        "U",
        "L"
      ],
      [
        "f",
        "ul"
      ],
      [
        "Ġ1",
        "0"
      ],
      [
        "ust",
        "er"
      ],
      [
        "add",
        "ress"
      ],
      [
        "f",
        "low"
      ],
      [
        "Ġcol",
        "umn"
      ],
      [
        "ĠT",
        "ype"
      ],
      [
        "Ġoper",
        "ation"
      ],
      [
        "Ġ",
        "Y"
      ],
      [
        "ĠĠĠĠĠĠĠĠĠĠĠĠĠĠĠĠ",
        "ĠĠĠĠĠĠĠĠĠ"
      ],
      [
        "Ġh",
        "ass"
      ],
      [
        "ma",
        "ke"
      ],
      [
        "head",
        "er"
      ],
      [
        "R",
        "I"
      ],
      [
        "Ġ",
        "]"
      ],
      [
        "ur",
        "i"
      ],
      [
        "Ġco",
        "py"
      ],
      [
        "ug",
        "h"
      ],
      [
        "s",
        "or"
      ],
      [
        "ay",
        "er"
      ],
      [
        "Ġb",
        "et"
      ],
      [
        "Ġf",
        "ail"
      ],
      [
        "re",
        "q"
      ],
      [
        "pt",
        "s"
      ],
      [
        "ver",
        "y"
      ],
      [
        "=",
        "["
      ],
      [
        "la",
        "st"
      ],
      [
        "Ġpro",
        "b"
      ],
      [
        "Ġ",
        "6"
      ],
      [
        "--",
        "-"
      ],
      [
        "user",
        "name"
      ],
      [
        ")",
        "):"
      ],
      [
        "re",
        "move"
      ],
      [
        "ig",
        "h"
      ],
      [
        "me",
        "ta"
      ],
      [
        "low",
        "er"
      ],
      [
        "t",
        "en"
      ],
      [
        "T",
        "o"
      ],
      [
        "Ġre",
        "gist"
      ],
      [
        "p",
        "ub"
      ],
      [
        "Ġin",
        "formation"
      ],
      [
        "d",
        "out"
      ],
      [
        "to",
        "col"
      ],
      [
        "st",
        "ream"
      ],
      [
        "Ġs",
        "ingle"
      ],
      [
        "Ġlo",
        "cation"
      ],
      [
        "Ġe",
        "mpty"
      ],
      [
        "A",
        "ME"
      ],
      [
        "S",
        "er"
      ],
      [
        "Ġpar",
        "se"
      ],
      [
        "le",
        "s"
      ],
      [
        "00",
        "00"
      ],
      [
        "r",
        "it"
      ],
      [
        "Ġcreate",
        "d"
      ],
      [
        "Ġprovi",
        "ded"
      ],
      [
        "f",
        "er"
      ],
      [
        "Ġ",
        "err"
      ],
      [
        "ac",
        "cess"
      ],
      [
        "Ġerror",
        "s"
      ],
      [
        "ri",
        "es"
      ],
      [
        "Ġmat",
        "rix"
      ],
      [
        "C",
        "h"
      ],
      [
        "sta",
        "mp"
      ],
      [
        "C",
        "T"
      ],
      [
        "f",
        "ault"
      ],
      [
        "app",
        "ing"
      ],
      [
        "Ġre",
        "l"
      ],
      [
        "Ġs",
        "cal"
      ],
      [
        "ĠI",
        "D"
      ],
      [
        "D",
        "I"
      ],
      [
        "ect",
        "or"
      ],
      [
        "ok",
        "up"
      ],
      [
        "ĠEx",
        "ception"
      ],
      [
        ".",
        "')"
      ],
      [
        "v",
        "olume"
      ],
      [
        "act",
        "or"
      ],
      [
        "ĠĠĠĠĠĠĠĠĠĠĠĠĠĠĠĠ",
        "ĠĠĠĠ"
      ],
      [
        "col",
        "umn"
      ],
      [
        "l",
        "p"
      ],
      [
        "do",
        "main"
      ],
      [
        "T",
        "ensor"
      ],
      [
        "Ġlog",
        "ger"
      ],
      [
        "Ġ",
        "K"
      ],
      [
        "f",
        "y"
      ],
      [
        "et",
        "ch"
      ],
      [
        "re",
        "cord"
      ],
      [
        "en",
        "code"
      ],
      [
        "la",
        "gs"
      ],
      [
        "Ġget",
        "attr"
      ],
      [
        "as",
        "h"
      ],
      [
        "b",
        "ar"
      ],
      [
        "m",
        "ask"
      ],
      [
        "Ġkey",
        "s"
      ],
      [
        "ĠSe",
        "e"
      ],
      [
        "Ġb",
        "ot"
      ],
      [
        "re",
        "qui"
      ],
      [
        "se",
        "nd"
      ],
      [
        "s",
        "a"
      ],
      [
        "par",
        "ameters"
      ],
      [
        "g",
        "r"
      ],
      [
        "lat",
        "form"
      ],
      [
        "b",
        "in"
      ],
      [
        "Ġadd",
        "ress"
      ],
      [
        "----",
        "----"
      ],
      [
        "Ġi",
        "dent"
      ],
      [
        "Ġwe",
        "ight"
      ],
      [
        "Ġcor",
        "rect"
      ],
      [
        "Ġ'",
        "/"
      ],
      [
        "Re",
        "quest"
      ],
      [
        "E",
        "n"
      ],
      [
        "ate",
        "g"
      ],
      [
        "Ġt",
        "wo"
      ],
      [
        "P",
        "o"
      ],
      [
        "d",
        "ay"
      ],
      [
        "Ġ",
        "\"\""
      ],
      [
        "Ġpre",
        "fix"
      ],
      [
        "ch",
        "ar"
      ],
      [
        "ĠP",
        "ython"
      ],
      [
        "t",
        "ies"
      ],
      [
        "he",
        "d"
      ],
      [
        "{",
        "}"
      ],
      [
        "ext",
        "ra"
      ],
      [
        ".",
        "\")"
      ],
      [
        "net",
        "work"
      ],
      [
        "Ġnet",
        "work"
      ],
      [
        "cri",
        "pt"
      ],
      [
        "m",
        "t"
      ],
      [
        "Ġf",
        "unc"
      ],
      [
        "Ex",
        "ception"
      ],
      [
        "ĠU",
        "RL"
      ],
      [
        "T",
        "Y"
      ],
      [
        "im",
        "um"
      ],
      [
        "iz",
        "ation"
      ],
      [
        "Ġco",
        "mm"
      ],
      [
        "b",
        "atch"
      ],
      [
        "T",
        "he"
      ],
      [
        "Ġhas",
        "attr"
      ],
      [
        "P",
        "ath"
      ],
      [
        "Ġcontain",
        "ing"
      ],
      [
        "met",
        "adata"
      ],
      [
        "Ġdiff",
        "e"
      ],
      [
        "g",
        "ener"
      ],
      [
        "Ġst",
        "at"
      ],
      [
        "Ġp",
        "ackage"
      ],
      [
        "n",
        "ap"
      ],
      [
        "ol",
        "l"
      ],
      [
        "Ġin",
        "clude"
      ],
      [
        "w",
        "it"
      ],
      [
        "C",
        "heck"
      ],
      [
        "h",
        "en"
      ],
      [
        "d",
        "own"
      ],
      [
        "ri",
        "ver"
      ],
      [
        "Ġc",
        "re"
      ],
      [
        "result",
        "s"
      ],
      [
        "by",
        "tes"
      ],
      [
        "te",
        "ct"
      ],
      [
        "Ġbu",
        "ild"
      ],
      [
        "m",
        "ult"
      ],
      [
        "ition",
        "s"
      ],
      [
        "con",
        "f"
      ],
      [
        "Ġv",
        "olume"
      ],
      [
        "ifi",
        "cation"
      ],
      [
        "u",
        "d"
      ],
      [
        "Ġav",
        "ailable"
      ],
      [
        "9",
        "9"
      ],
      [
        "i",
        "as"
      ],
      [
        "A",
        "r"
      ],
      [
        "pass",
        "word"
      ],
      [
        "Ġ",
        "Key"
      ],
      [
        "S",
        "tring"
      ],
      [
        "Ġse",
        "e"
      ],
      [
        "Ġrequi",
        "red"
      ],
      [
        "Ġo",
        "ption"
      ],
      [
        "Ġ'",
        "."
      ],
      [
        "ĠĠĠĠĠĠĠĠĠĠĠĠĠĠĠĠ",
        "ĠĠ"
      ],
      [
        "Ġdate",
        "time"
      ],
      [
        "se",
        "ction"
      ],
      [
        "Ġdo",
        "main"
      ],
      [
        "Ġre",
        "move"
      ],
      [
        "sc",
        "al"
      ],
      [
        "Ġ----",
        "---"
      ],
      [
        "Ġst",
        "ream"
      ],
      [
        "Ġst",
        "ep"
      ],
      [
        "ip",
        "le"
      ],
      [
        "it",
        "or"
      ],
      [
        "u",
        "dent"
      ],
      [
        "Ġd",
        "atabase"
      ],
      [
        "Ġre",
        "g"
      ],
      [
        "O",
        "ST"
      ],
      [
        "''",
        "'"
      ],
      [
        "Ġdis",
        "play"
      ],
      [
        "C",
        "H"
      ],
      [
        "Ġpar",
        "ser"
      ],
      [
        "Ġs",
        "um"
      ],
      [
        "m",
        "ark"
      ],
      [
        "start",
        "swith"
      ],
      [
        "r",
        "ary"
      ],
      [
        "Ġ>",
        "="
      ],
      [
        "c",
        "an"
      ],
      [
        "I",
        "d"
      ],
      [
        "ĠA",
        "dd"
      ],
      [
        "rap",
        "per"
      ],
      [
        "p",
        "rint"
      ],
      [
        "le",
        "ar"
      ],
      [
        "E",
        "lement"
      ],
      [
        "n",
        "ow"
      ],
      [
        "fi",
        "rst"
      ],
      [
        "di",
        "a"
      ],
      [
        "ith",
        "er"
      ],
      [
        "y",
        "le"
      ],
      [
        "s",
        "ide"
      ],
      [
        "lay",
        "er"
      ],
      [
        "Ġme",
        "t"
      ],
      [
        "n",
        "ext"
      ],
      [
        "du",
        "ce"
      ],
      [
        "Ġac",
        "cess"
      ],
      [
        "ĠĠĠĠĠĠĠĠĠĠĠĠĠĠĠĠ",
        "ĠĠĠĠĠĠ"
      ],
      [
        "ro",
        "und"
      ],
      [
        "l",
        "ass"
      ],
      [
        "Ġde",
        "st"
      ],
      [
        "ho",
        "w"
      ],
      [
        "A",
        "D"
      ],
      [
        "cl",
        "asses"
      ],
      [
        "Ġby",
        "tes"
      ],
      [
        "ang",
        "o"
      ],
      [
        "s",
        "amples"
      ],
      [
        "Ġre",
        "f"
      ],
      [
        "Ġal",
        "so"
      ],
      [
        "F",
        "or"
      ],
      [
        "er",
        "ge"
      ],
      [
        "s",
        "cope"
      ],
      [
        "ĠType",
        "Error"
      ],
      [
        "fe",
        "atures"
      ],
      [
        "po",
        "ol"
      ],
      [
        "ition",
        "al"
      ],
      [
        "Ġse",
        "arch"
      ],
      [
        "Ġw",
        "hether"
      ],
      [
        "j",
        "ango"
      ],
      [
        "Ġte",
        "mp"
      ],
      [
        "viron",
        "ment"
      ],
      [
        "Ġ\"",
        "%"
      ],
      [
        "vid",
        "er"
      ],
      [
        "Ġpass",
        "word"
      ],
      [
        "1",
        "1"
      ],
      [
        "N",
        "o"
      ],
      [
        "li",
        "mit"
      ],
      [
        "act",
        "ive"
      ],
      [
        "ex",
        "pected"
      ],
      [
        "U",
        "p"
      ],
      [
        "con",
        "t"
      ],
      [
        "Ġite",
        "ms"
      ],
      [
        "mo",
        "ck"
      ],
      [
        "L",
        "A"
      ],
      [
        "('",
        "/"
      ],
      [
        "s",
        "i"
      ],
      [
        "o",
        "c"
      ],
      [
        "me",
        "m"
      ],
      [
        "assert",
        "R"
      ],
      [
        "w",
        "idth"
      ],
      [
        "ax",
        "is"
      ],
      [
        "Ġre",
        "sp"
      ],
      [
        "Ġde",
        "lete"
      ],
      [
        "ho",
        "ut"
      ],
      [
        "))",
        ","
      ],
      [
        "ol",
        "y"
      ],
      [
        "c",
        "ul"
      ],
      [
        "]",
        "]"
      ],
      [
        "M",
        "odel"
      ],
      [
        "L",
        "I"
      ],
      [
        "ol",
        "d"
      ],
      [
        "di",
        "fi"
      ],
      [
        "2",
        "5"
      ],
      [
        "0",
        "4"
      ],
      [
        "ĠS",
        "t"
      ],
      [
        "Ġr",
        "andom"
      ],
      [
        "comp",
        "onent"
      ],
      [
        "ge",
        "x"
      ],
      [
        "Ġh",
        "andle"
      ],
      [
        "Ġw",
        "ant"
      ],
      [
        "b",
        "ution"
      ],
      [
        "Ġ",
        "8"
      ],
      [
        "date",
        "time"
      ],
      [
        "Ġ'",
        "'"
      ],
      [
        "Ġsup",
        "port"
      ],
      [
        "Ġme",
        "m"
      ],
      [
        "st",
        "ra"
      ],
      [
        "Ġinte",
        "ger"
      ],
      [
        "N",
        "AME"
      ],
      [
        "vi",
        "ous"
      ],
      [
        "Ġle",
        "vel"
      ],
      [
        "Ġfol",
        "low"
      ],
      [
        "s",
        "up"
      ],
      [
        "C",
        "ol"
      ],
      [
        "in",
        "st"
      ],
      [
        "ge",
        "o"
      ],
      [
        "Ġco",
        "mple"
      ],
      [
        "Ġmet",
        "adata"
      ],
      [
        "t",
        "uple"
      ],
      [
        "ĠĠĠĠĠĠĠĠĠĠĠĠĠĠĠĠĠĠĠĠĠĠĠĠ",
        "ĠĠĠĠ"
      ],
      [
        "M",
        "P"
      ],
      [
        "Ġre",
        "n"
      ],
      [
        "on",
        "ly"
      ],
      [
        "time",
        "out"
      ],
      [
        "we",
        "en"
      ],
      [
        "Ġpo",
        "st"
      ],
      [
        "exist",
        "s"
      ],
      [
        "']",
        "."
      ],
      [
        "ar",
        "gument"
      ],
      [
        "ĠI",
        "t"
      ],
      [
        "Ġ<",
        "="
      ],
      [
        "Ġf",
        "ull"
      ],
      [
        "Ġto",
        "p"
      ],
      [
        "call",
        "back"
      ],
      [
        "con",
        "ds"
      ],
      [
        "e",
        "ar"
      ],
      [
        "Ġnode",
        "s"
      ],
      [
        "\"",
        "),"
      ],
      [
        "o",
        "se"
      ],
      [
        "Ġcall",
        "back"
      ],
      [
        "IN",
        "G"
      ],
      [
        "Ġc",
        "r"
      ],
      [
        "g",
        "in"
      ],
      [
        "Ġw",
        "rite"
      ],
      [
        "s",
        "ol"
      ],
      [
        "Ġchar",
        "act"
      ],
      [
        "====",
        "===="
      ],
      [
        "Ġat",
        "tributes"
      ],
      [
        "o",
        "ci"
      ],
      [
        "Ġr",
        "ule"
      ],
      [
        "e",
        "qual"
      ],
      [
        "ca",
        "use"
      ],
      [
        "Ġdi",
        "mension"
      ],
      [
        "Ġf",
        "in"
      ],
      [
        "U",
        "N"
      ],
      [
        "sy",
        "stem"
      ],
      [
        "Ġd",
        "on"
      ],
      [
        "c",
        "li"
      ],
      [
        "pro",
        "b"
      ],
      [
        "dent",
        "ial"
      ],
      [
        "f",
        "rame"
      ],
      [
        "Ġn",
        "umpy"
      ],
      [
        "t",
        "he"
      ],
      [
        "o",
        "per"
      ],
      [
        "h",
        "andle"
      ],
      [
        "ut",
        "f"
      ],
      [
        "Con",
        "fig"
      ],
      [
        "ĠU",
        "n"
      ],
      [
        "Ġra",
        "w"
      ],
      [
        "Ġco",
        "m"
      ],
      [
        "\"",
        "):"
      ],
      [
        "t",
        "ree"
      ],
      [
        "set",
        "s"
      ],
      [
        "Ġe",
        "mail"
      ],
      [
        "ĠĠĠĠĠĠĠĠĠĠĠĠĠĠĠĠĠĠĠĠĠĠĠĠ",
        "ĠĠ"
      ],
      [
        "S",
        "ER"
      ],
      [
        "sh",
        "ot"
      ],
      [
        "Ġse",
        "quence"
      ],
      [
        "ic",
        "s"
      ],
      [
        "th",
        "ing"
      ],
      [
        "Ġa",
        "li"
      ],
      [
        "z",
        "one"
      ],
      [
        "al",
        "id"
      ],
      [
        "00",
        "0"
      ],
      [
        "N",
        "ode"
      ],
      [
        "Ġli",
        "ke"
      ],
      [
        "v",
        "ariable"
      ],
      [
        "c",
        "p"
      ],
      [
        "Ġdoc",
        "ument"
      ],
      [
        "u",
        "uid"
      ],
      [
        "Ġt",
        "ri"
      ],
      [
        "in",
        "k"
      ],
      [
        "v",
        "es"
      ],
      [
        "Ġg",
        "lobal"
      ],
      [
        "Ġen",
        "v"
      ],
      [
        "Ġli",
        "mit"
      ],
      [
        "change",
        "d"
      ],
      [
        "I",
        "mplemented"
      ],
      [
        "Ġth",
        "read"
      ],
      [
        "Ġj",
        "ust"
      ],
      [
        "p",
        "ackage"
      ],
      [
        "s",
        "ite"
      ],
      [
        "Ġb",
        "atch"
      ],
      [
        "T",
        "R"
      ],
      [
        "resp",
        "on"
      ],
      [
        "mo",
        "d"
      ],
      [
        "ction",
        "s"
      ],
      [
        "Ġ",
        "here"
      ],
      [
        "g",
        "ment"
      ],
      [
        "ay",
        "load"
      ],
      [
        "Ġm",
        "ark"
      ],
      [
        "at",
        "er"
      ],
      [
        "Ġlog",
        "ging"
      ],
      [
        "Ġx",
        "ml"
      ],
      [
        "U",
        "ser"
      ],
      [
        "Ġre",
        "q"
      ],
      [
        "assertR",
        "aises"
      ],
      [
        "r",
        "andom"
      ],
      [
        "p",
        "ack"
      ],
      [
        "di",
        "st"
      ],
      [
        "node",
        "s"
      ],
      [
        "T",
        "ime"
      ],
      [
        "Ġlabel",
        "s"
      ],
      [
        "us",
        "h"
      ],
      [
        "Ġdi",
        "r"
      ],
      [
        "ex",
        "ception"
      ],
      [
        "Ġthe",
        "y"
      ],
      [
        "Ġ",
        "&"
      ],
      [
        "']",
        ":"
      ],
      [
        "Ġen",
        "um"
      ],
      [
        "F",
        "A"
      ],
      [
        "set",
        "up"
      ],
      [
        "in",
        "ce"
      ],
      [
        "der",
        "r"
      ],
      [
        "ch",
        "annel"
      ],
      [
        "nap",
        "shot"
      ],
      [
        "ok",
        "ie"
      ],
      [
        "Ġex",
        "ample"
      ],
      [
        "ex",
        "c"
      ],
      [
        "in",
        "di"
      ],
      [
        "exec",
        "ute"
      ],
      [
        "Ġen",
        "coding"
      ],
      [
        "Ġdoes",
        "n"
      ],
      [
        "t",
        "tribute"
      ],
      [
        "Ġstr",
        "uct"
      ],
      [
        "pre",
        "c"
      ],
      [
        "de",
        "l"
      ],
      [
        "ĠP",
        "ro"
      ],
      [
        "ch",
        "o"
      ],
      [
        "\\",
        "\\"
      ],
      [
        "Ġs",
        "ample"
      ],
      [
        "Ġch",
        "annel"
      ],
      [
        "id",
        "x"
      ],
      [
        "Ġbet",
        "ween"
      ],
      [
        "ĠA",
        "l"
      ],
      [
        "di",
        "ff"
      ],
      [
        "val",
        "u"
      ],
      [
        "r",
        "ule"
      ],
      [
        "Ġconfig",
        "uration"
      ],
      [
        "ĠĠĠĠ",
        "Ċ"
      ],
      [
        "Ġa",
        "uto"
      ],
      [
        "an",
        "y"
      ],
      [
        "dis",
        "play"
      ],
      [
        "Ġvariable",
        "s"
      ],
      [
        "o",
        "ption"
      ],
      [
        "Ġelement",
        "s"
      ],
      [
        "ĠA",
        "PI"
      ],
      [
        "Ġuni",
        "code"
      ],
      [
        "a",
        "ces"
      ],
      [
        "Ġthe",
        "m"
      ],
      [
        "s",
        "ql"
      ],
      [
        "re",
        "t"
      ],
      [
        "Ġb",
        "in"
      ],
      [
        "un",
        "it"
      ],
      [
        "]",
        "))"
      ],
      [
        "di",
        "m"
      ],
      [
        "w",
        "w"
      ],
      [
        "ializ",
        "ed"
      ],
      [
        "p",
        "atch"
      ],
      [
        "pt",
        "h"
      ],
      [
        "f",
        "s"
      ],
      [
        "Ġs",
        "orted"
      ],
      [
        "Ġsu",
        "ccess"
      ],
      [
        "Ġp",
        "ub"
      ],
      [
        "Ġexist",
        "s"
      ],
      [
        "ĠNot",
        "Implemented"
      ],
      [
        "ge",
        "st"
      ],
      [
        "Ġn",
        "ormal"
      ],
      [
        "tail",
        "s"
      ],
      [
        "Ġf",
        "rame"
      ],
      [
        "Di",
        "ct"
      ],
      [
        "Q",
        "u"
      ],
      [
        "Ġt",
        "otal"
      ],
      [
        "Ġexist",
        "ing"
      ],
      [
        "ĠN",
        "ote"
      ],
      [
        "as",
        "on"
      ],
      [
        "Ġt",
        "a"
      ],
      [
        "ord",
        "in"
      ],
      [
        "Ġc",
        "ustom"
      ],
      [
        "Ġs",
        "ure"
      ],
      [
        "e",
        "ded"
      ],
      [
        "ĠN",
        "o"
      ],
      [
        "col",
        "or"
      ],
      [
        "Ġinst",
        "ead"
      ],
      [
        "ro",
        "ugh"
      ],
      [
        "model",
        "s"
      ],
      [
        "ext",
        "end"
      ],
      [
        "Ġsho",
        "w"
      ],
      [
        "Ġcol",
        "lection"
      ],
      [
        "met",
        "ry"
      ],
      [
        "Ġ",
        "job"
      ],
      [
        "ac",
        "count"
      ],
      [
        "Ġdiffe",
        "rent"
      ],
      [
        "de",
        "red"
      ],
      [
        "pro",
        "per"
      ],
      [
        "Ġad",
        "ded"
      ],
      [
        "Ġorig",
        "inal"
      ],
      [
        "pro",
        "duct"
      ],
      [
        "2",
        "0"
      ],
      [
        "Ġv",
        "ar"
      ],
      [
        "label",
        "s"
      ],
      [
        "ĉĉ",
        "ĉ"
      ],
      [
        "has",
        "h"
      ],
      [
        "con",
        "tain"
      ],
      [
        "t",
        "x"
      ],
      [
        "Ġkey",
        "word"
      ],
      [
        "c",
        "at"
      ],
      [
        "Ġe",
        "ither"
      ],
      [
        "Ġun",
        "it"
      ],
      [
        "Ġt",
        "itle"
      ],
      [
        "Ġstring",
        "s"
      ],
      [
        "Ġt",
        "ree"
      ],
      [
        "ent",
        "ic"
      ],
      [
        "bo",
        "se"
      ],
      [
        "w",
        "are"
      ],
      [
        "``",
        "."
      ],
      [
        "Ġsy",
        "stem"
      ],
      [
        "on",
        "t"
      ],
      [
        "de",
        "o"
      ],
      [
        "Ġop",
        "s"
      ],
      [
        ":",
        "]"
      ],
      [
        "Ġcomp",
        "onent"
      ],
      [
        "e",
        "ssage"
      ],
      [
        "Ġother",
        "wise"
      ],
      [
        "Ġcor",
        "respon"
      ],
      [
        "Ġbe",
        "cause"
      ],
      [
        "input",
        "s"
      ],
      [
        "a",
        "ded"
      ],
      [
        "Ġdis",
        "able"
      ],
      [
        "Ġt",
        "rue"
      ],
      [
        "Ġn",
        "ow"
      ],
      [
        "Ġm",
        "ask"
      ],
      [
        "it",
        "hout"
      ],
      [
        "o",
        "red"
      ],
      [
        "Ġs",
        "ave"
      ],
      [
        "re",
        "p"
      ],
      [
        "li",
        "ed"
      ],
      [
        "end",
        "ing"
      ],
      [
        "v",
        "en"
      ],
      [
        "f",
        "ull"
      ],
      [
        "Ġap",
        "i"
      ],
      [
        "al",
        "cul"
      ],
      [
        "group",
        "s"
      ],
      [
        "Ġi",
        "ds"
      ],
      [
        "py",
        "thon"
      ],
      [
        "ke",
        "ep"
      ],
      [
        "o",
        "ver"
      ],
      [
        "mb",
        "ol"
      ],
      [
        "Ġse",
        "nd"
      ],
      [
        "ert",
        "ifi"
      ],
      [
        "ff",
        "ect"
      ],
      [
        "ĠNotImplemented",
        "Error"
      ],
      [
        "Ġdef",
        "ined"
      ],
      [
        "']",
        "['"
      ],
      [
        "arn",
        "ings"
      ],
      [
        "Ġoff",
        "set"
      ],
      [
        "Ġm",
        "is"
      ],
      [
        "ion",
        "s"
      ],
      [
        "\"",
        "))"
      ],
      [
        "pro",
        "file"
      ],
      [
        "I",
        "s"
      ],
      [
        "Ġ",
        "right"
      ],
      [
        "R",
        "un"
      ],
      [
        ")",
        "["
      ],
      [
        "co",
        "mple"
      ],
      [
        "point",
        "s"
      ],
      [
        "ure",
        "s"
      ],
      [
        "Ġ",
        "7"
      ],
      [
        "off",
        "set"
      ],
      [
        "ĠH",
        "TTP"
      ],
      [
        "Ġt",
        "er"
      ],
      [
        "tra",
        "in"
      ],
      [
        "O",
        "G"
      ],
      [
        "Ġl",
        "ayer"
      ],
      [
        "du",
        "mp"
      ],
      [
        "iv",
        "ed"
      ],
      [
        "Ġtest",
        "s"
      ],
      [
        "mat",
        "rix"
      ],
      [
        "Ġde",
        "scription"
      ],
      [
        "Ġd",
        "own"
      ],
      [
        "Ġm",
        "ath"
      ],
      [
        "Ġac",
        "count"
      ],
      [
        "de",
        "v"
      ],
      [
        "Ġs",
        "i"
      ],
      [
        "ro",
        "p"
      ],
      [
        "Ġu",
        "s"
      ],
      [
        "Ġre",
        "al"
      ],
      [
        "pen",
        "den"
      ],
      [
        "ci",
        "es"
      ],
      [
        "k",
        "nown"
      ],
      [
        "f",
        "in"
      ],
      [
        "Ġre",
        "place"
      ],
      [
        "me",
        "tri"
      ],
      [
        "Ġp",
        "la"
      ],
      [
        "st",
        "ack"
      ],
      [
        "o",
        "ck"
      ],
      [
        "Ġ{",
        "\""
      ],
      [
        "1",
        "6"
      ],
      [
        "var",
        "s"
      ],
      [
        "i",
        "ces"
      ],
      [
        "Ġent",
        "ity"
      ],
      [
        "it",
        "ive"
      ],
      [
        "O",
        "ut"
      ],
      [
        "st",
        "op"
      ],
      [
        "p",
        "ha"
      ],
      [
        "o",
        "b"
      ],
      [
        "i",
        "dent"
      ],
      [
        "bo",
        "ok"
      ],
      [
        "Ġs",
        "a"
      ],
      [
        "N",
        "O"
      ],
      [
        "Ġbe",
        "ing"
      ],
      [
        "ĠR",
        "aises"
      ],
      [
        "ex",
        "ample"
      ],
      [
        "ĠĠĠĠĠĠĠĠĠĠĠĠĠĠĠĠĠĠĠĠĠĠĠĠ",
        "ĠĠĠĠĠ"
      ],
      [
        "Ġchange",
        "d"
      ],
      [
        "Ġi",
        "p"
      ],
      [
        "F",
        "F"
      ],
      [
        "Co",
        "mp"
      ],
      [
        "u",
        "sed"
      ],
      [
        "ss",
        "ible"
      ],
      [
        "r",
        "ans"
      ],
      [
        "li",
        "ce"
      ],
      [
        "m",
        "al"
      ],
      [
        "t",
        "rue"
      ],
      [
        "Ġcol",
        "or"
      ],
      [
        "M",
        "et"
      ],
      [
        "Ġex",
        "c"
      ],
      [
        "Ġtra",
        "in"
      ],
      [
        "in",
        "ation"
      ],
      [
        "b",
        "it"
      ],
      [
        "O",
        "bject"
      ],
      [
        "m",
        "on"
      ],
      [
        "error",
        "s"
      ],
      [
        "ĠĠĠĠĠĠĠĠĠĠĠĠĠĠĠĠĠĠĠĠĠĠĠĠ",
        "ĠĠĠĠĠĠ"
      ],
      [
        "Ġcontain",
        "s"
      ],
      [
        "v",
        "m"
      ],
      [
        "Ġcon",
        "nect"
      ],
      [
        "ri",
        "bution"
      ],
      [
        "ializ",
        "er"
      ],
      [
        "man",
        "ager"
      ],
      [
        "Ġw",
        "ithout"
      ],
      [
        "c",
        "lo"
      ],
      [
        "Ġc",
        "ho"
      ],
      [
        "h",
        "andler"
      ],
      [
        "Ġin",
        "valid"
      ],
      [
        "Ġo",
        "pt"
      ],
      [
        "S",
        "ON"
      ],
      [
        "de",
        "scription"
      ],
      [
        "Ġse",
        "cond"
      ],
      [
        "Ġ(",
        "\""
      ],
      [
        "unt",
        "ime"
      ],
      [
        "de",
        "st"
      ],
      [
        "k",
        "ens"
      ],
      [
        "at",
        "tributes"
      ],
      [
        "Ġp",
        "lugin"
      ],
      [
        "Ġex",
        "pression"
      ],
      [
        "return",
        "s"
      ],
      [
        "Ġtype",
        "s"
      ],
      [
        "Ġhas",
        "h"
      ],
      [
        "ic",
        "ally"
      ],
      [
        "l",
        "ambda"
      ],
      [
        "f",
        "g"
      ],
      [
        "an",
        "sp"
      ],
      [
        "N",
        "T"
      ],
      [
        "A",
        "B"
      ],
      [
        "child",
        "ren"
      ],
      [
        "In",
        "valid"
      ],
      [
        "w",
        "ard"
      ],
      [
        "script",
        "or"
      ],
      [
        "..",
        "."
      ],
      [
        "or",
        "ig"
      ],
      [
        "I",
        "T"
      ],
      [
        "dential",
        "s"
      ],
      [
        "Ġfe",
        "ature"
      ],
      [
        "le",
        "t"
      ],
      [
        "ter",
        "m"
      ],
      [
        "ta",
        "ch"
      ],
      [
        "auth",
        "or"
      ],
      [
        "way",
        "s"
      ],
      [
        "c",
        "c"
      ],
      [
        "l",
        "int"
      ],
      [
        "ent",
        "ity"
      ],
      [
        "st",
        "er"
      ],
      [
        "UL",
        "T"
      ],
      [
        "and",
        "ard"
      ],
      [
        "Ġcon",
        "vert"
      ],
      [
        "t",
        "f"
      ],
      [
        "t",
        "mp"
      ],
      [
        "me",
        "d"
      ],
      [
        "de",
        "code"
      ],
      [
        "Ġ'",
        "-"
      ],
      [
        "Ġc",
        "lean"
      ],
      [
        "Ġsp",
        "lit"
      ],
      [
        "ca",
        "st"
      ],
      [
        "t",
        "xt"
      ],
      [
        "ĠDe",
        "fault"
      ],
      [
        "sy",
        "s"
      ],
      [
        "ĠU",
        "ser"
      ],
      [
        "er",
        "ate"
      ],
      [
        "log",
        "in"
      ],
      [
        "s",
        "rc"
      ],
      [
        "g",
        "ine"
      ],
      [
        "Ġi",
        "mplement"
      ],
      [
        "=",
        "%"
      ],
      [
        "Ġl",
        "ambda"
      ],
      [
        "U",
        "P"
      ],
      [
        "Ġsup",
        "ported"
      ],
      [
        "s",
        "how"
      ],
      [
        "Ġas",
        "ync"
      ],
      [
        "che",
        "me"
      ],
      [
        "a",
        "z"
      ],
      [
        "our",
        "se"
      ],
      [
        "en",
        "viron"
      ],
      [
        "f",
        "fix"
      ],
      [
        "vis",
        "ion"
      ],
      [
        "di",
        "ent"
      ],
      [
        "f",
        "fi"
      ],
      [
        "col",
        "lection"
      ],
      [
        "Ġbase",
        "d"
      ],
      [
        "s",
        "ha"
      ],
      [
        "Ġfor",
        "ce"
      ],
      [
        "ut",
        "ed"
      ],
      [
        "Ġs",
        "kip"
      ],
      [
        "indi",
        "ces"
      ],
      [
        "K",
        "E"
      ],
      [
        "ĠI",
        "P"
      ],
      [
        "ĠT",
        "O"
      ],
      [
        "A",
        "uth"
      ],
      [
        "Ġmodel",
        "s"
      ],
      [
        "Ġs",
        "cope"
      ],
      [
        "TI",
        "ON"
      ],
      [
        "Ġass",
        "oci"
      ],
      [
        "i",
        "mport"
      ],
      [
        "Ġp",
        "air"
      ],
      [
        "um",
        "ber"
      ],
      [
        "ta",
        "gs"
      ],
      [
        "Ġcon",
        "d"
      ],
      [
        "ge",
        "s"
      ],
      [
        "l",
        "t"
      ],
      [
        "struct",
        "or"
      ],
      [
        "b",
        "ot"
      ],
      [
        "Ġf",
        "ailed"
      ],
      [
        "Ġuser",
        "name"
      ],
      [
        "er",
        "os"
      ],
      [
        "TY",
        "PE"
      ],
      [
        "ĠĠĠĠĠĠĠĠĠĠĠĠĠĠĠĠ",
        "ĠĠĠĠĠĠĠĠĠĠĠĠĠĠĠĠĠĠĠ"
      ],
      [
        "Ġ%",
        "("
      ],
      [
        "g",
        "o"
      ],
      [
        "c",
        "ase"
      ],
      [
        "te",
        "m"
      ],
      [
        "Ġinput",
        "s"
      ],
      [
        "gn",
        "ore"
      ],
      [
        "Ġw",
        "ord"
      ],
      [
        "0",
        "2"
      ],
      [
        "Ġ[",
        "\""
      ],
      [
        "Ġcon",
        "f"
      ],
      [
        "Ġuni",
        "que"
      ],
      [
        "Ġmult",
        "iple"
      ],
      [
        "ĠL",
        "o"
      ],
      [
        "ns",
        "or"
      ],
      [
        "e",
        "red"
      ],
      [
        ":`",
        "."
      ],
      [
        "g",
        "en"
      ],
      [
        "le",
        "ss"
      ],
      [
        "Ġw",
        "indow"
      ],
      [
        "n",
        "on"
      ],
      [
        "Ġst",
        "op"
      ],
      [
        "e",
        "mpty"
      ],
      [
        "ser",
        "ialize"
      ],
      [
        "##",
        "##"
      ],
      [
        "row",
        "s"
      ],
      [
        "g",
        "or"
      ],
      [
        "state",
        "s"
      ],
      [
        "B",
        "u"
      ],
      [
        "o",
        "lean"
      ],
      [
        "Ġw",
        "ait"
      ],
      [
        "er",
        "nel"
      ],
      [
        "S",
        "C"
      ],
      [
        "a",
        "uto"
      ],
      [
        "cre",
        "t"
      ],
      [
        "he",
        "l"
      ],
      [
        "\"",
        "],"
      ],
      [
        "2",
        "00"
      ],
      [
        "Ġw",
        "idth"
      ],
      [
        "ge",
        "d"
      ],
      [
        "Ġpos",
        "ition"
      ],
      [
        "T",
        "ext"
      ],
      [
        "t",
        "tp"
      ],
      [
        "iz",
        "er"
      ],
      [
        "wit",
        "ch"
      ],
      [
        "o",
        "st"
      ],
      [
        "am",
        "l"
      ],
      [
        "Ġc",
        "ell"
      ],
      [
        "Ġpro",
        "duct"
      ],
      [
        "ator",
        "s"
      ],
      [
        "al",
        "ias"
      ],
      [
        "h",
        "ort"
      ],
      [
        "Ġh",
        "andler"
      ],
      [
        "w",
        "h"
      ],
      [
        "r",
        "m"
      ],
      [
        "V",
        "ER"
      ],
      [
        "I",
        "O"
      ],
      [
        "Ġre",
        "ference"
      ],
      [
        "u",
        "ally"
      ],
      [
        "Ġc",
        "li"
      ],
      [
        "Ġde",
        "p"
      ],
      [
        "un",
        "ter"
      ],
      [
        "p",
        "c"
      ],
      [
        "G",
        "roup"
      ],
      [
        "Ġbot",
        "h"
      ],
      [
        "le",
        "ted"
      ],
      [
        "an",
        "not"
      ],
      [
        "Ġbo",
        "und"
      ],
      [
        "ce",
        "ll"
      ],
      [
        "v",
        "ate"
      ],
      [
        "ĠL",
        "ist"
      ],
      [
        "a",
        "w"
      ],
      [
        "p",
        "lugin"
      ],
      [
        "par",
        "ser"
      ],
      [
        "Ġre",
        "ce"
      ],
      [
        "res",
        "h"
      ],
      [
        "Ġindi",
        "ces"
      ],
      [
        "pos",
        "ition"
      ],
      [
        "Ġpre",
        "vious"
      ],
      [
        "C",
        "lient"
      ],
      [
        "log",
        "ger"
      ],
      [
        "]",
        "['"
      ],
      [
        "B",
        "y"
      ],
      [
        "H",
        "TTP"
      ],
      [
        "requi",
        "red"
      ],
      [
        "Ġenum",
        "erate"
      ],
      [
        "th",
        "read"
      ],
      [
        "g",
        "ress"
      ],
      [
        "Ġp",
        "attern"
      ],
      [
        "bo",
        "ol"
      ],
      [
        "Ġt",
        "ake"
      ],
      [
        "e",
        "k"
      ],
      [
        "ter",
        "min"
      ],
      [
        "L",
        "og"
      ],
      [
        "gra",
        "m"
      ],
      [
        "F",
        "actory"
      ],
      [
        "ĠL",
        "OG"
      ],
      [
        "s",
        "ample"
      ],
      [
        "ĠEx",
        "amples"
      ],
      [
        "po",
        "licy"
      ],
      [
        "CON",
        "F"
      ],
      [
        "al",
        "low"
      ],
      [
        "Ġpy",
        "lint"
      ],
      [
        "Ġspecifi",
        "c"
      ],
      [
        "Ġact",
        "ual"
      ],
      [
        "ran",
        "ch"
      ],
      [
        "l",
        "ate"
      ],
      [
        "o",
        "me"
      ],
      [
        "=",
        "("
      ],
      [
        "e",
        "o"
      ],
      [
        "s",
        "peci"
      ],
      [
        "ar",
        "ds"
      ],
      [
        "Ġre",
        "verse"
      ],
      [
        "In",
        "dex"
      ],
      [
        "M",
        "essage"
      ],
      [
        "St",
        "ate"
      ],
      [
        "ab",
        "s"
      ],
      [
        "\"",
        ">"
      ],
      [
        "c",
        "ry"
      ],
      [
        "Ġcon",
        "ver"
      ],
      [
        "g",
        "g"
      ],
      [
        "Ġn",
        "d"
      ],
      [
        "t",
        "otal"
      ],
      [
        "Ġab",
        "out"
      ],
      [
        "Ġch",
        "unk"
      ],
      [
        "p",
        "n"
      ],
      [
        "Ġinit",
        "ial"
      ],
      [
        "3",
        "4"
      ],
      [
        "ure",
        "d"
      ],
      [
        "ver",
        "age"
      ],
      [
        "re",
        "mo"
      ],
      [
        "me",
        "an"
      ],
      [
        "s",
        "ort"
      ],
      [
        "i",
        "mat"
      ],
      [
        "Ġext",
        "ension"
      ],
      [
        "col",
        "umns"
      ],
      [
        "H",
        "E"
      ],
      [
        "lic",
        "it"
      ],
      [
        "Ġ2",
        "00"
      ],
      [
        "st",
        "dout"
      ],
      [
        "Con",
        "tent"
      ],
      [
        "de",
        "s"
      ],
      [
        "an",
        "k"
      ],
      [
        "C",
        "lass"
      ],
      [
        "Ġhe",
        "lp"
      ],
      [
        "Ġre",
        "tri"
      ],
      [
        "Ġcol",
        "umns"
      ],
      [
        "c",
        "er"
      ],
      [
        "ĠĠĠĠĠĠĠĠĠĠĠĠĠĠĠĠĠĠĠĠĠĠĠĠĠĠĠĠĠĠĠĠ",
        "Ġ"
      ],
      [
        "ab",
        "ility"
      ],
      [
        "ens",
        "ure"
      ],
      [
        "g",
        "re"
      ],
      [
        "Ġm",
        "on"
      ],
      [
        "MA",
        "IN"
      ],
      [
        "ut",
        "ton"
      ],
      [
        "Ġ",
        "queue"
      ],
      [
        "ĠR",
        "es"
      ],
      [
        "Ġle",
        "ft"
      ],
      [
        "Ġdef",
        "in"
      ],
      [
        "2",
        "01"
      ],
      [
        "difi",
        "ed"
      ],
      [
        "Ġst",
        "ack"
      ],
      [
        "Ġg",
        "o"
      ],
      [
        "In",
        "fo"
      ],
      [
        "1",
        "00"
      ],
      [
        "ĠKey",
        "Error"
      ],
      [
        "ra",
        "ise"
      ],
      [
        "ertifi",
        "cate"
      ],
      [
        "p",
        "lot"
      ],
      [
        "il",
        "y"
      ],
      [
        "ed",
        "it"
      ],
      [
        "Ġcall",
        "able"
      ],
      [
        "ĠA",
        "s"
      ],
      [
        "Ġp",
        "i"
      ],
      [
        "o",
        "pt"
      ],
      [
        "y",
        "s"
      ],
      [
        "Con",
        "nection"
      ],
      [
        "Ġpoint",
        "s"
      ],
      [
        "Ġass",
        "ign"
      ],
      [
        "li",
        "sh"
      ],
      [
        "Ġcontain",
        "er"
      ],
      [
        "s",
        "ue"
      ],
      [
        "en",
        "cy"
      ],
      [
        "GE",
        "T"
      ],
      [
        "it",
        "u"
      ],
      [
        "o",
        "ptional"
      ],
      [
        "Ġde",
        "bug"
      ],
      [
        "Ġth",
        "rough"
      ],
      [
        "FA",
        "ULT"
      ],
      [
        "add",
        "r"
      ],
      [
        "Ġpre",
        "sent"
      ],
      [
        "ĠW",
        "hen"
      ],
      [
        "Ġht",
        "ml"
      ],
      [
        "F",
        "ound"
      ],
      [
        "Ġt",
        "mp"
      ],
      [
        "Ġs",
        "rc"
      ],
      [
        "Ġindi",
        "c"
      ],
      [
        "Ġ'",
        "_"
      ],
      [
        "ĠD",
        "i"
      ],
      [
        "O",
        "K"
      ],
      [
        "Ġv",
        "is"
      ],
      [
        "u",
        "x"
      ],
      [
        "Ġma",
        "in"
      ],
      [
        "Ġe",
        "qual"
      ],
      [
        "Ġst",
        "ore"
      ],
      [
        "w",
        "arning"
      ],
      [
        "I",
        "ON"
      ],
      [
        "ut",
        "er"
      ],
      [
        "5",
        "0"
      ],
      [
        "b",
        "ers"
      ],
      [
        "\"",
        "])"
      ],
      [
        "b",
        "row"
      ],
      [
        "Ġo",
        "b"
      ],
      [
        "Ġweight",
        "s"
      ],
      [
        "Res",
        "ult"
      ],
      [
        "w",
        "d"
      ],
      [
        "is",
        "ion"
      ],
      [
        "Ġcur",
        "sor"
      ],
      [
        "Ġag",
        "ain"
      ],
      [
        "[:",
        ","
      ],
      [
        "Ġthe",
        "ir"
      ],
      [
        "Ġcorrespon",
        "ding"
      ],
      [
        "se",
        "n"
      ],
      [
        "stra",
        "int"
      ],
      [
        "prec",
        "ated"
      ],
      [
        "Ġun",
        "der"
      ],
      [
        "I",
        "P"
      ],
      [
        "Ġap",
        "pro"
      ],
      [
        "ĠTO",
        "DO"
      ],
      [
        "Ġpo",
        "ssible"
      ],
      [
        "el",
        "y"
      ],
      [
        "ci",
        "mal"
      ],
      [
        "scal",
        "e"
      ],
      [
        "lat",
        "ive"
      ],
      [
        "]",
        "),"
      ],
      [
        "di",
[...]
